00000000000000000000001110001010
00000000000000000000010000001100
00000000000000000000000001001111
00000000000000000000001110010100
00000000000000000000001110011000
00000000000000000000000011000011
00000000000000000000010000010111
00000000000000000000000111100111
00000000000000000000010001001100
00000000000000000000001101011101
00000000000000000000001110100110
00000000000000000000000100001010
00000000000000000000001011011100
00000000000000000000001100100001
00000000000000000000001001010101
00000000000000000000000110100110
00000000000000000000001000101101
00000000000000000000001100101111
00000000000000000000010001010110
00000000000000000000000011110000
00000000000000000000000001011000
00000000000000000000000111011000
00000000000000000000000010001111
00000000000000000000000100001100
00000000000000000000001111000011
00000000000000000000000000111111
00000000000000000000000011010000
00000000000000000000000001011000
00000000000000000000001100011110
00000000000000000000010000001111
00000000000000000000000001110001
00000000000000000000001000010111
00000000000000000000001110000111
00000000000000000000000010111110
00000000000000000000000100111010
00000000000000000000001010101000
00000000000000000000000111110110
00000000000000000000000001001010
00000000000000000000001111111101
11111111111111111111111110110110
00000000000000000000010000111010
00000000000000000000001100101000
00000000000000000000001010111000
00000000000000000000010000100110
00000000000000000000000111110011
11111111111111111111111111010110
00000000000000000000010000001001
00000000000000000000010001100101
00000000000000000000001101101110
00000000000000000000001111001001
00000000000000000000000001111011
00000000000000000000001110010100
00000000000000000000000011011011
00000000000000000000000011110110
00000000000000000000000000010001
00000000000000000000000000001100
00000000000000000000000100110110
00000000000000000000000011100001
00000000000000000000000001100111
00000000000000000000010001101011
00000000000000000000000001111000
00000000000000000000000011000010
00000000000000000000001000011110
00000000000000000000010000101110
00000000000000000000000101100010
00000000000000000000000100100101
00000000000000000000000010110000
11111111111111111111111111100011
11111111111111111111110111101010
11111111111111111111101100000101
11111111111111111111110001010101
11111111111111111111110000100111
11111111111111111111100111001011
11111111111111111111101100100100
11111111111111111111101111111011
11111111111111111111111010100110
00000000000000000000000011110100
00000000000000000000010011100000
00000000000000000000001001100011
00000000000000000000000011000001
00000000000000000000001010100101
00000000000000000000000111011000
00000000000000000000010001100010
00000000000000000000010001000001
00000000000000000000001101110111
00000000000000000000010001110100
00000000000000000000010001011010
00000000000000000000000001110000
00000000000000000000000010111100
00000000000000000000000011001100
00000000000000000000010100100100
00000000000000000000001000010001
00000000000000000000001000100111
00000000000000000000000101010110
11111111111111111111111110010110
00000000000000000000000001110010
11111111111111111111110000010101
11111111111111111111110110010011
11111111111111111111100101100110
00000000000000000000000100001001
00000000000000000000100100001100
00000000000000000010001110000001
00000000000000000000111001110111
11111111111111111111111110101111
00000000000000000000010001001110
00000000000000000000001111100110
00000000000000000000010001000100
00000000000000000000001111010001
00000000000000000000010111111100
00000000000000000000000001101000
00000000000000000000000110111000
00000000000000000000000101001110
00000000000000000000001100010101
00000000000000000000000100011010
00000000000000000000000100010100
00000000000000000000001000001100
00000000000000000000000101010001
00000000000000000000000010010001
11111111111111111111110100110011
11111111111111111111101110110101
11111111111111111111100111100111
11111111111111111111000101110001
11111111111111111110010100111011
11111111111111111101011011000001
11111111111111111100010001010101
11111111111111111011011101011010
11111111111111111011100111101001
11111111111111111101000011001111
11111111111111111111101101101011
00000000000000000000101100011111
11111111111111111111100001010111
11111111111111111111010011011001
11111111111111111111010001001100
11111111111111111111010000100001
11111111111111111111100101110101
11111111111111111111101111011101
11111111111111111111111111001000
00000000000000000000001111011000
00000000000000000000000100010010
00000000000000000000000101000001
00000000000000000000000001000110
00000000000000000000000111100111
00000000000000000000001001001110
00000000000000000000001010110011
11111111111111111111111010110000
11111111111111111111001010100000
11111111111111111111010011110010
11111111111111111111110100100100
11111111111111111100110100000010
11111111111111111010000111111110
11111111111111111010101111110101
11111111111111111110100100000011
11111111111111111101101001100111
11111111111111111101111000010001
11111111111111111011110011110111
11111111111111111110011011110111
11111111111111111111110101001010
11111111111111111101110011000101
11111111111111111101000011010110
11111111111111111110011111110011
11111111111111111110111101010000
11111111111111111111001101110110
11111111111111111111011000101001
11111111111111111111001110001010
11111111111111111111010000101010
11111111111111111111110111110001
11111111111111111111111101011011
00000000000000000000000001111101
00000000000000000000000100110110
00000000000000000000000010100111
11111111111111111111111110011000
11111111111111111111110000000111
11111111111111111111111010110010
00000000000000000001101010011110
00000000000000000110110100010010
00000000000000000000010101110100
11111111111111111011100011000000
11111111111111111110111011111110
00000000000000000111110000011101
00000000000000000011011001101110
11111111111111111011100010001100
11111111111111111111011111001100
11111111111111111110001101111000
00000000000000000011111101110010
00000000000000000001001010000011
11111111111111111110010001000000
11111111111111111110011100100001
11111111111111111100100001111101
11111111111111111110010100001010
11111111111111111100110010010001
11111111111111111101111010010011
11111111111111111101011011111101
11111111111111111110000110001110
11111111111111111111001000100010
11111111111111111111110110111110
00000000000000000000000101011000
00000000000000000000000010101111
00000000000000000000001010011010
11111111111111111111011001111111
11111111111111111110101000111110
11111111111111111110101000001100
11111111111111111111001100111011
00000000000000000010100111010010
11111111111111111100011001101111
11111111111111111111110001011100
00000000000000000011100010000101
00000000000000000110000001001110
00000000000000000011111101110010
00000000000000000001110001000001
11111111111111111011100000101000
00000000000000000000001011010001
00000000000000000011011010011100
11111111111111110110110111010010
11111111111111111001011101100000
11111111111111111111010100011011
11111111111111111111000100100111
11111111111111111101011101011111
11111111111111111001101110010000
11111111111111111010011001011100
11111111111111111011011010000100
11111111111111111101011110110001
11111111111111111110100001100000
11111111111111111111101111100011
00000000000000000000001011110111
00000000000000000000010001000111
11111111111111111111101110100011
11111111111111111111000001101010
11111111111111111111100011100010
00000000000000000000011110101101
11111111111111111100000100001111
00000000000000000101101011110110
00000000000000000001010101110110
11111111111111111110000101110111
11111111111111111100110111011111
11111111111111111101011010010100
11111111111111111110011101001111
11111111111111111110001110010000
00000000000000000011001011011000
00000000000000000111010001100101
11111111111111111101011101101011
11111111111111111110011000110100
11111111111111111101101010111010
11111111111111111100110001010101
11111111111111111011100111001111
11111111111111111010111111101110
11111111111111111010111010001010
11111111111111111001000011011011
11111111111111111010101001100001
11111111111111111100110100010101
11111111111111111111001000011011
11111111111111111111111100100000
00000000000000000000000111001001
00000000000000000000000110000001
11111111111111111111100011001000
11111111111111111111100001111011
11111111111111111110100010111100
11111111111111111110110000111101
11111111111111111101000010101110
00000000000000000000010000100000
00000000000000000010001000111001
00000000000000000011101011011010
00000000000000000010001000111101
00000000000000000100001000010100
00000000000000000001011011000010
00000000000000000010000111001001
11111111111111111111111111001010
11111111111111111110111100101100
00000000000000000000101010001010
11111111111111111111011001001111
11111111111111111101111111001111
00000000000000000000010110100101
00000000000000000100010111110001
00000000000000000011101000111110
11111111111111111101001000110101
11111111111111111001100011000001
11111111111111111101000001111011
11111111111111111101110011101011
11111111111111111110111001000000
00000000000000000000000000101000
11111111111111111111111010000101
00000000000000000000000011101101
11111111111111111111101110110010
11111111111111111110011111111111
11111111111111111111000101110001
11111111111111111100100110111110
00000000000000000000010011000010
11111111111111111101011111011000
11111111111111111111100101111101
00000000000000000011110100100110
11111111111111111111001100010100
00000000000000000011110000110110
00000000000000000100101011010110
00000000000000000100111011100010
00000000000000000001000110001000
11111111111111110101010111111110
11111111111111111011000110000000
11111111111111111110010001100010
11111111111111111110000001100000
11111111111111111110010011011110
00000000000000000000010011100011
00000000000000000010010110000100
11111111111111111111011100100101
11111111111111111100100001010100
11111111111111111110101111010110
11111111111111111101110011001101
11111111111111111110110010000001
11111111111111111111111001011000
00000000000000000000000001111110
00000000000000000000001011100111
00000000000000000000000100110000
11111111111111111111010110011101
11111111111111111111000000000011
11111111111111111111101100110000
11111111111111111111111001010100
11111111111111111110011111111110
00000000000000000000111110101000
00000000000000000011011011001010
11111111111111111101110001110100
11111111111111111001111010110010
11111111111111111111111011011110
11111111111111110111100010001010
11111111111111111010100000001100
11111111111111110111001110010101
11111111111111111101100001000110
11111111111111111100010010110110
00000000000000000000111111010101
11111111111111111101111110001110
11111111111111111110010001111100
00000000000000000001111011011111
00000000000000000000010000111110
11111111111111111110110000000001
11111111111111111111110010111111
11111111111111111111100100101100
11111111111111111111011111000000
11111111111111111111111101110100
00000000000000000000000010100011
11111111111111111111111101101110
00000000000000000000001010100010
11111111111111111111111110101101
11111111111111111111110000111001
11111111111111111111110010010000
11111111111111111110100111010101
11111111111111111010101011100010
11111111111111111101000001100101
11111111111111111111000111110000
11111111111111111010111010110000
11111111111111111010100100111000
11111111111111110100111101110110
11111111111111110101111100110001
11111111111111110100000010100100
11111111111111111001000111110010
11111111111111111101101110010000
11111111111111111100001111001111
00000000000000000000010110110010
00000000000000000010010101100010
00000000000000000001110110000100
00000000000000000011110000001001
11111111111111111110100100000000
11111111111111111110110001111101
11111111111111111111011101010011
11111111111111111111011011101100
11111111111111111111001101011001
11111111111111111111111101111110
00000000000000000000001110101011
00000000000000000000000101111110
00000000000000000000000111111010
11111111111111111111111100100011
11111111111111111111100110001100
11111111111111111110100100101010
11111111111111111100101101010101
11111111111111111011000000110111
11111111111111111011101100100100
11111111111111111011100011100100
11111111111111110100000110100100
11111111111111110101110010010101
11111111111111110101111000010101
11111111111111111000011111001001
11111111111111111100110100101110
11111111111111111111101110000001
11111111111111111100101111010100
11111111111111111111110110101001
00000000000000000001000000011000
11111111111111111110111000101100
00000000000000000001011000111111
00000000000000000001010101000111
11111111111111111011001001100000
11111111111111111101001110101000
11111111111111111110001001001101
11111111111111111111001010001100
11111111111111111111100011111011
00000000000000000000001001010110
00000000000000000000001111110010
00000000000000000000000011010001
00000000000000000000001110010000
00000000000000000000000101000111
11111111111111111111101101010010
11111111111111111110010111110011
11111111111111111100010101001101
11111111111111111001100010010111
11111111111111110110101111100100
11111111111111110110111101000111
11111111111111110110010101011110
11111111111111111000101110010100
11111111111111111101101001001001
00000000000000000110011100011000
00000000000000001001101001111010
00000000000000000000001101011100
11111111111111111101010010101110
11111111111111111100111010100110
11111111111111111110000110101111
11111111111111111000011011100101
11111111111111110111101100111111
11111111111111111100001011001100
11111111111111111100110000111011
11111111111111111101100111001011
11111111111111111110111010010001
11111111111111111111101100000011
00000000000000000000001000001110
11111111111111111111111111111010
00000000000000000000001100111000
00000000000000000000001011111110
00000000000000000000000001110000
11111111111111111111111111001011
11111111111111111111110000011111
11111111111111111110110000111001
11111111111111111101000110001101
11111111111111111001110010101010
11111111111111111011001011111101
11111111111111111010001000011010
11111111111111110101011011101111
11111111111111111010100101100010
11111111111111111110110100011110
00000000000000001011100011110000
00000000000000000110101111101101
00000000000000000001111010111010
00000000000000000010011011000111
00000000000000000000011100101100
11111111111111111111010000011010
11111111111111111001110100101011
11111111111111110110010101100000
11111111111111111010100101011110
11111111111111111011011101001110
11111111111111111101011111011101
11111111111111111110011100111001
11111111111111111111111011001101
00000000000000000000001001000011
00000000000000000000001110011011
00000000000000000000001110111101
00000000000000000000001100011101
00000000000000000000010010100101
00000000000000000000001001001000
11111111111111111111110111100001
11111111111111111110101111111110
11111111111111111011101011011000
11111111111111111100010101110010
11111111111111111101010011110011
11111111111111111110110110100001
00000000000000000010100111100100
00000000000000000001101111100010
00000000000000000111001011011000
00000000000000000100110010100011
11111111111111111101101111110110
11111111111111111101110001101010
00000000000000000000010100110001
11111111111111110111100111001000
11111111111111111010000000101110
11111111111111111010111010101010
11111111111111110100111000000011
11111111111111111001111000111111
11111111111111111011100001000011
11111111111111111101001011000011
11111111111111111101110101101010
11111111111111111111100111001100
11111111111111111111101001000100
11111111111111111111100000110101
00000000000000000000010001010110
00000000000000000000001000110111
00000000000000000000000001011010
00000000000000000000001010100000
11111111111111111111111100101110
11111111111111111111001010110011
11111111111111111011001100100100
11111111111111111110010111011010
00000000000000000000101101110110
00000000000000000000111010000110
00000000000000000010001101001100
00000000000000000011100111100010
11111111111111111110110111000011
00000000000000000001110010100010
00000000000000000111001000111000
00000000000000000101000011100110
00000000000000000010100000000101
00000000000000000000000001000111
11111111111111111010111111001010
11111111111111111001111100001011
11111111111111111111011010110010
11111111111111111110001101001100
11111111111111111100001101110001
11111111111111111101010100101010
11111111111111111101111001100110
11111111111111111110110110011001
11111111111111111110101110100100
11111111111111111111110110111000
00000000000000000000011000001010
00000000000000000000000101010110
00000000000000000000000000110101
00000000000000000000001010111110
00000000000000000000001010101100
11111111111111111111100111110100
11111111111111111101101111000110
11111111111111111100100011101001
11111111111111111110001110000011
11111111111111111101100000000011
00000000000000000011011100011100
00000000000000000010000001000001
00000000000000000110010001110001
00000000000000000001101111011100
00000000000000000110010001000010
11111111111111111101001100101100
11111111111111111101100000001110
11111111111111111100011101000010
11111111111111110100111111000111
11111111111111111101001111111000
00000000000000000000101100110011
00000000000000000001001110100010
11111111111111111100000000110110
11111111111111111010000110000101
11111111111111111010101000010101
11111111111111111011100001011011
11111111111111111101110110000011
11111111111111111111101001111011
00000000000000000000010000101000
00000000000000000000001010011001
00000000000000000000000000110101
00000000000000000000001011100001
00000000000000000000000101110110
11111111111111111111110011010010
11111111111111111111111011101101
11111111111111111100100100010100
11111111111111111101000101110010
11111111111111111100010000010101
00000000000000000010010000111011
00000000000000000000101101000011
00000000000000000011010010011001
00000000000000000001111101010000
11111111111111111111111110111000
11111111111111111001011100000110
11111111111111111001010100001101
11111111111111111010101100001001
11111111111111111001011010010000
11111111111111111111110010000100
00000000000000000100011101111111
11111111111111111111111001011111
00000000000000000001011110000111
11111111111111111100110001110111
11111111111111111000010101100011
11111111111111111001000011111101
11111111111111111100001000011001
11111111111111111101010111010010
00000000000000000000001101101100
00000000000000000000000101110000
11111111111111111111111010100111
00000000000000000000000001001000
00000000000000000000011001000010
00000000000000000000000001000010
11111111111111111101011010110010
11111111111111111010110001100000
11111111111111111010011001011100
11111111111111111001101001110000
11111111111111111000000011000100
11111111111111110101000100101010
11111111111111110100111011101000
11111111111111110001111111111011
11111111111111111000010110001100
11111111111111111100010000001101
11111111111111110111011101010010
11111111111111111101101110101110
11111111111111111011110100110011
00000000000000000000100000000011
00000000000000000101100000100100
11111111111111111111110010111110
00000000000000000001011101000110
11111111111111111111011010111101
11111111111111111101110001010000
11111111111111110111111000110001
11111111111111111011101110111010
11111111111111111110000111010101
00000000000000000000000101011000
00000000000000000000000001111100
00000000000000000000001000110000
11111111111111111111111001010001
00000000000000000000001101100001
00000000000000000000010111111000
11111111111111111111100101111111
11111111111111111101010000011000
11111111111111111011011011110110
11111111111111111010010111110100
11111111111111110110101111010100
11111111111111110110011000100000
11111111111111110101010001000011
11111111111111110010100001010100
11111111111111110100110111010110
11111111111111111001100100111000
00000000000000000000110000111000
00000000000000000001001011110111
11111111111111111110101010110010
00000000000000000011001101001000
00000000000000000011001111001111
00000000000000000001010111010100
11111111111111111111011011000110
00000000000000000000111000111011
00000000000000000000110010010111
11111111111111111101010010101110
11111111111111111110111011100001
11111111111111111111100101000111
00000000000000000000000110010010
00000000000000000000000001101100
00000000000000000000001110011001
00000000000000000000000101001111
11111111111111111111111010111011
11111111111111111111110011101111
11111111111111111111000110000011
11111111111111111111000011111110
11111111111111111101001110110010
11111111111111111011001110110110
11111111111111111010101100010110
11111111111111111000100100011010
11111111111111110111100001110010
11111111111111110101000111110111
11111111111111110110100001010110
11111111111111111011110101110100
00000000000000000010101101101010
00000000000000000011111001101000
00000000000000000100101111110111
00000000000000000010100110011111
00000000000000000000001011010010
00000000000000000001011110101101
11111111111111111101101110111010
00000000000000000000101101111010
00000000000000000001011000011001
11111111111111111111100000101110
11111111111111111111110110001011
00000000000000000000000010011101
00000000000000000000001000000101
00000000000000000000000000001100
00000000000000000000001111111000
00000000000000000000010110001001
00000000000000000000001111000000
11111111111111111111010100110010
11111111111111111110111000001100
00000000000000000010000001000011
00000000000000000000010101011000
11111111111111111100011000001110
11111111111111111011011010011010
11111111111111111011000001000111
11111111111111111000110000001110
11111111111111111101000101001100
00000000000000000010010001100001
00000000000000000010111100100110
00000000000000000110010010110100
11111111111111111011111001101110
00000000000000000011010101010011
00000000000000000001100011110100
00000000000000000010001111001001
00000000000000000000101100011001
11111111111111111111101110110010
00000000000000000000111100000010
00000000000000000000001011100100
11111111111111111110011000010010
00000000000000000000000001111000
00000000000000000000001001011100
00000000000000000000000000111111
00000000000000000000000000001110
00000000000000000000001100000110
00000000000000000000010010010000
11111111111111111111101100000110
11111111111111111111001011010111
11111111111111111110110101010101
00000000000000000011010000101111
00000000000000000010011001101110
00000000000000000000101101100011
11111111111111111111010011001100
11111111111111111110111111100011
00000000000000000010011010000100
00000000000000000010100110110101
00000000000000000100011010011010
00000000000000000100000110111111
00000000000000000100011000110111
00000000000000000100100110000100
00000000000000001000011000111010
00000000000000000001011011111011
00000000000000000010110011110001
00000000000000000011110001110000
11111111111111111110110011100011
00000000000000000001100001111010
00000000000000000001101100110111
11111111111111111101010011110000
11111111111111111101011110011010
11111111111111111110111010001100
00000000000000000000001011101111
00000000000000000000001101110010
00000000000000000000001110110001
00000000000000000000001101110110
11111111111111111111100111101100
11111111111111111111011001010101
11111111111111111111010101001010
00000000000000000000111111110011
00000000000000000001110111001000
00000000000000000110101100110111
00000000000000000111110110101001
00000000000000000111000101000010
11111111111111111110110110111000
00000000000000000111101111111111
00000000000000000111001101011111
00000000000000000100000100011101
00000000000000000000111011111011
00000000000000000000100000101101
11111111111111111100111001000000
00000000000000000000100100010111
00000000000000000110001010000111
11111111111111111110110000010010
11111111111111111011100001011001
11111111111111111111011001110011
00000000000000000000001100010001
11111111111111111111110111000011
11111111111111111111001100001100
11111111111111111110111001111110
00000000000000000000001101011111
00000000000000000000010000011101
00000000000000000000001111100001
00000000000000000000000110111100
00000000000000000000001011101101
00000000000000000000000001011001
11111111111111111110100001001111
11111111111111111110110010001101
11111111111111111111110000111100
11111111111111111111111110011001
00000000000000000000010011100000
00000000000000000000100001010101
11111111111111111110111111010000
11111111111111111110110111011100
11111111111111111110000010100101
11111111111111111010100100111111
11111111111111111010101101010000
11111111111111111110011111110011
11111111111111111111011000110100
11111111111111111101111101011100
11111111111111111110000100100011
11111111111111111110110001110011
11111111111111111111001110101110
00000000000000000000000000111110
00000000000000000000000010001011
00000000000000000000000011000001
00000000000000000000000110111010
00000000000000000000001011000111
00000000000000000000001001010011
00000000000000000000000011101000
00000000000000000000000010110000
00000000000000000000000100011111
00000000000000000000000001110100
00000000000000000000010010010000
00000000000000000000001011100111
00000000000000000000001100110001
00000000000000000000001100010000
00000000000000000000001101000111
11111111111111111111111100001101
11111111111111111111110111101011
11111111111111111111111111001111
11111111111111111111010000010000
11111111111111111111000001001010
11111111111111111110110101000100
11111111111111111111000000110010
11111111111111111111000001010111
11111111111111111111100001010111
11111111111111111111110101100100
11111111111111111111111110101110
11111111111111111111111101101111
11111111111111111111111101110000
00000000000000000000000100001111
00000000000000000000001010111100
00000000000000000000000110011011
00000000000000000000010001011000
00000000000000000000001011111000
00000000000000000000001001011001
