00000000000000000000001000101100
00000000000000000000001110101000
00000000000000000000000101101010
00000000000000000000001100101101
00000000000000000000001010100000
00000000000000000000000100111110
00000000000000000000000101111001
00000000000000000000001110101011
00000000000000000000000000100011
00000000000000000000000000100011
00000000000000000000000010010011
00000000000000000000010001101001
00000000000000000000000110111000
00000000000000000000001001110110
00000000000000000000001000011000
00000000000000000000000100011011
00000000000000000000001010100001
00000000000000000000000001010100
00000000000000000000001111001101
00000000000000000000001010100001
00000000000000000000001010110101
00000000000000000000010001101100
00000000000000000000001111100000
00000000000000000000001001110011
00000000000000000000010000011111
00000000000000000000000001001001
00000000000000000000010001011100
00000000000000000000000011100101
00000000000000000000001101100111
00000000000000000000001001010001
00000000000000000000000010100010
00000000000000000000000100000001
00000000000000000000000101100101
00000000000000000000001000001000
00000000000000000000001111110000
00000000000000000000001110101000
00000000000000000000001100111010
00000000000000000000000011101011
00000000000000000000001011000011
00000000000000000000001011100011
11111111111111111111111111100000
00000000000000000000001011000001
00000000000000000000010000100100
00000000000000000000001111000000
00000000000000000000000011010111
11111111111111111111111110101010
00000000000000000000001101101000
11111111111111111111111101101010
00000000000000000000000011101111
00000000000000000000001101110111
00000000000000000000001010101001
00000000000000000000001111010101
00000000000000000000001101011100
00000000000000000000001000001100
00000000000000000000000110111010
00000000000000000000001011101001
00000000000000000000001001010101
00000000000000000000000110000100
00000000000000000000001111001101
00000000000000000000000100101000
00000000000000000000001111000000
00000000000000000000010001100000
00000000000000000000000110100000
11111111111111111111111100111110
11111111111111111111111111100000
11111111111111111111111111110110
11111111111111111111110110011010
11111111111111111111110011011010
11111111111111111111111011000011
11111111111111111111111110111111
11111111111111111111110110011111
11111111111111111111110101100010
11111111111111111111101111110110
11111111111111111111101100011111
11111111111111111111101110001001
00000000000000000000000001001001
11111111111111111111111001101001
11111111111111111111111000010010
00000000000000000000001011100000
11111111111111111111111111101110
00000000000000000000000101110111
00000000000000000000001011001100
00000000000000000000001111111100
00000000000000000000000000100011
00000000000000000000000000110011
00000000000000000000000100100101
00000000000000000000001100001110
00000000000000000000001010000010
00000000000000000000001010101001
00000000000000000000000111011010
00000000000000000000001010011001
11111111111111111111111100101101
11111111111111111111110111001100
11111111111111111111101101111001
11111111111111111111101101011000
11111111111111111111101100100101
11111111111111111111100111000101
11111111111111111111100011011011
11111111111111111111011101010101
11111111111111111111101010111000
11111111111111111111100100001110
11111111111111111111100000100001
11111111111111111111010010000100
11111111111111111111110001101110
11111111111111111111111011011001
00000000000000000000000111010101
00000000000000000000001011000001
00000000000000000000000100011101
00000000000000000000001000110001
00000000000000000000010000101011
00000000000000000000000110011100
00000000000000000000001011010011
00000000000000000000000111000011
00000000000000000000000011110001
00000000000000000000001100001110
00000000000000000000001000000111
00000000000000000000001001010111
00000000000000000000000000110011
00000000000000000000001010010011
11111111111111111111110100111000
00000000000000000000000010111011
11111111111111111111111000111110
11111111111111111111110010000010
11111111111111111111100011100111
11111111111111111111001100100011
11111111111111111110111110110101
11111111111111111111010000010101
11111111111111111111100111000011
11111111111111111111001011110011
11111111111111111110101000011010
11111111111111111111000100101110
11111111111111111111101011101001
11111111111111111111111100100110
00000000000000000000001010110010
00000000000000000000011101000110
00000000000000000000011110100010
00000000000000000000001100001100
00000000000000000000010001100001
00000000000000000000010010100101
00000000000000000000000110110011
00000000000000000000000110000111
00000000000000000000000101010100
00000000000000000000000000001011
00000000000000000000001100101101
00000000000000000000000101100011
00000000000000000000001000111110
00000000000000000000000010110100
00000000000000000000011100010101
00000000000000000000011011000101
00000000000000000000000100100100
11111111111111111111111100111110
11111111111111111111001100001011
11111111111111111110111010010000
11111111111111111111000101100100
11111111111111111111000110101001
11111111111111111110111110101010
11111111111111111110110101101100
11111111111111111110000111111111
11111111111111111110101011111010
11111111111111111110110001000011
11111111111111111111000011010010
11111111111111111111100011010101
11111111111111111111111010010000
00000000000000000000001101101100
00000000000000000000000000110011
00000000000000000000001111011101
00000000000000000000000101100100
00000000000000000000000010111111
00000000000000000000000101111010
00000000000000000000000011110010
00000000000000000000001100100010
00000000000000000000001011101000
00000000000000000000001001100110
00000000000000000000011000000000
00000000000000000000010001111001
00000000000000000000100000001010
11111111111111111111111101111101
11111111111111111111101100011111
11111111111111111111101010110010
11111111111111111110011110001000
11111111111111111110011100000110
11111111111111111110110101011000
11111111111111111110111001001111
11111111111111111111100000111110
11111111111111111111001100100000
11111111111111111110101101110111
11111111111111111110101011111000
11111111111111111110100110100100
11111111111111111110111001000111
11111111111111111110111101010110
11111111111111111111100111100111
11111111111111111111111100100101
11111111111111111111111001011111
11111111111111111111111100100111
00000000000000000000001011011011
00000000000000000000000101011010
00000000000000000000001110101111
00000000000000000000001101010110
00000000000000000000001000010001
00000000000000000000000001111101
00000000000000000000001111101111
00000000000000000000000110100000
00000000000000000000010010010000
11111111111111111111110101000010
11111111111111111111101101001010
11111111111111111111001110010000
11111111111111111110010011110011
11111111111111111101110001101001
11111111111111111110010011011111
11111111111111111110010101000111
11111111111111111110100111001001
11111111111111111110010100111001
11111111111111111110011010011010
11111111111111111110010101100101
11111111111111111110011011011110
11111111111111111110000110110010
11111111111111111110011101111000
11111111111111111110100110101101
11111111111111111111001011101010
11111111111111111111101100111100
11111111111111111111110011110001
00000000000000000000000111010101
00000000000000000000010100001110
00000000000000000000000011100100
00000000000000000000001100010101
00000000000000000000000110010000
00000000000000000000000010100001
11111111111111111111111010000110
11111111111111111111101001100010
11111111111111111111101010000100
11111111111111111111110001010110
11111111111111111111100100111100
11111111111111111110111101011100
11111111111111111110001111000101
11111111111111111101110111101100
11111111111111111110011000011110
11111111111111111110100101111101
11111111111111111110011011011010
11111111111111111110000111111110
11111111111111111101111100001010
11111111111111111101010010011110
11111111111111111101111110011110
11111111111111111110010001111010
11111111111111111101101011011100
11111111111111111110001111110110
11111111111111111110011011110000
11111111111111111110111100111100
11111111111111111111101001011000
11111111111111111111101011110100
11111111111111111111111110001100
00000000000000000000000111111101
00000000000000000000000001101111
00000000000000000000001110101011
00000000000000000000000110010101
11111111111111111111111100011011
11111111111111111111111000111011
11111111111111111111110101001101
11111111111111111111110100111111
00000000000000000000001000010100
11111111111111111111101101100101
11111111111111111101111110010011
11111111111111111101101101111000
11111111111111111101100100000010
11111111111111111110011010011001
11111111111111111110010110110101
11111111111111111110011001000101
11111111111111111110010000111001
11111111111111111110001101000111
11111111111111111101101010100111
11111111111111111110010111001011
11111111111111111110011111010101
11111111111111111110001000000110
11111111111111111110001111010101
11111111111111111110111000101101
11111111111111111111000111101011
11111111111111111111011110010100
00000000000000000000000011101111
00000000000000000000001010100001
00000000000000000000001100111111
00000000000000000000000110010011
00000000000000000000000101000010
00000000000000000000000000000110
00000000000000000000000001010111
11111111111111111111110100001000
11111111111111111111110011000110
11111111111111111111111111000111
00000000000000000000001011000100
11111111111111111111010101000100
11111111111111111101111110110010
11111111111111111101101001100010
11111111111111111110000000100011
11111111111111111111011100001001
11111111111111111111011110000001
11111111111111111111001100000010
11111111111111111110011101010000
11111111111111111110101000111010
11111111111111111110110110100100
11111111111111111110101111110011
11111111111111111111000111001010
11111111111111111110100111111100
11111111111111111110111100011100
11111111111111111111001001001110
11111111111111111110111010000110
11111111111111111111011001000110
00000000000000000000010010001001
00000000000000000000101000111010
00000000000000000000000101000001
00000000000000000000000011111110
00000000000000000000000000101100
00000000000000000000001011101010
00000000000000000000000010000010
11111111111111111111111100111111
00000000000000000000000111010110
00000000000000000000000010000010
11111111111111111111110100101001
11111111111111111111001001101000
11111111111111111110001101001110
11111111111111111110000110101000
11111111111111111111000111110110
00000000000000000000011010101011
00000000000000000000100101001001
11111111111111111111100010010001
11111111111111111111000100001000
11111111111111111111111100110010
11111111111111111111010111011101
11111111111111111111101101010111
11111111111111111111001010010110
11111111111111111110101001000100
11111111111111111110101001011100
11111111111111111110110010001111
11111111111111111110111010111011
11111111111111111111001010010101
11111111111111111111101111111001
00000000000000000000001101001100
00000000000000000000000110001111
00000000000000000000000100101001
00000000000000000000010001001100
00000000000000000000000101010101
00000000000000000000000011001010
00000000000000000000010000111111
00000000000000000000000101011000
00000000000000000000000001011111
11111111111111111111101001111100
11111111111111111111001011011101
11111111111111111110111100101000
11111111111111111110101111000000
11111111111111111111010101111100
00000000000000000000110101100110
00000000000000000001000011111011
11111111111111111111101011010100
11111111111111111111010110100101
11111111111111111111011000101000
11111111111111111111001100001000
11111111111111111111000001110010
11111111111111111111001000110011
11111111111111111110100101111011
11111111111111111110100100000111
11111111111111111110110110011110
11111111111111111111000010000001
11111111111111111111001000101011
11111111111111111111100110110001
00000000000000000000010011110000
00000000000000000000001011010100
00000000000000000000000111001001
00000000000000000000000111000110
00000000000000000000000111100001
00000000000000000000001000101011
00000000000000000000000110111100
00000000000000000000011010011111
00000000000000000000001010001100
11111111111111111111101100001111
11111111111111111111001111101111
11111111111111111110111100000010
11111111111111111110101011011010
11111111111111111111001011000101
00000000000000000000011100000101
00000000000000000000000100011010
11111111111111111110011011001100
11111111111111111110100001010001
11111111111111111101110100000100
11111111111111111110011000111111
11111111111111111111001100110110
11111111111111111110111011010110
11111111111111111110111100111001
11111111111111111111100000110011
11111111111111111111000100100001
11111111111111111110110111011000
11111111111111111111000111111111
11111111111111111111111001111100
00000000000000000000010100111111
00000000000000000000010011011000
00000000000000000000010000101111
00000000000000000000000110001001
00000000000000000000000100011000
00000000000000000000000011100100
00000000000000000000001110010110
00000000000000000000001111110000
11111111111111111111111000010101
11111111111111111111001111101010
11111111111111111111010000110000
11111111111111111110110110101010
11111111111111111110101011000011
11111111111111111110111011001010
11111111111111111111011000101011
11111111111111111110111100110001
11111111111111111101100101110001
11111111111111111101001101000010
11111111111111111101001001001111
11111111111111111110011111111111
11111111111111111110100101000100
11111111111111111110111011011001
11111111111111111111101110001010
11111111111111111111111111101100
11111111111111111111011110001000
11111111111111111110111111101010
11111111111111111111001101110110
11111111111111111111110001101011
00000000000000000000000100101011
00000000000000000000001000000100
00000000000000000000000111001000
00000000000000000000000110001011
00000000000000000000000111001001
00000000000000000000000101011111
00000000000000000000010000001000
00000000000000000000010000010000
11111111111111111111110100001011
11111111111111111111011110001111
11111111111111111111000111101001
11111111111111111110111101000100
11111111111111111111000101111000
11111111111111111111011111111000
11111111111111111110111111101001
11111111111111111110010010000001
11111111111111111100111110010101
11111111111111111100111000001011
11111111111111111101001111001000
11111111111111111110010011111010
11111111111111111110100100000111
11111111111111111110011101100100
11111111111111111111101011010111
11111111111111111111110000111101
11111111111111111111011001101000
11111111111111111111011000111001
11111111111111111111010000101101
11111111111111111111101100011010
00000000000000000000000111100111
00000000000000000000010000001010
00000000000000000000001110011011
00000000000000000000000000010111
00000000000000000000000010101011
00000000000000000000000011001100
00000000000000000000001110110101
00000000000000000000001011010111
11111111111111111111101111100001
11111111111111111111010011010100
11111111111111111111000101011001
11111111111111111111010101100111
11111111111111111111001100111101
11111111111111111111001000011010
11111111111111111110101000101000
11111111111111111110000101000000
11111111111111111101000010101100
11111111111111111100111110111101
11111111111111111101101101110100
11111111111111111110101111010100
11111111111111111110101000000100
11111111111111111111011001101101
00000000000000000000000010010000
11111111111111111111011011100001
11111111111111111111011101001001
11111111111111111111011110000000
11111111111111111111101100111101
11111111111111111111111101001000
00000000000000000000000001001110
00000000000000000000010000000111
00000000000000000000000011100111
00000000000000000000001100101000
00000000000000000000001000000000
00000000000000000000010010010111
00000000000000000000010100011110
00000000000000000000010001100110
11111111111111111111101101001010
11111111111111111111000001110010
11111111111111111110111100010011
11111111111111111111000011100001
11111111111111111110100100010000
11111111111111111110110110111111
11111111111111111110101000011101
11111111111111111101111001110011
11111111111111111101001100011001
11111111111111111101011101101101
11111111111111111110101001000110
11111111111111111111011000100010
11111111111111111111100000101110
00000000000000000000001011111010
11111111111111111111100000101111
11111111111111111110110010000100
11111111111111111111011100110000
11111111111111111111101001101001
11111111111111111111110101000101
00000000000000000000010100110111
00000000000000000000000011110010
00000000000000000000001110110110
00000000000000000000010001111100
00000000000000000000001000110001
00000000000000000000000111000110
00000000000000000000000010100111
00000000000000000000000111101001
00000000000000000000011011001100
11111111111111111111110010110110
11111111111111111111100001101100
11111111111111111111001000111000
11111111111111111110111101001100
11111111111111111110101110010111
11111111111111111111000001010110
11111111111111111110111101000000
11111111111111111101100100010100
11111111111111111101001100100111
11111111111111111101101010100101
11111111111111111110100100111000
11111111111111111111000000000010
11111111111111111111111010010100
11111111111111111111010011000101
11111111111111111110110000100111
11111111111111111111000011010001
11111111111111111111110100111111
11111111111111111111101000001001
00000000000000000000000100110011
00000000000000000000000000101110
11111111111111111111111101000010
00000000000000000000000101101001
00000000000000000000000011110001
00000000000000000000001010100100
00000000000000000000001111110011
00000000000000000000000100001000
00000000000000000000000100100000
00000000000000000000001000001001
11111111111111111111011100001110
11111111111111111111000010010000
11111111111111111110110001100111
11111111111111111110110111001001
11111111111111111110011010010011
11111111111111111110011000111100
11111111111111111110100110111011
11111111111111111110000111001011
11111111111111111101111101100111
11111111111111111101110011011011
11111111111111111101110011000101
11111111111111111110100110111110
11111111111111111110111111001011
11111111111111111110100011110010
11111111111111111110110000101010
11111111111111111110111000100010
11111111111111111111110100000000
11111111111111111111111001100111
00000000000000000000000100101000
00000000000000000000000100110010
00000000000000000000001001000010
00000000000000000000010011110010
00000000000000000000001101001011
00000000000000000000001101101010
00000000000000000000000010001010
00000000000000000000001111011011
00000000000000000000000110110011
00000000000000000000000110101010
11111111111111111111011100111100
11111111111111111110111111010100
11111111111111111110010000110110
11111111111111111110011110011010
11111111111111111110100100000111
11111111111111111110000000111000
11111111111111111110010101010000
11111111111111111110001110001101
11111111111111111101110010010100
11111111111111111101100001010101
11111111111111111101101100001010
11111111111111111110100110111010
11111111111111111111001010000100
11111111111111111110100011011111
11111111111111111111000010010110
11111111111111111111011010000011
00000000000000000000000111111010
00000000000000000000000110001010
11111111111111111111111100100010
00000000000000000000000100100100
00000000000000000000001000100101
00000000000000000000000011100001
00000000000000000000010001000011
00000000000000000000000011110110
00000000000000000000000001110100
00000000000000000000001001110011
00000000000000000000001000010000
11111111111111111111101101011010
11111111111111111111010001011100
11111111111111111110111011000001
11111111111111111110011000111010
11111111111111111110100110000000
11111111111111111110101000111111
11111111111111111110011101000110
11111111111111111110001100000000
11111111111111111101111001101110
11111111111111111101100111110101
11111111111111111110001011010010
11111111111111111110011101101000
11111111111111111111000100100000
11111111111111111110111111001010
11111111111111111111001000011101
11111111111111111111100111100011
11111111111111111111111010101100
00000000000000000000011100011001
00000000000000000000011010000001
00000000000000000000010001110101
00000000000000000000010011101011
00000000000000000000000000111101
00000000000000000000010001000111
00000000000000000000000011111001
00000000000000000000001011101100
00000000000000000000000001101100
00000000000000000000000001010111
00000000000000000000000111010010
11111111111111111111101110000111
11111111111111111111010101011000
11111111111111111110111010000000
11111111111111111110100100000100
11111111111111111110011010011100
11111111111111111110000111001011
11111111111111111110010100111100
11111111111111111110101101111101
11111111111111111110110111011100
11111111111111111110010011010101
11111111111111111110100011100110
11111111111111111110110100000110
11111111111111111111010100000101
11111111111111111110111010100010
11111111111111111111011001111000
00000000000000000000000010111001
00000000000000000000001010011100
00000000000000000000001110000001
00000000000000000000000110100011
00000000000000000000010110111101
00000000000000000000001000001010
00000000000000000000000111000010
00000000000000000000001010011101
00000000000000000000001111111111
00000000000000000000000010011110
00000000000000000000001000000011
00000000000000000000000000001001
00000000000000000000001001011000
00000000000000000000000011000010
11111111111111111111110000101100
11111111111111111111100110101001
11111111111111111111001111111011
11111111111111111110000010000101
11111111111111111101111110010101
11111111111111111110000011011101
11111111111111111110001110010101
11111111111111111110100110111110
11111111111111111110100101101111
11111111111111111110101111010100
11111111111111111110101010000011
11111111111111111110110101010010
11111111111111111111001000100000
11111111111111111111100000111010
00000000000000000000000101011101
00000000000000000000001100010011
00000000000000000000001011000101
00000000000000000000001111100001
00000000000000000000010011111011
00000000000000000000001111000101
00000000000000000000001110101011
00000000000000000000001000110100
00000000000000000000001110001011
00000000000000000000001111000110
00000000000000000000010001001011
00000000000000000000001011111000
00000000000000000000010001011101
00000000000000000000001111000010
00000000000000000000100100001011
00000000000000000000101010100110
00000000000000000000100110110101
00000000000000000000000100011101
11111111111111111111010001001000
11111111111111111110111111101011
11111111111111111110011110100111
11111111111111111110101111011011
11111111111111111111001111000100
11111111111111111111000111011010
11111111111111111110111110100010
11111111111111111111001010000100
11111111111111111111011111000001
11111111111111111111101010100111
11111111111111111111111000010010
00000000000000000000010010110110
00000000000000000000001111111011
00000000000000000000011100101100
00000000000000000000001110000111
00000000000000000000001011001001
00000000000000000000000100001101
00000000000000000000000001000011
00000000000000000000000101111000
00000000000000000000010001110011
00000000000000000000001001000001
00000000000000000000000001110001
00000000000000000000001111000011
00000000000000000000010001101011
00000000000000000000011110010101
00000000000000000000100011011101
00000000000000000000101110010011
00000000000000000000100000011111
00000000000000000000010101011001
00000000000000000000000010111010
11111111111111111111110001101100
00000000000000000000000000101100
11111111111111111111111011100101
11111111111111111111100001111010
11111111111111111111100100010111
11111111111111111111011011100010
11111111111111111111110011011101
11111111111111111111101011000110
11111111111111111111110011011111
00000000000000000000000011011101
00000000000000000000010101001000
00000000000000000000010000011111
00000000000000000000010100000000
00000000000000000000001110110001
00000000000000000000000111001000
00000000000000000000000101111001
00000000000000000000000111110010
00000000000000000000001011100110
00000000000000000000000110111101
00000000000000000000001101101010
00000000000000000000001011010010
00000000000000000000010001000110
00000000000000000000010010011000
00000000000000000000001010001011
00000000000000000000000101001000
11111111111111111111111101111101
11111111111111111111101110111100
11111111111111111111100110011100
11111111111111111111100100000101
11111111111111111111101010101010
11111111111111111111100001000001
11111111111111111111010011010110
11111111111111111111100111111000
11111111111111111111100011011000
11111111111111111111100111010001
11111111111111111111111100100101
00000000000000000000000010110111
00000000000000000000001101010100
00000000000000000000000100101000
00000000000000000000001011000101
00000000000000000000000000111010
00000000000000000000010001011100
00000000000000000000000100011110
00000000000000000000000000001011
00000000000000000000001101011110
00000000000000000000001011101001
00000000000000000000000110000110
00000000000000000000000010111110
00000000000000000000000100111101
00000000000000000000001101000010
00000000000000000000010000101101
00000000000000000000010000011000
00000000000000000000001010010110
00000000000000000000001100110001
00000000000000000000000011001111
00000000000000000000001100111100
00000000000000000000000001011110
00000000000000000000000011110001
11111111111111111111111001010110
11111111111111111111111100010101
11111111111111111111110111010110
00000000000000000000000110011001
00000000000000000000001001101110
00000000000000000000001000000110
00000000000000000000000000110001
00000000000000000000010010111111
00000000000000000000010001100101
00000000000000000000001101010101
00000000000000000000001111010001
00000000000000000000000010010011
00000000000000000000000010110101
00000000000000000000001111101111
00000000000000000000000001011111
