00000000000000000000000100001100
00000000000000000000010001001110
00000000000000000000000100100110
00000000000000000000000010010100
00000000000000000000001000011110
00000000000000000000000001011111
00000000000000000000000001001010
00000000000000000000001011001110
00000000000000000000000011110001
00000000000000000000010001111101
00000000000000000000001000011011
00000000000000000000001110111111
00000000000000000000001111000000
00000000000000000000000101100010
00000000000000000000000001101000
00000000000000000000000010001110
00000000000000000000000101011010
00000000000000000000000110011001
00000000000000000000000010010100
00000000000000000000000110101000
00000000000000000000001111011001
00000000000000000000001010011100
00000000000000000000010001100110
00000000000000000000001100111000
00000000000000000000000000101100
00000000000000000000000001000000
00000000000000000000000011011100
00000000000000000000001001000100
00000000000000000000001100001110
00000000000000000000001011110100
00000000000000000000000110110100
00000000000000000000010000011010
00000000000000000000001010110001
00000000000000000000001011010011
11111111111111111111110011101010
11111111111111111111100101010110
11111111111111111111110100110011
11111111111111111111110110001101
00000000000000000000001010101101
00000000000000000000010100110110
11111111111111111111111001001011
11111111111111111111111111100010
00000000000000000000001001110001
11111111111111111111110101101101
00000000000000000000000011110111
00000000000000000000000000011010
11111111111111111111110111101100
00000000000000000000010001110000
00000000000000000000001011010001
00000000000000000000001001010011
00000000000000000000000110011110
00000000000000000000000000010001
00000000000000000000001111000000
00000000000000000000000101010010
00000000000000000000001101001000
00000000000000000000001111101101
00000000000000000000000110010011
00000000000000000000010000100100
00000000000000000000000110011110
00000000000000000000000000001101
00000000000000000000001001100001
00000000000000000000001011111011
11111111111111111111010011110010
11111111111111111101111100111100
11111111111111111110000011101011
11111111111111111110001011111100
11111111111111111101010101011100
11111111111111111101111011110110
11111111111111111101101111100001
11111111111111111101101110110110
11111111111111111111011010101110
11111111111111111110111111100100
11111111111111111101100011010000
11111111111111111110100000010000
11111111111111111111010110011001
00000000000000000000001101111010
00000000000000000000001001100100
00000000000000000000000110001110
00000000000000000000011001000100
00000000000000000000001110111010
00000000000000000000001000100101
00000000000000000000010001010101
00000000000000000000001101000001
00000000000000000000000101010000
00000000000000000000000100010000
00000000000000000000000111110111
00000000000000000000000010101000
00000000000000000000001010011100
00000000000000000000000100110000
00000000000000000000001100101010
11111111111111111110101111100011
11111111111111111101111110000100
11111111111111111100101101001001
11111111111111111100010100000101
11111111111111111011100010011000
11111111111111111100011001100001
11111111111111111110001110111110
00000000000000000010111000100001
00000000000000000011110011010100
11111111111111111110010001010101
11111111111111111101101000000011
00000000000000000000100110001101
00000000000000000001011110000101
00000000000000000001110110000101
00000000000000000001110010100111
00000000000000000001101010001010
00000000000000000000110000110010
00000000000000000000010111000110
00000000000000000000011000101110
00000000000000000000001000101000
00000000000000000000001010000011
00000000000000000000000110000111
00000000000000000000000101000100
00000000000000000000000100110001
00000000000000000000001011000110
00000000000000000000001001101101
00000000000000000000011001011010
11111111111111111110111101001101
11111111111111111101011000010111
11111111111111111110010111011001
11111111111111111111010010100101
11111111111111111111110000001000
11111111111111111110111000100110
11111111111111111101111010100010
11111111111111111100011001010111
00000000000000000001000010001000
11111111111111111111001001101001
11111111111111111101001110010111
11111111111111111110110101110011
00000000000000000000100111011010
00000000000000000010001000001110
00000000000000000100111111110001
00000000000000000011011101010101
00000000000000000010101001010001
00000000000000000000111100100101
00000000000000000000001110011111
00000000000000000000010110010110
00000000000000000000001000010000
00000000000000000000001010000010
00000000000000000000000010101011
00000000000000000000000110101101
00000000000000000000000001001110
00000000000000000000001000101001
00000000000000000000001111000111
00000000000000000000001000001000
11111111111111111111001010011000
11111111111111111111010010111101
00000000000000000000001011000111
00000000000000000010010100100011
00000000000000000001110101111010
11111111111111111101111110000000
11111111111111111100010100010011
11111111111111111011011111000010
00000000000000000000111100001101
11111111111111111110101001001001
11111111111111111100001000111001
11111111111111111110010100110011
11111111111111111110001101101011
00000000000000000001100110001111
00000000000000000011100001010101
00000000000000000011101101111000
00000000000000000001111010101111
11111111111111111111000001101101
11111111111111111111110001011101
11111111111111111111111011010111
00000000000000000000010100100001
00000000000000000000001100100010
00000000000000000000001101101011
00000000000000000000001100011101
00000000000000000000010010001111
00000000000000000000001111100101
11111111111111111111110010101110
11111111111111111111100000001100
11111111111111111111111111110001
11111111111111111111110011110100
11111111111111111111111000100001
11111111111111111111011101011000
11111111111111111101011101101100
11111111111111111101000001100110
11111111111111111011010000011101
00000000000000000000000001100011
00000000000000000010011000000000
11111111111111111110001101100111
11111111111111111110111001111011
00000000000000000001110001001001
11111111111111111111000110110011
11111111111111111110001011100000
11111111111111111111111100010001
00000000000000000000010010010000
11111111111111111111001001100000
11111111111111111111000011010110
11111111111111111111111110100010
11111111111111111111111010100010
00000000000000000000010000111111
00000000000000000000000011111010
00000000000000000000000001010000
00000000000000000000000111001101
00000000000000000000001011110010
00000000000000000000000110101010
11111111111111111111011101000010
11111111111111111111100101111010
00000000000000000000101010001111
00000000000000000000001001000011
11111111111111111111100001011001
00000000000000000001000011100100
11111111111111111111011011110111
11111111111111111100000001011101
11111111111111111100101010011011
00000000000000000001001011110001
00000000000000000001110011010111
11111111111111111110011100011001
11111111111111111100001111110001
11111111111111111111100000001111
11111111111111111110101011110001
11111111111111111101000011011100
11111111111111111111000011011101
11111111111111111110011000001100
11111111111111111101100011111101
11111111111111111101001110100000
00000000000000000000100100000111
00000000000000000001010000011101
00000000000000000000000000110101
00000000000000000000001011000011
00000000000000000000000110100111
00000000000000000000010000000100
00000000000000000000001100110111
11111111111111111111110110001100
11111111111111111111100011100110
11111111111111111111100101001011
11111111111111111111001101010000
00000000000000000001110111111000
00000000000000000001101010000010
00000000000000000000101010100001
11111111111111111101100011011110
11111111111111111101101100110111
00000000000000000001101101100101
00000000000000000000111111001110
11111111111111111100111101110101
11111111111111111010100111000000
11111111111111111011101010000011
11111111111111111011101001101010
11111111111111111110011010100010
11111111111111111100011010100111
11111111111111111010100110001001
11111111111111111010101000010011
11111111111111111011100000000100
11111111111111111101100000101100
00000000000000000000010000100000
00000000000000000001111111010101
00000000000000000001000110100000
00000000000000000000000011101010
00000000000000000000000001110100
00000000000000000000001010001100
00000000000000000000001101101000
11111111111111111111100110110000
00000000000000000000011000110000
11111111111111111111110100011111
11111111111111111111000100111111
00000000000000000011011000101100
00000000000000000000100000000011
11111111111111111110010101111100
11111111111111111101101001110001
00000000000000000001000101101001
00000000000000000011100010110010
11111111111111111100100001001000
11111111111111111011001100011011
11111111111111111101010100100011
11111111111111111100101110001000
11111111111111111101101000111011
11111111111111111100101110011100
11111111111111111100011000000010
11111111111111111000100010101101
11111111111111111001100111011000
11111111111111111010101001000111
11111111111111111100110110110001
11111111111111111111100100001011
00000000000000000001100010010001
00000000000000000001111010110011
00000000000000000000001000110010
00000000000000000000000110011111
00000000000000000000001110111100
00000000000000000000001100000100
00000000000000000000001101010000
00000000000000000000100100010101
00000000000000000000010011100001
00000000000000000001010111010010
00000000000000000011001011001110
00000000000000000001011001010111
00000000000000000000011010111011
00000000000000000001101011001001
00000000000000000010111110110111
11111111111111111110001011001100
11111111111111111011100010110111
11111111111111111011101010011101
11111111111111111111100101011110
00000000000000000000001110011100
00000000000000000000111100011100
00000000000000000010100001001001
00000000000000000001101110011110
00000000000000000000001101101111
11111111111111111101011000010011
11111111111111111001100101010110
11111111111111111100100000001011
11111111111111111110100110011011
00000000000000000000101000101111
00000000000000000001101101111110
00000000000000000000000110100001
00000000000000000000010010000001
00000000000000000000001001100101
00000000000000000000000101001111
11111111111111111111011110010001
11111111111111111111001011011110
11111111111111111110010101101011
00000000000000000000100000101100
00000000000000000001110000011000
11111111111111111101010101000001
11111111111111111110001110111000
00000000000000000001011101100101
00000000000000000000011111011000
11111111111111111101001001100010
11111111111111111100100101111000
11111111111111111010001010010010
11111111111111111100110001000100
11111111111111111110000001101110
00000000000000000001010010001101
00000000000000000101010010100010
00000000000000000011110010011101
00000000000000000000011001110100
00000000000000000000001110010111
11111111111111111110111111111110
11111111111111111111001111110011
11111111111111111111101010111001
11111111111111111110111101001111
00000000000000000001100011110001
00000000000000000000000011000101
00000000000000000000000000010011
00000000000000000000000000010110
00000000000000000000000010110000
11111111111111111111101001000010
11111111111111111111010000110101
00000000000000000000000000000111
00000000000000000011011111001000
00000000000000000000010100110001
11111111111111111110000001110111
11111111111111111110001010100110
00000000000000000100000101101100
11111111111111111110111110010001
11111111111111111011111000000010
11111111111111111010100101100100
11111111111111111010111100111100
11111111111111111000011011100011
11111111111111111011011111011001
11111111111111111111101110010101
00000000000000000010010000100011
00000000000000000100001011010100
00000000000000000001011101110001
00000000000000000001111011110110
11111111111111111111111111010111
00000000000000000001110110101000
00000000000000000010001000100101
11111111111111111110100101110110
00000000000000000001011010011100
11111111111111111111101110000101
11111111111111111111101111011100
00000000000000000000000100100110
11111111111111111111111110011110
11111111111111111111110101100000
11111111111111111111100001001111
00000000000000000010101001011010
00000000000000000000011111001111
11111111111111111101111010000000
00000000000000000000101010001100
00000000000000000100111110101001
11111111111111111111111111011100
11111111111111111101001010011100
11111111111111111001111000011110
11111111111111111001011000001110
11111111111111111000101001101101
11111111111111111001000011110110
11111111111111111100110100011111
11111111111111111101100011100111
11111111111111111110011101000100
00000000000000000010010011110101
00000000000000000001100100110000
11111111111111111111010010000000
00000000000000000001000110100110
00000000000000000100010101101100
00000000000000000000010011010110
11111111111111111100101001011010
00000000000000000000100000111011
11111111111111111111100111000001
00000000000000000000000111000011
00000000000000000000000101001000
00000000000000000000000110101011
00000000000000000000000010011100
11111111111111111111111011011000
00000000000000000010000101101011
11111111111111111111110110010110
11111111111111111100110001001001
00000000000000000001000110001000
00000000000000000011000101010001
00000000000000000000100010101111
11111111111111111100001101011011
11111111111111111000100101111111
11111111111111111001110000101100
11111111111111110111111011110001
11111111111111111000110001100101
11111111111111111001111111010111
11111111111111110111100110111010
11111111111111111010100110010010
00000000000000000000111110101000
00000000000000000001100010110001
00000000000000000001101000100011
11111111111111111110111101011101
00000000000000000010000110100111
00000000000000000001101111000001
00000000000000000011001001110111
11111111111111111111000011011000
11111111111111111111110100110111
00000000000000000000000100001001
00000000000000000000000101011101
00000000000000000000001100001100
00000000000000000000010001100101
00000000000000000001000100000010
00000000000000000010001101101000
11111111111111111111101000111000
11111111111111111110010010000100
00000000000000000001001100101100
00000000000000000001000100010011
11111111111111111110111100101100
00000000000000000010101000111100
11111111111111111101011101110010
11111111111111111010010001110100
11111111111111111001110000111001
11111111111111111000011010110001
11111111111111110110101001000111
11111111111111110101001111110100
11111111111111110100110001110100
11111111111111111101110110101010
00000000000000000010111111011001
00000000000000000010001010101110
11111111111111111010100010000010
00000000000000000000111111000100
00000000000000000010001110110101
00000000000000000011000010110111
11111111111111111101111100111101
11111111111111111111011100000101
00000000000000000000001011000000
00000000000000000000001011010100
00000000000000000000001110101111
00000000000000000000001100111101
00000000000000000001110001110010
00000000000000000010000011110101
11111111111111111101010110001111
00000000000000000001000011101000
00000000000000000010010010100100
00000000000000000001101001001110
11111111111111111110110010000101
00000000000000000100100010011000
00000000000000000011000100110001
11111111111111111110010001110000
11111111111111111010011110000101
11111111111111110111000100001100
11111111111111110101011010001011
11111111111111110100110100010101
11111111111111110011011010000000
11111111111111111011101010111100
11111111111111111110101000110011
00000000000000000010000111111010
11111111111111111110011001000010
00000000000000000001100101111111
00000000000000000011110110010100
00000000000000000011111111001100
11111111111111111101010100111101
11111111111111111111010101011010
11111111111111111111111110110010
00000000000000000000000101000001
00000000000000000000001110111111
00000000000000000000010111000101
00000000000000000001100001110001
00000000000000000010111001101011
00000000000000000000101011001100
00000000000000000010101101100011
00000000000000000011110111111110
11111111111111111110101101000101
11111111111111111111001101110110
00000000000000000101011101100100
00000000000000000101100010011111
00000000000000000001000101111001
11111111111111111011011000110010
11111111111111111001011110100000
11111111111111111000111010110001
11111111111111110111001110010011
11111111111111110111000110001010
11111111111111111100110010010110
00000000000000000000101000110110
00000000000000000001000000100010
00000000000000000001101011011010
00000000000000000001101101110010
00000000000000000100001000111001
00000000000000000011000000111010
11111111111111111101110100101001
11111111111111111111100010111111
00000000000000000000000011000111
00000000000000000000001110001101
00000000000000000000000001100111
00000000000000000000011001110111
00000000000000000001010101110011
00000000000000000011000101100000
00000000000000000000011001111000
00000000000000000010111100111110
00000000000000000010100011110001
11111111111111111111000010101010
00000000000000000000001110111101
00000000000000000100000000100110
00000000000000000101100110000000
00000000000000000010111010011001
00000000000000000001011111011110
00000000000000000001001111100011
11111111111111111110111010001001
11111111111111111101101100011000
11111111111111111010101101001100
11111111111111111110111001111101
00000000000000000000101101100111
11111111111111111110001100111111
00000000000000000001111000010000
00000000000000000011111011001010
00000000000000000110000001000011
11111111111111111111111011111000
11111111111111111110000111111101
11111111111111111111011110010011
11111111111111111111110000000100
00000000000000000000000100100110
00000000000000000000001001010011
00000000000000000000011111010010
00000000000000000000111010010010
00000000000000000001100100010110
00000000000000000001000000110010
00000000000000000001011111101111
00000000000000000100101111110011
11111111111111111111100011010110
11111111111111111010111011001111
00000000000000000010110101110000
00000000000000000011111011011000
00000000000000000011100010110001
00000000000000000010110100001100
00000000000000000000111010010111
11111111111111111101111000011110
11111111111111111101111001110100
11111111111111111101111110111010
11111111111111111101111100011110
11111111111111111111100111100001
00000000000000000011101100001111
00000000000000000101000001010110
00000000000000000011000101101101
00000000000000000001010001011000
11111111111111111111011001001010
11111111111111111111001110011110
00000000000000000000001001110110
00000000000000000000010001110000
00000000000000000000010000001011
11111111111111111111111111110111
00000000000000000000010010010001
11111111111111111111010111000101
11111111111111111111000101000001
11111111111111111110100001011110
11111111111111111101110111110011
00000000000000000010110011101111
00000000000000000001101011100110
11111111111111111100001110111101
11111111111111111010001111110111
11111111111111111110011100011000
00000000000000000000111110110111
11111111111111111110101000010011
11111111111111111100110001110101
11111111111111111100010111011000
11111111111111111110110001100100
11111111111111111101110000001000
11111111111111111110011010101010
00000000000000000001000011110000
00000000000000000101001010010011
00000000000000000010010011110100
00000000000000000001001111110011
00000000000000000000110100101110
11111111111111111111011011001111
11111111111111111111111101111000
00000000000000000000001101110101
00000000000000000000000011111010
00000000000000000000010001101011
00000000000000000000001100010101
00000000000000000000000111000000
11111111111111111111010000101111
11111111111111111110110011000011
11111111111111111100110011100011
11111111111111111100110111101111
00000000000000000001010111110011
00000000000000000000101001101011
11111111111111111111001111010001
11111111111111111101010011001110
11111111111111111011110010000111
11111111111111111011001000000010
11111111111111111010011000010000
11111111111111111001111001111111
11111111111111111001111011111001
11111111111111111101010111110010
11111111111111111111001101011010
00000000000000000001100111110110
11111111111111111111100110001101
00000000000000000000100101110100
00000000000000000000110110000001
00000000000000000000101010011000
00000000000000000001011111000100
11111111111111111111111001000101
00000000000000000000001111001001
00000000000000000000000100000101
00000000000000000000001110000011
00000000000000000000000011000110
00000000000000000000000000100011
00000000000000000000010000101001
11111111111111111111101011001110
11111111111111111110100110101000
11111111111111111101000101111110
11111111111111111100100001100101
11111111111111111100101111101000
11111111111111111101011110101100
11111111111111111101101111110100
11111111111111111101010101111110
11111111111111111100111100111101
11111111111111111100111000110000
11111111111111111101000000011001
11111111111111111101110101001001
11111111111111111110010111011001
00000000000000000000010110100010
00000000000000000011000111101101
11111111111111111111111010110110
11111111111111111110111000011101
00000000000000000010000110110110
00000000000000000010001100000110
00000000000000000000000011001010
00000000000000000000000000001101
11111111111111111111101111111100
00000000000000000000011110111011
00000000000000000000010110001101
00000000000000000000000100001110
00000000000000000000000101101111
00000000000000000000000001011001
00000000000000000000010000111101
00000000000000000000000111110101
11111111111111111111011110001101
11111111111111111110110101100110
11111111111111111110001001000111
11111111111111111101011000111110
11111111111111111100010011000101
11111111111111111010011010110010
11111111111111111010101110100011
11111111111111111011101000000100
11111111111111111011101111010001
11111111111111111011111110010001
11111111111111111100010001110110
11111111111111111100010110000011
11111111111111111111101111010000
00000000000000000001101011001010
00000000000000000000101111111110
11111111111111111111111110101000
00000000000000000000010110111110
11111111111111111111110101111001
11111111111111111110010001010110
11111111111111111101110010100111
11111111111111111110010111111111
00000000000000000000100010011111
00000000000000000000001010011001
00000000000000000000010010001001
00000000000000000000001101000110
00000000000000000000000111110000
00000000000000000000000011110001
00000000000000000000000101010110
00000000000000000000001100001101
00000000000000000000001100111110
00000000000000000000011110001101
00000000000000000000110100001011
11111111111111111111111110100011
11111111111111111110100101100010
11111111111111111110010110010010
11111111111111111101011001101001
11111111111111111101100110110011
11111111111111111110001010001111
11111111111111111110010000011011
00000000000000000000000101010010
11111111111111111111110110010011
11111111111111111111000011001100
11111111111111111101101100000010
11111111111111111110100011101000
11111111111111111110110001101110
11111111111111111110101011110000
11111111111111111110111110110010
11111111111111111110001101001111
11111111111111111110111000111101
00000000000000000000000110000101
00000000000000000000001001001001
00000000000000000000000010000001
00000000000000000000001000010100
00000000000000000000000000110010
00000000000000000000000001110000
00000000000000000000000100110010
00000000000000000000010101011011
00000000000000000000011111100011
00000000000000000000100011000101
00000000000000000000111111011010
00000000000000000000101110101100
00000000000000000000011101011000
00000000000000000000001101111111
00000000000000000000010001100010
00000000000000000000001101100100
11111111111111111111110000110010
11111111111111111111011010011001
11111111111111111111110001110001
11111111111111111110011111010011
11111111111111111110000101111101
11111111111111111101001100001011
11111111111111111101011101110011
11111111111111111110101011111101
11111111111111111111110011000110
11111111111111111111101101000010
11111111111111111111100010110001
11111111111111111111101110011001
00000000000000000000000111001000
00000000000000000000000011111100
00000000000000000000000001110011
00000000000000000000010000001000
00000000000000000000001101000101
00000000000000000000000011110101
00000000000000000000000110001010
00000000000000000000001110010011
00000000000000000000000101101010
00000000000000000000010000000001
00000000000000000000001001011010
00000000000000000000001111011011
00000000000000000000001011000110
11111111111111111111111011111110
11111111111111111111101011001001
11111111111111111111110110001101
11111111111111111111110111010110
11111111111111111111111000111111
11111111111111111111100011011101
11111111111111111111000010010101
11111111111111111110001111110000
11111111111111111101111011101110
11111111111111111110101111010010
11111111111111111111010100100101
11111111111111111111110110011111
11111111111111111111111011001000
00000000000000000000001010011010
00000000000000000000001100000111
00000000000000000000000111000001
00000000000000000000000101111101
00000000000000000000000100000110
00000000000000000000001110001010
00000000000000000000001001111001
00000000000000000000000101111001
00000000000000000000001100000000
00000000000000000000000100101100
00000000000000000000001001101000
00000000000000000000010000011111
11111111111111111111111110111000
00000000000000000000001111111111
00000000000000000000001000101011
00000000000000000000000011101001
00000000000000000000000101100011
11111111111111111111111011111100
11111111111111111111111010101110
11111111111111111111101110010010
11111111111111111111100100111000
11111111111111111110111101110001
11111111111111111110111001011110
11111111111111111111011001001100
11111111111111111111101001111001
00000000000000000000000111001000
00000000000000000000010101000101
11111111111111111111111111110100
00000000000000000000001101101000
00000000000000000000001100011101
00000000000000000000001100110011
00000000000000000000001101101100
00000000000000000000001010001111
