00000000000000000000001000011100
00000000000000000000001101100101
00000000000000000000000111000010
00000000000000000000000100000110
00000000000000000000000111011100
00000000000000000000010000101111
00000000000000000000000010111111
00000000000000000000001100101101
00000000000000000000001100110101
00000000000000000000001011111111
00000000000000000000001101100011
00000000000000000000010001101000
00000000000000000000001100011110
00000000000000000000001101100011
00000000000000000000010000101010
00000000000000000000000000100000
00000000000000000000001000101011
00000000000000000000000111001011
00000000000000000000000100001111
00000000000000000000000000101101
00000000000000000000001111101010
00000000000000000000000111010001
00000000000000000000000001011011
00000000000000000000001011011011
00000000000000000000010001110011
00000000000000000000000100001100
00000000000000000000001101110010
00000000000000000000000100100110
00000000000000000000000100000110
00000000000000000000001110001110
00000000000000000000001111111100
00000000000000000000001100100010
00000000000000000000001001100000
00000000000000000000000100101100
00000000000000000000010000000110
00000000000000000000001111101101
11111111111111111111111011110010
11111111111111111111111001100000
00000000000000000000000010010011
00000000000000000000000011001011
00000000000000000000001010111000
00000000000000000000000101101011
00000000000000000000010011101001
00000000000000000000001000010101
11111111111111111111110111111110
00000000000000000000000111000001
00000000000000000000000011011010
00000000000000000000001000011111
00000000000000000000000001011110
00000000000000000000010000100111
00000000000000000000001111101001
00000000000000000000000000000110
00000000000000000000000001100000
00000000000000000000001101001001
00000000000000000000001011011110
00000000000000000000000001000001
00000000000000000000010001010101
00000000000000000000000110111110
00000000000000000000000101101000
00000000000000000000000011001010
00000000000000000000000010110001
00000000000000000000000011001011
00000000000000000000001110111101
00000000000000000000000101110111
11111111111111111111111000110011
11111111111111111111110111110111
11111111111111111111011001011010
11111111111111111111010111000001
11111111111111111111100011111100
11111111111111111111010010001000
11111111111111111111001000011001
11111111111111111110110011111100
11111111111111111111000111111010
11111111111111111111000100011001
11111111111111111110111000100111
11111111111111111110111111010100
11111111111111111111101000101001
11111111111111111111100110100011
11111111111111111111111101101001
00000000000000000000000101010010
00000000000000000000000011000101
00000000000000000000010001101000
00000000000000000000000100000111
00000000000000000000000011111011
00000000000000000000001100100001
00000000000000000000001111100101
00000000000000000000000101100000
00000000000000000000001011001110
00000000000000000000000011111110
00000000000000000000001010100110
00000000000000000000001110010010
00000000000000000000000001010101
11111111111111111111100100010101
11111111111111111110010111010010
11111111111111111101000001100101
11111111111111111100010010101011
11111111111111111100010110100011
11111111111111111011001101111010
11111111111111111100100111111100
11111111111111111101111010011010
11111111111111111111011110100110
00000000000000000000111000110000
00000000000000000001011111111100
11111111111111111011100110110110
11111111111111111100000111101110
11111111111111111110111000101010
11111111111111111111110001110000
00000000000000000000001111101001
00000000000000000000001110101111
00000000000000000000011000101101
00000000000000000000001011110001
00000000000000000000000111110010
00000000000000000000001001100100
00000000000000000000000010100110
00000000000000000000001101100001
00000000000000000000000100011111
00000000000000000000010110101010
11111111111111111111110010000111
11111111111111111111111001100010
11111111111111111111101001101101
11111111111111111110100001100100
11111111111111111100101010001110
11111111111111111011010101001110
11111111111111111011100100001001
11111111111111111010011010011011
11111111111111111010101111010100
11111111111111111100011100010000
00000000000000000001000100000101
00000000000000000110010001100101
00000000000000000000001110010011
11111111111111111101100010011101
11111111111111111100000111011100
11111111111111111100000110111110
11111111111111111110000111001101
11111111111111111111010111010101
11111111111111111100001111100110
11111111111111111110111111100001
00000000000000000000010100010110
00000000000000000000001111111101
11111111111111111111111010001010
00000000000000000000001010101101
00000000000000000000001110001101
00000000000000000000000111110010
00000000000000000000001000100001
00000000000000000000010000001010
00000000000000000000000011011000
11111111111111111111110000100100
11111111111111111111000011001011
11111111111111111011101001111011
11111111111111111010011101011101
11111111111111111000101111111111
11111111111111111011011111100011
11111111111111111010111101111110
11111111111111111100010110100101
11111111111111111101000100011010
00000000000000000001010000110011
00000000000000000010111101100101
00000000000000000001110000110001
00000000000000000010100100101011
00000000000000000100010001110010
00000000000000000000011011011101
11111111111111111111100101111010
00000000000000000010000110111111
11111111111111111001110000100010
11111111111111111001110111111001
11111111111111111101110001001100
11111111111111111111011110011000
11111111111111111111111101111101
00000000000000000000010001011011
00000000000000000000000000000011
00000000000000000000000111001000
00000000000000000000011000010101
00000000000000000000001101000110
00000000000000000000001001110100
11111111111111111111000110010000
11111111111111111100111110100100
11111111111111111010101101101010
11111111111111111001000100011111
11111111111111111001010001101100
11111111111111111001010100111000
11111111111111111011010011111100
11111111111111111100110111001110
00000000000000000000000101001101
11111111111111111111100110111100
00000000000000000000000011011000
00000000000000000100000000111000
00000000000000000000000000011111
00000000000000000100001100110100
00000000000000000001011000100011
11111111111111111110101001010101
11111111111111111101000001101001
11111111111111111100001001001011
11111111111111111010110110000000
11111111111111111111010110010100
11111111111111111111011101010110
00000000000000000000001100010110
00000000000000000000010000000100
00000000000000000000010000111100
11111111111111111111111100100011
00000000000000000000000011001001
11111111111111111111111010111001
11111111111111111101011100101100
11111111111111111101111000100100
11111111111111111100100110111011
11111111111111111100111110001110
11111111111111111010010101111010
11111111111111111000000000000001
11111111111111111010110101100001
11111111111111111111001100101101
00000000000000000011001001001011
11111111111111111010100101011000
11111111111111111101010000010001
00000000000000000001010110101111
00000000000000000011001101001101
11111111111111111110000110100110
11111111111111111100110011000000
11111111111111111101001011010000
11111111111111111100010101110001
11111111111111111011111101010111
00000000000000000000011110110001
00000000000000000001111111100000
00000000000000000001011011010111
11111111111111111111100000001110
00000000000000000000000101100000
00000000000000000000000010010111
11111111111111111111111110000000
00000000000000000000000010001011
11111111111111111111011101111000
11111111111111111111010011000100
11111111111111111101001011001010
11111111111111111110111000110010
11111111111111111101110000110001
11111111111111111100101100101100
11111111111111111011101001010011
11111111111111111011000000001011
11111111111111111110000111011111
00000000000000000001000011011011
00000000000000000101010010011100
11111111111111111011100111011110
11111111111111111011011100010000
11111111111111111011010001000111
00000000000000000000111101101100
11111111111111111010100001010111
11111111111111111001001010100101
11111111111111111101101000111111
00000000000000000010011011010000
00000000000000000010101111000010
00000000000000000010000100010011
00000000000000000011100100100010
11111111111111111111010111101011
00000000000000000000011110001000
00000000000000000000001110110100
00000000000000000000000000010001
00000000000000000000000101001110
11111111111111111111110001010011
11111111111111111111011101110101
11111111111111111111000101111101
11111111111111111101011011101010
11111111111111111101101001100100
11111111111111111101011111100110
11111111111111111101101010011101
11111111111111111011110000101100
11111111111111111001100111111010
11111111111111111010100101111111
00000000000000000000110010011110
00000000000000000111110000100011
00000000000000000111111101100010
11111111111111111010010110101111
11111111111111110111000001001001
11111111111111111110101111001101
11111111111111111101011000110101
00000000000000000100010010101110
00000000000000000000001111000011
00000000000000000011100010001100
00000000000000000101000000110110
00000000000000000100010001010011
00000000000000000001011000010110
11111111111111111110101111100101
00000000000000000000011111011110
11111111111111111111111000100010
11111111111111111111111110110000
00000000000000000000001011001111
11111111111111111111101111011101
11111111111111111111011000010100
11111111111111111111010011101111
11111111111111111101001010010001
11111111111111111101001000000110
11111111111111111110010101010110
11111111111111111100100011110011
11111111111111111011111000100000
11111111111111111001011101001111
11111111111111111010000111100111
00000000000000000100010000010000
00000000000000001000111011011010
00000000000000000111111001111111
11111111111111111011101100110011
11111111111111111000110001000111
11111111111111111101100010011100
00000000000000000001001000101111
00000000000000000011001010100110
11111111111111111101010110101101
00000000000000000000011000000010
00000000000000000001101110101111
00000000000000000001111101011100
11111111111111111110010100011000
11111111111111111101110111101001
00000000000000000000010111011011
00000000000000000000000111100000
00000000000000000000001011111100
00000000000000000000001100100101
11111111111111111111110100000111
11111111111111111111110110011100
11111111111111111111110100110110
11111111111111111111010001001101
00000000000000000001111100101100
00000000000000000010101111000100
00000000000000000010101100111011
11111111111111111111111011001111
11111111111111111001001000100110
11111111111111111001010110110011
00000000000000000001001110111011
00000000000000000001110001000001
00000000000000000011001000010101
00000000000000000001101101011100
00000000000000000001000101111011
00000000000000000001111100000111
11111111111111111110010011001101
11111111111111111101011011111100
11111111111111111100110100000011
11111111111111111101110110000000
00000000000000000010000001111100
00000000000000000010011100001000
00000000000000000011010010010110
11111111111111111111111010000111
00000000000000000010001010100000
00000000000000000000000111100110
00000000000000000000010000001010
00000000000000000000001010000000
11111111111111111111111110101100
00000000000000000000111011101100
00000000000000000010101111111001
00000000000000000011100101101010
00000000000000000010000100110010
00000000000000000001001011000100
11111111111111111011000011010110
11111111111111111011011000001100
11111111111111110111100011110101
11111111111111110000011101010010
11111111111111111101001010100000
00000000000000000010000111110010
00000000000000000001100100000001
00000000000000000011111101110000
00000000000000000100000111011011
00000000000000000001000000001111
00000000000000000011111111111111
00000000000000000100010111000000
00000000000000000111001010101001
00000000000000000101001100110100
00000000000000000100101000010110
00000000000000000011101010100100
00000000000000000000100111110111
11111111111111111111100111011011
00000000000000000001000001111100
11111111111111111111111111000101
00000000000000000000000000000001
00000000000000000000001111010110
00000000000000000000000110010100
00000000000000000000011001011101
00000000000000000001011001011111
00000000000000000000100110001111
11111111111111111101111000100011
11111111111111111011100001011000
11111111111111111000101010011011
11111111111111111010000100010111
11111111111111110101000100000101
11111111111111110000110110001100
00000000000000000010101001010000
00000000000000000001110010111000
11111111111111110111001100111111
11111111111111111111111110100000
00000000000000000000001001111110
00000000000000000000011010001010
00000000000000000011010000110000
00000000000000001000100101110110
00000000000000001010100000111010
00000000000000000101101111101010
00000000000000000011000011011000
11111111111111111111100011000000
11111111111111111110000110000001
11111111111111111111110010000001
00000000000000000000010010001101
00000000000000000000000111000011
00000000000000000000000110011101
00000000000000000000010010010111
00000000000000000000001001101101
00000000000000000000001011001010
11111111111111111111111011110001
11111111111111111110000010111100
11111111111111111100000101101110
11111111111111111001001110010001
11111111111111111000100011011101
11111111111111110110010111100010
11111111111111110111101110110010
11111111111111110110110100111111
00000000000000000000101001011000
11111111111111111110011000101000
11111111111111111110101000011110
00000000000000000001011111001001
00000000000000000101110110011100
11111111111111111111011011011101
11111111111111111100101000011111
11111111111111111101001011110001
11111111111111111101000101001101
11111111111111111011100111110101
11111111111111111100011011111010
11111111111111111010010101000100
11111111111111111011010100001111
11111111111111111110101010000001
11111111111111111111101001101100
00000000000000000000000011111101
00000000000000000000001011101001
00000000000000000000001100010010
00000000000000000000001110011000
00000000000000000000010011110010
11111111111111111110101100011110
11111111111111111011111111101100
11111111111111111010011111010101
11111111111111111110001111000001
00000000000000000000110000100110
00000000000000000010111111001100
11111111111111111100101100010001
11111111111111111011110011100001
11111111111111111110100100110011
11111111111111111100110001101100
11111111111111111111110011010110
11111111111111111110011010110100
00000000000000000010111000010001
11111111111111110110101110011100
11111111111111110101101001001110
11111111111111110011110101000111
11111111111111110011101011000111
11111111111111110110000001101010
11111111111111111011010110000011
11111111111111111010100001000011
11111111111111111011101011111100
11111111111111111110101110111101
11111111111111111111101000001111
00000000000000000000000001110010
00000000000000000000001001001101
00000000000000000000000111100111
00000000000000000000011100110000
00000000000000000000010001010101
11111111111111111101101010111000
11111111111111111010000010111111
11111111111111111100001011001111
00000000000000000010100111010011
00000000000000000011111000001011
00000000000000001000110011101011
00000000000000000011100110110001
11111111111111111011111101110101
00000000000000000001100110101110
11111111111111111111001100110101
00000000000000000001010000110011
11111111111111111111101101101010
11111111111111111100001011111101
11111111111111110010111111110011
11111111111111110011111101000100
11111111111111110000101110011100
11111111111111110100101110100111
11111111111111110111011110000110
11111111111111111010101111101010
11111111111111111101010110101010
11111111111111111101001111101011
11111111111111111110100111110100
11111111111111111111101110000110
00000000000000000000000101100011
00000000000000000000001100101011
00000000000000000000000010100100
00000000000000000000010111000011
11111111111111111111101011101011
11111111111111111011011101101001
11111111111111111011100111100100
11111111111111111111011100000010
00000000000000000001011101110010
00000000000000001010010000010010
00000000000000001000101010100000
11111111111111111010000110001101
11111111111111111110100111100111
00000000000000000100101101001011
00000000000000000010010110101011
00000000000000000010011111010011
11111111111111111110111100010000
11111111111111111010011100000100
11111111111111111011001100110001
11111111111111110101001001110101
11111111111111110100111001000011
11111111111111111000000001111000
11111111111111111001111110011011
11111111111111111001111101011000
11111111111111111101000011101001
11111111111111111110010001101111
11111111111111111110000111111111
11111111111111111111101110000100
00000000000000000000001010011100
00000000000000000000001111110111
00000000000000000000001000001111
00000000000000000000010101110111
11111111111111111110110000011000
11111111111111111010010110000110
11111111111111111110110001001010
00000000000000000000100010110001
00000000000000000101000001000111
00000000000000000111101101110110
00000000000000000100101101010111
00000000000000000011010001100101
11111111111111111110111011111011
11111111111111111011111111001100
11111111111111111100110111111010
00000000000000000011100111110011
00000000000000000001111101001101
11111111111111111101111011110001
11111111111111111111011011010011
11111111111111111001101111110111
11111111111111110111110100000000
11111111111111111001101100110001
11111111111111111001001101100001
11111111111111111010100111100100
11111111111111111101101010011111
11111111111111111101100010110000
11111111111111111110011011001100
11111111111111111111111101101111
11111111111111111111111111001100
00000000000000000000001111111000
00000000000000000000000000010101
00000000000000000000011100001000
11111111111111111100110011001110
11111111111111111011001101101110
11111111111111111111111100010000
11111111111111111001110101111001
00000000000000000001000111001110
00000000000000000101101110011100
00000000000000001000010101111001
00000000000000000001010111010001
11111111111111110011000010100111
11111111111111110010010101000100
11111111111111111001011111000101
00000000000000000001101100110111
00000000000000000010111000101110
00000000000000000010100001100101
00000000000000000001000010010000
11111111111111111010010001111000
11111111111111110110000111000110
11111111111111111001101011100000
11111111111111111010111100100011
11111111111111111110010000110111
11111111111111111110101111001011
11111111111111111101000011101001
11111111111111111111000010010001
11111111111111111111011111100011
11111111111111111111111111010001
00000000000000000000000010100000
00000000000000000000001110011011
00000000000000000000000110001101
11111111111111111011110010110000
11111111111111111101001110001100
11111111111111111110111110000100
11111111111111111100001010110000
00000000000000000001110101001110
11111111111111111110100011100110
00000000000000000010010011101110
00000000000000000001000000011001
11111111111111111010001010110110
11111111111111110111111100111010
11111111111111111110111101010110
11111111111111111101111100101110
00000000000000000010110011000011
11111111111111111101011100111001
11111111111111111010111111111111
11111111111111110110110110010101
11111111111111110110000010101011
11111111111111111000111101111010
11111111111111111100001110001101
11111111111111111111100111010100
11111111111111111110001011001000
11111111111111111101010111110010
11111111111111111110111011011000
11111111111111111111100000111000
00000000000000000000001111011110
00000000000000000000000010001100
00000000000000000000000110101000
00000000000000000000010000111001
11111111111111111100100011101101
11111111111111111010110001111011
11111111111111111101000101110110
00000000000000000001110111101100
00000000000000000000100100101110
11111111111111110111101110111000
11111111111111111111011010111101
00000000000000000001011111010110
00000000000000000001110110001011
00000000000000000000000101001111
11111111111111111101001011011011
11111111111111111101010000010011
11111111111111111111101001110011
11111111111111111001100101011011
11111111111111110110111010101010
11111111111111110100001110101111
11111111111111110101011101111101
11111111111111110111010001100010
11111111111111111011000101011100
11111111111111111111100100101000
11111111111111111110011000101101
11111111111111111110100111101101
11111111111111111111011000101100
00000000000000000000000010011110
00000000000000000000001000100011
00000000000000000000000111101000
00000000000000000000000010100000
00000000000000000000001111010001
11111111111111111110001110101000
11111111111111111100010010000011
11111111111111111110010011100010
00000000000000000100111001110000
00000000000000000010001100001100
11111111111111111000011010111100
11111111111111111010101101111010
00000000000000000101110001100101
00000000000000001001010000011111
00000000000000000111110101000011
11111111111111111111111001110001
11111111111111111100001110100110
11111111111111111000000110111001
11111111111111110011000110111010
11111111111111110110011011000010
11111111111111110110100111110101
11111111111111110111110100000001
11111111111111111000111000100110
11111111111111111100100101010110
11111111111111111110100111000111
11111111111111111111000010100000
11111111111111111111111100111001
11111111111111111111111111110110
00000000000000000000000011100101
00000000000000000000000011010001
00000000000000000000001110010110
00000000000000000000000010101101
00000000000000000000011001100011
11111111111111111110111101100110
11111111111111111101001100100001
11111111111111111010101010100100
00000000000000000000010011011101
00000000000000000011010000011000
00000000000000000100110111000010
00000000000000000001010001101101
00000000000000000000100110000111
00000000000000000100001001100101
00000000000000000010000000010100
11111111111111111111110000101110
11111111111111111001111100101010
11111111111111110111001011100100
11111111111111111001010000111100
11111111111111111011010001011011
11111111111111111011111100010110
11111111111111111011010111101001
11111111111111111011111110111100
11111111111111111110111000100111
11111111111111111111010111000001
00000000000000000000000001000101
00000000000000000000001010000100
11111111111111111111111101011011
00000000000000000000000110100110
00000000000000000000001000001000
00000000000000000000001100111111
00000000000000000000010000100111
00000000000000000000011000111111
00000000000000000000000101110110
11111111111111111110100001100010
11111111111111111100010110011110
11111111111111111101100010010001
11111111111111111110011010110000
11111111111111111110001110111011
00000000000000000000001010000011
00000000000000000100110011100101
00000000000000000101110001010010
00000000000000000011111000110101
00000000000000000010110100001110
11111111111111111010101110101010
11111111111111111010110011100101
11111111111111111100101110010111
11111111111111111101110110001100
11111111111111111111011100001010
11111111111111111110010110110111
00000000000000000000011101110011
00000000000000000000101111110100
00000000000000000000100110001100
00000000000000000000100001111101
00000000000000000000001001101110
00000000000000000000001010111101
00000000000000000000001011111000
00000000000000000000001000010100
00000000000000000000000000001110
00000000000000000000000110010100
00000000000000000000010010011000
00000000000000000000001111101000
11111111111111111111011011000100
11111111111111111110001001111100
11111111111111111101011100110111
11111111111111111100111011111101
11111111111111111011111010011010
11111111111111111100000100111111
11111111111111111100110101000000
11111111111111111010101111111111
11111111111111111100110010000011
11111111111111111110011000010000
11111111111111111111011110110100
00000000000000000000100000000100
00000000000000000000110101110011
00000000000000000010000011111011
00000000000000000001010110001010
00000000000000000001000000000101
00000000000000000001001010101111
00000000000000000000100001100111
00000000000000000000100101111111
00000000000000000000001001111011
00000000000000000000000010100000
00000000000000000000000101011100
00000000000000000000001011100101
00000000000000000000000100000010
00000000000000000000000100111101
00000000000000000000001000101101
00000000000000000000001100010111
00000000000000000000000100000101
11111111111111111111111000110100
11111111111111111111000110111001
11111111111111111110111100000111
11111111111111111110100101101111
11111111111111111101110101100010
11111111111111111101001111100011
11111111111111111101111000100000
11111111111111111101000110111001
11111111111111111101000010001111
11111111111111111101001001100111
11111111111111111111101110100111
11111111111111111110111001000000
11111111111111111111110110000111
00000000000000000001010101100011
00000000000000000001000100100010
11111111111111111111111110000100
00000000000000000000100100111111
00000000000000000000100010010000
00000000000000000000010010011000
00000000000000000000000011110011
00000000000000000000001111011010
00000000000000000000001110111101
00000000000000000000010010001000
00000000000000000000000101100101
00000000000000000000000011110011
00000000000000000000001101000000
00000000000000000000001001101000
00000000000000000000001000110001
00000000000000000000000010110111
00000000000000000000000001100111
00000000000000000000001100100111
00000000000000000000000001001111
00000000000000000000000100101110
11111111111111111111110110000011
11111111111111111111011110000100
11111111111111111111111011011100
11111111111111111111110110000001
11111111111111111111011010000000
00000000000000000000010000001101
11111111111111111111110110010101
11111111111111111111110110111011
00000000000000000000000010100110
00000000000000000000001000100000
00000000000000000000001000111100
00000000000000000000000011101101
00000000000000000000001010001001
00000000000000000000000111101010
00000000000000000000001001011010
00000000000000000000001110010001
00000000000000000000001110010011
00000000000000000000001011010100
00000000000000000000001011010000
