00000000000000000000001101001001
00000000000000000000000100011010
00000000000000000000001011111011
00000000000000000000000101100010
00000000000000000000010001011111
00000000000000000000001100110011
00000000000000000000000111011010
00000000000000000000001001110011
00000000000000000000010001101100
00000000000000000000010000000000
00000000000000000000001011010000
00000000000000000000010001110011
00000000000000000000000100110111
00000000000000000000001010101101
00000000000000000000001001011011
00000000000000000000001100011001
00000000000000000000000010110110
00000000000000000000010001101110
00000000000000000000000011011001
00000000000000000000000110010010
00000000000000000000010001101101
00000000000000000000010000110010
00000000000000000000000011110000
00000000000000000000000101010010
00000000000000000000001000100001
00000000000000000000000000001001
00000000000000000000010000100110
00000000000000000000001100100111
00000000000000000000000000010010
00000000000000000000001001001110
00000000000000000000000100110111
00000000000000000000001101011011
00000000000000000000001101101000
00000000000000000000010000111000
00000000000000000000000011011110
00000000000000000000010000100010
00000000000000000000001111110011
00000000000000000000001000110001
00000000000000000000000011110000
00000000000000000000001010010110
00000000000000000000001000010101
00000000000000000000010000000101
00000000000000000000001100010000
00000000000000000000001111011110
00000000000000000000001000100010
00000000000000000000000001001010
00000000000000000000000100111110
00000000000000000000001011011101
00000000000000000000000010100111
00000000000000000000001010011010
00000000000000000000010010000011
00000000000000000000000000010101
00000000000000000000000110111001
00000000000000000000000010111101
00000000000000000000000101100101
00000000000000000000001111011010
00000000000000000000000011000111
00000000000000000000000011111001
00000000000000000000001001101111
00000000000000000000000011011111
00000000000000000000001101001110
00000000000000000000001110110100
00000000000000000000010100010010
00000000000000000000001101010000
00000000000000000000010010010010
00000000000000000000010101000100
00000000000000000000001011000111
00000000000000000000001000011000
00000000000000000000000111101001
00000000000000000000000111100001
00000000000000000000001111110011
00000000000000000000001000100011
11111111111111111111111000000101
11111111111111111111110100100011
11111111111111111111110111100110
00000000000000000000000011011010
00000000000000000000000100000101
00000000000000000000001011100100
00000000000000000000001001100011
00000000000000000000001101110000
00000000000000000000000010111010
00000000000000000000000101101011
00000000000000000000001011011110
00000000000000000000000111101101
00000000000000000000001000001111
00000000000000000000010001000011
00000000000000000000000100101111
00000000000000000000001011100011
00000000000000000000000010100000
00000000000000000000001111011100
00000000000000000000010001111111
00000000000000000000010001100011
00000000000000000000001110111010
00000000000000000000011000110100
00000000000000000000010000011010
00000000000000000000000111010110
00000000000000000000001101011000
00000000000000000000001111101111
00000000000000000000001011011011
11111111111111111111111100011100
11111111111111111111111010000100
11111111111111111111100110000011
11111111111111111111101011100001
11111111111111111111101100001000
11111111111111111111111100100010
00000000000000000000001101011000
00000000000000000000100011001011
00000000000000000000100000111100
00000000000000000000011100100100
00000000000000000000000101100000
00000000000000000000000101000011
00000000000000000000001101110000
00000000000000000000001001000111
00000000000000000000001111101101
00000000000000000000000010110011
00000000000000000000010001000001
00000000000000000000001101100110
00000000000000000000000011111001
00000000000000000000000110101000
00000000000000000000001001111001
11111111111111111111111110110011
00000000000000000000000011111011
00000000000000000000000110101001
11111111111111111111111011100100
11111111111111111111011001101100
11111111111111111110110110101100
11111111111111111110101100111111
11111111111111111110101100011010
11111111111111111110011011001011
11111111111111111110010101111010
11111111111111111110100001101110
11111111111111111111000011000001
11111111111111111111110011001110
00000000000000000000010110101001
00000000000000000000100011100000
00000000000000000000100011110100
00000000000000000000100100101100
00000000000000000000010001010110
00000000000000000000000000110100
00000000000000000000001001110001
00000000000000000000001110001001
00000000000000000000000101010011
00000000000000000000000100111000
00000000000000000000000011111000
11111111111111111111111110110010
11111111111111111111110110111101
11111111111111111111101010000000
00000000000000000000000100001010
00000000000000000000000001001100
11111111111111111111101100101011
11111111111111111111100100101011
11111111111111111111010010011110
11111111111111111111000111100011
11111111111111111110111001000111
11111111111111111110001110011110
11111111111111111101010000110000
11111111111111111101010000111110
11111111111111111101010100011011
11111111111111111101000100111011
11111111111111111101111110110011
11111111111111111111001011011001
11111111111111111111101001110011
11111111111111111111111101010010
00000000000000000000000000010111
00000000000000000000001100100011
00000000000000000000010001000100
00000000000000000000001100100011
00000000000000000000001000100011
00000000000000000000000011111100
00000000000000000000001101111111
00000000000000000000010000111001
00000000000000000000001110111010
11111111111111111111110111110101
11111111111111111111110010010010
11111111111111111111110010110100
11111111111111111111110001110100
11111111111111111111101101001101
11111111111111111111101010011001
00000000000000000000000000000001
00000000000000000000001111100000
00000000000000000000010011100010
11111111111111111111101000101001
11111111111111111110111010110010
11111111111111111110110110010011
11111111111111111111000010001100
11111111111111111111000010000111
11111111111111111110101110010011
11111111111111111110101011010000
11111111111111111111001101001010
11111111111111111111001100101100
11111111111111111111010011100011
11111111111111111111100000101011
11111111111111111111111001000111
00000000000000000000010010110001
00000000000000000000001111001011
00000000000000000000000111110101
00000000000000000000001011000101
00000000000000000000001011010101
00000000000000000000001101011101
00000000000000000000000111101100
11111111111111111111111101000011
11111111111111111111111010101000
11111111111111111111110110010110
11111111111111111111100001010100
11111111111111111111010000001001
11111111111111111111010111011011
11111111111111111111111001001101
00000000000000000000000101100000
11111111111111111111110010001111
11111111111111111111011001111100
11111111111111111111010010000011
11111111111111111111011000111000
11111111111111111111010111001010
11111111111111111111010100100000
11111111111111111110110011110101
11111111111111111110010010100111
11111111111111111110011100100110
11111111111111111110110001000110
11111111111111111110110110000101
11111111111111111111011011001110
11111111111111111111110110110010
11111111111111111111111001110110
11111111111111111111111100011001
00000000000000000000001001001011
00000000000000000000000001101001
00000000000000000000010000011011
00000000000000000000001010111001
00000000000000000000000000000101
11111111111111111111110101101001
11111111111111111111101110111110
11111111111111111111100100101011
11111111111111111111001110110001
11111111111111111111001100110001
11111111111111111110110100111110
11111111111111111110111100101100
11111111111111111111011000000100
11111111111111111111100011011101
11111111111111111111001101011111
11111111111111111110110000100001
11111111111111111110101111101000
11111111111111111111001101101001
11111111111111111110100000100110
11111111111111111101110100101100
11111111111111111101100010011110
11111111111111111101111010000000
11111111111111111110010010111111
11111111111111111111000111110011
11111111111111111111101001110111
11111111111111111111101111101101
11111111111111111111111101100101
00000000000000000000000010101011
00000000000000000000001111011101
00000000000000000000001100101101
00000000000000000000000110100111
00000000000000000000000001001101
00000000000000000000000000000111
11111111111111111111101100011001
11111111111111111111100011111000
11111111111111111111100010100101
11111111111111111111010011001011
11111111111111111110110110010000
11111111111111111110001111011101
11111111111111111110111000100101
11111111111111111111010011000110
11111111111111111111101001111110
11111111111111111110111010101001
11111111111111111110100001111110
11111111111111111110001001110101
11111111111111111110011000110100
11111111111111111110001100100010
11111111111111111101011110001011
11111111111111111101001011001110
11111111111111111101111101101101
11111111111111111111000111101100
11111111111111111111010100111000
11111111111111111111101010100001
11111111111111111111111111101101
11111111111111111111111100110011
11111111111111111111111111110100
00000000000000000000001101100110
00000000000000000000000100011011
00000000000000000000001001010110
00000000000000000000000100100110
00000000000000000000000001010010
11111111111111111111101110101101
11111111111111111111101011110001
11111111111111111111110001011101
11111111111111111111010001110000
11111111111111111110100100001110
11111111111111111110100011000000
11111111111111111110110101010111
11111111111111111111110000010111
11111111111111111111100010111010
11111111111111111111001000010011
11111111111111111110011110110010
11111111111111111110011010011110
11111111111111111111000001010111
11111111111111111110010010000100
11111111111111111101011110010100
11111111111111111101011000010011
11111111111111111110100111000001
11111111111111111111001111111000
11111111111111111111101010011000
11111111111111111111111010001010
00000000000000000000001100000110
00000000000000000000001000111100
11111111111111111111111101010000
00000000000000000000000011010001
00000000000000000000001001101100
00000000000000000000000101111111
00000000000000000000001101001011
00000000000000000000000010111101
00000000000000000000001110010000
11111111111111111111101110000111
11111111111111111111110001111100
11111111111111111111100001110011
11111111111111111111001001101101
11111111111111111110111001011001
11111111111111111111000010001000
11111111111111111111100010101111
11111111111111111111110001110100
11111111111111111111100000111011
11111111111111111110011111000010
11111111111111111110111100110111
11111111111111111110110011100111
11111111111111111110010100000001
11111111111111111101111111011000
11111111111111111110001100110111
11111111111111111110110000001110
11111111111111111111100011101010
00000000000000000000001111011001
00000000000000000000001000101100
00000000000000000000010111110110
00000000000000000000000111111010
00000000000000000000000001011011
00000000000000000000001001000000
00000000000000000000000110101111
00000000000000000000000111100100
00000000000000000000001010110111
00000000000000000000001110101011
00000000000000000000011011110101
00000000000000000000000011100000
11111111111111111111110101001011
11111111111111111111110010010011
11111111111111111111101000000000
11111111111111111111010011001110
11111111111111111110110011001110
11111111111111111111010100011010
11111111111111111110101110011100
11111111111111111110011101011011
11111111111111111110101001011101
11111111111111111110101000000010
11111111111111111110010010100110
11111111111111111110100110000111
11111111111111111110100110000010
11111111111111111111000010011000
11111111111111111111100000010110
11111111111111111111100101110001
00000000000000000000001010011001
00000000000000000000010011101011
00000000000000000000010011111101
00000000000000000000010110101000
00000000000000000000000011011001
00000000000000000000001110101110
00000000000000000000001001001101
00000000000000000000000111100001
00000000000000000000000011110000
00000000000000000000010010000110
00000000000000000000011101011001
00000000000000000000001100110111
11111111111111111111110011011001
11111111111111111111100001000000
11111111111111111111010100011110
11111111111111111110101101000101
11111111111111111110011111010110
11111111111111111110100111010001
11111111111111111110111000001101
11111111111111111101110111000011
11111111111111111110001111010110
11111111111111111101111100001101
11111111111111111110100000011010
11111111111111111110100011011100
11111111111111111110100000000000
11111111111111111111101101000011
11111111111111111111110100111010
11111111111111111111101101011001
00000000000000000000001000110000
00000000000000000000010101000001
00000000000000000000100011010101
00000000000000000000001001011001
00000000000000000000001000010010
00000000000000000000001111001110
00000000000000000000000000001100
00000000000000000000001001100010
00000000000000000000001000101100
00000000000000000000000110110001
00000000000000000000000011000001
11111111111111111111111000010110
11111111111111111111100101001100
11111111111111111111001011010110
11111111111111111110111101111010
11111111111111111110100100100010
11111111111111111110100001111001
11111111111111111111001000001100
11111111111111111110101000001100
11111111111111111101101010000101
11111111111111111101011011111110
11111111111111111101111100000000
11111111111111111110111010101010
11111111111111111110100010000101
11111111111111111110100111011010
11111111111111111111010010011000
11111111111111111111100001010111
11111111111111111111100110110111
11111111111111111111111001001000
00000000000000000000001100110110
00000000000000000000011001111101
00000000000000000000001010011001
00000000000000000000001110001101
00000000000000000000001000110100
00000000000000000000000100111111
00000000000000000000000010011101
00000000000000000000000011100010
11111111111111111111111101100011
11111111111111111111101111111100
11111111111111111111110110110111
11111111111111111111100101101000
11111111111111111110111010101100
11111111111111111111000100010011
11111111111111111111010011001010
11111111111111111111101010100100
11111111111111111111000111011110
11111111111111111101110000100001
11111111111111111101001000000110
11111111111111111101001111001110
11111111111111111101011011000000
11111111111111111111000011100110
11111111111111111110101110011100
11111111111111111111001101111010
11111111111111111110101110111011
11111111111111111111010110010111
11111111111111111111010010110101
11111111111111111111011111010100
11111111111111111111101111111110
00000000000000000000001110001110
00000000000000000000001000010011
00000000000000000000000101000100
00000000000000000000000110001111
00000000000000000000001000011000
00000000000000000000000010100000
00000000000000000000010000000110
00000000000000000000001001000011
11111111111111111111101101011001
11111111111111111111100101000000
11111111111111111111001100101011
11111111111111111110111110100001
11111111111111111111000100111100
11111111111111111111100111001100
11111111111111111111100101111101
11111111111111111111001011011010
11111111111111111110001101011000
11111111111111111101011000011000
11111111111111111101000011000010
11111111111111111101111111000000
11111111111111111110110011000100
11111111111111111110111101111110
11111111111111111110111110011011
11111111111111111110110101010010
11111111111111111110111100001010
11111111111111111110110000111000
11111111111111111111001100110101
11111111111111111111100000001011
00000000000000000000000001001101
00000000000000000000001111001000
11111111111111111111111111111101
00000000000000000000000001101001
00000000000000000000000000101111
00000000000000000000000110111011
00000000000000000000001001111111
00000000000000000000001000001101
11111111111111111111110111110011
11111111111111111111101000010110
11111111111111111111011100101101
11111111111111111111100100011100
11111111111111111111101001111000
11111111111111111111101000011000
11111111111111111111001110011000
11111111111111111110111101111001
11111111111111111110010101100011
11111111111111111101101000000000
11111111111111111101101101111100
11111111111111111110100101011010
11111111111111111110011100101010
11111111111111111110111101011100
11111111111111111111001010010111
11111111111111111111000111000111
11111111111111111111101001100100
11111111111111111111010001011110
11111111111111111111100110001111
11111111111111111111101101011001
00000000000000000000010000100100
00000000000000000000000101110111
00000000000000000000001000101100
00000000000000000000000001011001
00000000000000000000001000001100
00000000000000000000001011001100
00000000000000000000000011000100
00000000000000000000000010111101
00000000000000000000000010111101
11111111111111111111101011100011
11111111111111111111110010101010
11111111111111111111100101001001
11111111111111111111101011011010
00000000000000000000000000000011
11111111111111111111100111010111
11111111111111111111010011010100
11111111111111111110111111111000
11111111111111111110001000010101
11111111111111111110001110111111
11111111111111111110100111111001
11111111111111111110100001011011
11111111111111111110110110000101
11111111111111111110111010100011
11111111111111111111000100010001
11111111111111111111100101010000
11111111111111111111011111001010
11111111111111111111110001101111
00000000000000000000000110111110
11111111111111111111111100101111
11111111111111111111111100000101
00000000000000000000010001001000
00000000000000000000001101110000
00000000000000000000010001000010
00000000000000000000001010010010
00000000000000000000010011110111
11111111111111111111111011010110
11111111111111111111101010111010
11111111111111111111011001010010
11111111111111111111110100011001
11111111111111111111100000011100
11111111111111111111101110111111
11111111111111111111110111100001
11111111111111111111011110011111
11111111111111111111000011100000
11111111111111111110101111111100
11111111111111111110001110001000
11111111111111111101111101111100
11111111111111111101100111001101
11111111111111111101111111101010
11111111111111111110100110110000
11111111111111111110000111101110
11111111111111111111000000001001
11111111111111111111101101001111
11111111111111111111011100010111
11111111111111111111111000101100
11111111111111111111110110011110
11111111111111111111111000101000
11111111111111111111111000011011
00000000000000000000000100101111
00000000000000000000001101110000
00000000000000000000001101000001
00000000000000000000000111101001
00000000000000000000001010010110
11111111111111111111111110100001
11111111111111111111110100111100
11111111111111111111101010110110
11111111111111111111010011111111
11111111111111111111001000010110
11111111111111111111010010100011
11111111111111111111010001101001
11111111111111111110110100111111
11111111111111111110101100011110
11111111111111111110100100010011
11111111111111111110001010111101
11111111111111111101111001001000
11111111111111111101110000111010
11111111111111111110010001001100
11111111111111111110010001001000
11111111111111111110010011111111
11111111111111111111001000100000
11111111111111111111101010001010
11111111111111111111110000001110
11111111111111111111111000000101
11111111111111111111110010011000
11111111111111111111111001110010
11111111111111111111111100111010
00000000000000000000001010101110
00000000000000000000000100000000
00000000000000000000001101011010
00000000000000000000000011111111
00000000000000000000001110111011
11111111111111111111111101101110
11111111111111111111101001101001
11111111111111111111100101011111
11111111111111111111010111010000
11111111111111111111011001000111
11111111111111111111011001011110
11111111111111111110111111111000
11111111111111111111010110100011
11111111111111111111010001001000
11111111111111111111001011010010
11111111111111111110000001011100
11111111111111111101111010101011
11111111111111111110000010100010
11111111111111111110100100011100
11111111111111111110110001100001
11111111111111111110110111101110
11111111111111111111011010010010
00000000000000000000000001011001
11111111111111111111110101110000
11111111111111111111111100000011
00000000000000000000000101101001
11111111111111111111111001011000
00000000000000000000000001000111
11111111111111111111111110110001
00000000000000000000001100110010
00000000000000000000001101011000
00000000000000000000001110111110
00000000000000000000001101101001
11111111111111111111111111001011
11111111111111111111101001101000
11111111111111111111100111101001
11111111111111111111011001101111
11111111111111111111001110001010
11111111111111111110111000010001
11111111111111111110100100010111
11111111111111111110110011111000
11111111111111111111011111100100
11111111111111111111001000001001
11111111111111111110001110001011
11111111111111111110010011110110
11111111111111111110010010010011
11111111111111111110110101111100
11111111111111111110111110001000
11111111111111111111011000111100
11111111111111111111011000001101
11111111111111111111110100000001
11111111111111111111101110111011
11111111111111111111101111111010
11111111111111111111111011010011
00000000000000000000001001011100
11111111111111111111111110110111
00000000000000000000000001111000
00000000000000000000000010010001
00000000000000000000000111111110
00000000000000000000000010110110
00000000000000000000001101010000
11111111111111111111111011001001
00000000000000000000000101010111
11111111111111111111111101001111
11111111111111111111111001001111
11111111111111111111010110110110
11111111111111111110111100011000
11111111111111111110010110011011
11111111111111111110001001010100
11111111111111111110000000011010
11111111111111111101101110101001
11111111111111111101011000110111
11111111111111111101111011000001
11111111111111111110011111100000
11111111111111111110011000001110
11111111111111111111001000001100
11111111111111111111100110000001
11111111111111111111110100111111
11111111111111111111111000011001
11111111111111111111111010111000
00000000000000000000000011010101
00000000000000000000001001000011
00000000000000000000001111000000
00000000000000000000000001011100
00000000000000000000001001110110
00000000000000000000001101011001
00000000000000000000000010010111
00000000000000000000001100001010
00000000000000000000001111100001
00000000000000000000000110101100
00000000000000000000001110110101
00000000000000000000010000101011
00000000000000000000010010100100
00000000000000000000011000100111
11111111111111111111110010101111
11111111111111111111100110001011
11111111111111111111110001000011
11111111111111111110111011111111
11111111111111111111000010001000
11111111111111111111000101000001
11111111111111111111001000011101
11111111111111111111010100010011
11111111111111111111011011011101
11111111111111111111111010010100
11111111111111111111110110010000
00000000000000000000001110011010
00000000000000000000001101111011
00000000000000000000010011101011
00000000000000000000001001001110
00000000000000000000001100011001
00000000000000000000001001111001
00000000000000000000000111100001
00000000000000000000001111100111
00000000000000000000000110011010
00000000000000000000001001001110
00000000000000000000000111010011
00000000000000000000000001011011
00000000000000000000001011110010
00000000000000000000000110101000
00000000000000000000010110111100
00000000000000000000001010000010
00000000000000000000100100011011
00000000000000000000010111101000
00000000000000000000101001011111
00000000000000000000100111011000
11111111111111111111111010110010
00000000000000000000000110011101
00000000000000000000011000101011
00000000000000000000010111010101
00000000000000000000001100010010
00000000000000000000000110000101
00000000000000000000010100011011
00000000000000000000100001100110
00000000000000000000100000100110
00000000000000000000010010010111
00000000000000000000011110010100
00000000000000000000010011000111
00000000000000000000001011000100
00000000000000000000010001001000
00000000000000000000000101101001
00000000000000000000010010001011
00000000000000000000001000100011
00000000000000000000001101001110
00000000000000000000001111100011
00000000000000000000001110111101
00000000000000000000000100010111
00000000000000000000000100001010
00000000000000000000001110000101
00000000000000000000001111011001
00000000000000000000001001010000
00000000000000000000001100111000
11111111111111111111111110100101
11111111111111111111110110101111
11111111111111111111100110010011
11111111111111111111110011001011
00000000000000000000000110010100
00000000000000000000000001000100
11111111111111111111110110010111
11111111111111111111111001110110
00000000000000000000001010111011
00000000000000000000011001011101
00000000000000000000001111000000
00000000000000000000000100000011
00000000000000000000001010000010
00000000000000000000000101110110
00000000000000000000000011010011
00000000000000000000000100000001
00000000000000000000000010001010
00000000000000000000001101111001
00000000000000000000000010011010
00000000000000000000000111101110
00000000000000000000001101110011
00000000000000000000001010111101
00000000000000000000000010101010
00000000000000000000001011000010
00000000000000000000000111101000
00000000000000000000000111100000
00000000000000000000010001010000
00000000000000000000000110000010
00000000000000000000000001100101
11111111111111111111111101100111
11111111111111111111111100100110
00000000000000000000000000110001
11111111111111111111111111001001
00000000000000000000000101000100
11111111111111111111111011101100
11111111111111111111111101111001
11111111111111111111111110110111
00000000000000000000001100101101
00000000000000000000001011000011
00000000000000000000001111011110
00000000000000000000000100111001
00000000000000000000000100101110
00000000000000000000001111011011
00000000000000000000001000000111
00000000000000000000001001010100
00000000000000000000000001000010
00000000000000000000001100001011
