memory_initialization_radix=16;
memory_initialization_vector=
00000351,
00000229,
0000000b,
000001f4,
000002d8,
00000371,
00000249,
0000011c,
00000073,
000000df,
000003b0,
000002e3,
00000022,
00000324,
00000003,
00000336,
000003d0,
00000096,
00000403,
00000180,
00000090,
0000003d,
0000026d,
00000223,
00000154,
00000032,
000003b8,
000002ee,
00000390,
00000066,
00000336,
0000024f,
0000028e,
00000341,
00000443,
000000ba,
000001d6,
0000019c,
00000185,
00000247,
00000246,
fffffffe,
00000b7d,
0000130b,
000003c1,
00000002,
00000070,
00000272,
00000184,
00000117,
00000043,
00000211,
0000014f,
000002c7,
00000436,
000002a3,
000002f9,
0000035c,
00000100,
000001e9,
000003c0,
0000042e,
00000441,
000001b2,
00000114,
00000389,
0000119c,
00001187,
00000235,
0000133a,
000015fc,
000016ba,
ffffff80,
ffffeb95,
ffffe094,
ffffe8c9,
ffffe8a3,
fffffc04,
000001cb,
fffffdc8,
fffffebf,
00000408,
000003de,
00000215,
0000029c,
00000382,
00000088,
000000b7,
00000195,
0000006b,
00000271,
ffffffb5,
fffff42a,
00000a71,
00001712,
00001637,
000023e1,
00004020,
ffffef2c,
ffffef17,
fffff07d,
00000584,
ffffeca5,
fffff5bb,
ffffdf82,
ffffe33f,
ffffedb9,
ffffe48a,
ffffeac4,
fffffe1a,
00000292,
000001b5,
0000022f,
00000367,
00000529,
00000059,
00000246,
0000065f,
fffffd4a,
fffff3b8,
fffff970,
000014ac,
00000b2e,
00000eac,
00001c66,
000021f8,
fffff820,
00000790,
000006bc,
ffffd09a,
fffffc6e,
00001bf8,
fffff284,
fffff0cf,
fffffd86,
ffffd6d7,
ffffb604,
fffff606,
fffffee1,
00000019,
000000ff,
000001fd,
000001e5,
00000325,
00000239,
0000066f,
00000cc8,
00000654,
00000e9f,
00002f50,
00001408,
fffffcb1,
fffff632,
fffff0c7,
ffffe0aa,
ffffeff3,
000017c3,
ffff9448,
ffffa320,
000005c5,
ffffd78b,
ffffa830,
ffffbb29,
ffffe127,
ffffe88b,
ffffeb3e,
ffffee28,
fffffb72,
00000398,
000002ec,
fffffe55,
fffffb4e,
fffffe2a,
000006cd,
00001394,
00000c70,
ffffde6b,
00000967,
fffff0fe,
ffffeec6,
ffffd383,
ffffcd66,
ffffd030,
ffffc087,
ffffd4fe,
ffffb245,
ffffe34a,
fffffea7,
ffffedb1,
000013de,
ffffe6a2,
ffffdfe9,
ffffcc05,
ffffe06f,
fffff377,
fffff839,
00000178,
000001fe,
fffffb2c,
fffffca4,
00001060,
00000fa9,
00000ffc,
0000360b,
fffff1e9,
00002dac,
0000139b,
ffffc5ff,
ffffd0ae,
ffffee3b,
ffffc062,
ffff6480,
ffffe8a0,
ffffe50a,
ffffae66,
ffffe561,
ffffda5d,
ffffe570,
ffffeed9,
ffffe1cd,
ffffa496,
ffffcb22,
fffffd8b,
fffffd72,
00000302,
00000721,
000000a5,
00000463,
0000148f,
00001be7,
00001a00,
00004411,
ffffe9ce,
ffffded4,
ffffc072,
ffffbb2f,
fffff833,
ffffec24,
000060e9,
00000af8,
ffffaaa2,
ffffc993,
ffffb717,
ffffcb04,
ffffe47c,
ffffaecb,
ffffe366,
ffffea07,
ffffc79e,
ffffd42d,
000000ee,
00000128,
00000763,
0000164e,
000002e0,
00001093,
000028be,
00003e95,
000026b6,
00002ea4,
00000baa,
000024ef,
ffff96f1,
ffffc05e,
ffffc0da,
ffffdaf3,
00002f91,
00005126,
00000e64,
000016ac,
0000245b,
ffffd99e,
ffffd9da,
ffffe37c,
ffffebbf,
ffffd20f,
ffffee97,
ffffec8e,
000001ec,
00000931,
00000853,
0000044c,
0000059f,
00000e2c,
00002158,
000035cb,
00002e88,
00001cec,
00001ed5,
000009d6,
ffff8771,
ffffdd4b,
ffffb583,
ffffc482,
ffff8b70,
00000f7b,
ffffd981,
00001bd5,
0000236c,
00000e54,
000016fe,
ffffed9a,
ffffd260,
00000a42,
ffffffe7,
000009fc,
000000e0,
000003eb,
000004ed,
00000380,
0000032f,
00000920,
00001dd7,
00002559,
00001178,
00000402,
000006c3,
00001148,
ffffede6,
00001bc3,
ffff97d7,
ffff558e,
ffffbcc2,
000013c3,
ffffdccf,
fffffef6,
000015ac,
00001d0e,
00003df8,
fffff752,
00001208,
00001203,
ffffe281,
fffff0c2,
fffff6c4,
00000557,
00000253,
0000033a,
0000103a,
ffffff8b,
00000c5f,
000007a3,
fffff51f,
000023d7,
000047a9,
0000319f,
ffffef52,
ffff9a57,
ffff919e,
ffff4d00,
000018f0,
00002da5,
ffffe472,
ffffec2d,
ffffdecc,
ffffe760,
000012ef,
000030e0,
0000173d,
ffffe39e,
ffffe9dd,
00000c94,
00000583,
000004ad,
000002ee,
0000011a,
000006f6,
000001c1,
0000094e,
fffffa88,
00000604,
00000aa0,
000029e1,
000052a0,
fffff897,
ffff4513,
ffff999a,
ffffdeb9,
ffffef59,
ffffa476,
ffffd367,
ffffb112,
000005f5,
ffffeff2,
00002ffe,
00002a4e,
00001003,
fffff1ac,
fffff9be,
00000d2e,
00000106,
0000010a,
00000341,
00000178,
0000030e,
000004a2,
00000485,
ffffec17,
ffffe8a9,
00001c6b,
00003846,
ffffe2a6,
ffff758b,
ffff4276,
ffffc223,
000012c2,
000010fd,
fffff21d,
ffffbeae,
ffffe330,
00000600,
0000266a,
ffffdf4c,
fffffbcb,
0000020a,
ffffea5c,
fffffc06,
ffffffe9,
0000015f,
00000407,
000003ab,
00000441,
000002ec,
00000822,
ffffed11,
ffffd6e3,
ffffe724,
00000cf8,
fffff1fd,
ffffe029,
ffff874a,
ffff8648,
fffff141,
00004aff,
ffffbf84,
ffffea8f,
ffffc9a1,
ffffc192,
ffffc89c,
ffff8e6c,
ffff9c31,
ffffb847,
ffffc279,
ffffd47b,
fffff08b,
fffff666,
00000376,
00000030,
00000443,
000001a2,
00000561,
000005e5,
fffffab0,
ffffd790,
ffffef56,
fffff245,
ffffca69,
00000bb1,
ffffe836,
ffffdcec,
ffffee5d,
00001434,
ffffd586,
ffffad23,
ffffdf01,
ffffe08a,
ffffdcce,
ffff9195,
ffffa3ee,
ffffa5a5,
ffffb32b,
ffffd363,
fffff0f8,
00000333,
000001d3,
000002ce,
000000f1,
000000ad,
0000038f,
fffffe55,
00000174,
ffffe62d,
ffffd7b9,
ffffc0ae,
ffffba14,
ffffc54e,
ffffe240,
000016c7,
00007036,
fffff4d9,
0000027e,
ffffcc2a,
ffffff4f,
ffffc19b,
ffffc824,
ffff8553,
ffffa993,
ffffd3b6,
ffffe20e,
ffffef18,
00000d7b,
00001584,
000007f3,
00000030,
0000037e,
0000039a,
00000336,
0000050c,
000003eb,
ffffdd72,
ffffc45d,
ffffd14d,
ffffc408,
ffffb98f,
ffffc16b,
000020db,
00002619,
00000ecc,
ffffe4c4,
0000015c,
ffff9780,
ffffc476,
ffffc8c2,
ffffc130,
fffff46b,
fffffd9a,
000011e7,
000006af,
000019bc,
00001484,
00000a15,
00000228,
0000031b,
00000332,
00000065,
fffffedd,
fffffb9b,
ffffbd64,
ffffc9b1,
ffffdc85,
ffffbc13,
ffffe927,
ffffb292,
ffffe887,
00001851,
0000069f,
fffff644,
00000b21,
ffffb1a7,
ffff9497,
ffff8982,
ffff9d98,
ffffef65,
fffff5c8,
0000151e,
fffff7a6,
ffffffd7,
0000040f,
00000296,
00000268,
0000025b,
000003b1,
ffffffaa,
00000532,
ffffdd46,
ffffac5b,
ffffdcad,
ffffd7cb,
ffffae64,
ffff792d,
ffff8d51,
ffffe144,
00003178,
ffffcdef,
00000c05,
000017a8,
ffffd25c,
ffffbf49,
ffffb0f8,
ffff9c6f,
fffffc5d,
0000184f,
000027df,
00000f56,
fffff907,
fffff411,
000002b0,
00000097,
00000317,
0000042d,
fffff953,
00000341,
ffffe143,
ffffe09d,
000003dd,
fffff566,
ffffbca0,
ffff8b11,
ffffd1f5,
ffff9495,
fffff419,
fffff84c,
ffffedb2,
00001181,
00000007,
ffffc7b8,
ffffbb32,
ffffc9cd,
00000bd3,
00003cca,
00001e39,
00001554,
0000153e,
ffffff0b,
00000403,
00000201,
00000135,
0000011a,
fffff44d,
ffffe7c3,
fffff2fb,
00002145,
ffffe1f4,
ffffe8f8,
fffffa84,
ffffe5ff,
ffffa5b4,
ffff9fee,
ffffe0ec,
ffffd857,
ffff9dce,
0000266a,
ffffcb55,
00000eb2,
00000ce3,
000005ef,
00002d6d,
000036d1,
00000cca,
000007a2,
00000723,
0000045e,
00000420,
00000043,
0000030e,
00000150,
ffffffb8,
ffffe40b,
0000041c,
00001a03,
00000b9b,
ffffc780,
ffff9f2f,
fffff24b,
ffff8a3a,
ffff4c98,
ffff4d8a,
ffffc315,
ffff9f4d,
ffffd5eb,
ffffcadf,
00003dd7,
00001079,
000001b3,
00000b6f,
00000753,
00000150,
fffffcfc,
000006b7,
000006d6,
0000066b,
00000308,
00000359,
0000001c,
000003b2,
fffff406,
00001f6d,
00003fc9,
0000018d,
ffffcaa8,
ffffe6af,
ffffe1ec,
ffffe236,
fffff98a,
ffff97ce,
ffffac13,
ffffc399,
ffffd3d8,
ffffc1fd,
00003804,
fffff43a,
fffff58b,
ffffddcb,
0000000c,
fffffd7f,
fffffb83,
000001b8,
000009e4,
00000396,
0000023d,
000003b0,
00000006,
00000085,
00000891,
00002aef,
00001439,
0000129f,
0000310e,
000039f1,
0000237f,
ffffe677,
fffff555,
000023b8,
00000596,
fffff5f4,
ffffee50,
00001231,
00000e73,
ffffecf5,
fffff04d,
fffff3bc,
00000183,
0000041e,
00000065,
000001af,
00000070,
00000143,
000002db,
00000368,
0000037d,
00000086,
0000026b,
fffff1b0,
ffffd78a,
ffffea23,
000013ea,
00002101,
000011fb,
00001dd1,
00002a1c,
fffff4c1,
0000066a,
ffffec84,
00001888,
000014a3,
000012e3,
0000013b,
000006c0,
00000ab5,
000007ef,
0000075f,
000004ca,
0000008a,
00000411,
00000255,
00000208,
0000000e,
0000037a,
00000051,
00000377,
00000262,
00000107,
000001ed,
00000326,
0000097a,
00000e58,
000013c1,
0000107c,
0000138f,
00001383,
00000854,
000007a1,
000004fe,
00000674,
000004bd,
000005fd,
0000069a,
000005a4,
000006d4,
000003c7,
000001da,
000003b2,
000003ea,
00000263;