memory_initialization_radix=16;
memory_initialization_vector=
00000395,
00000114,
00000293,
00000116,
000003df,
0000034a,
00000305,
00000286,
000002e1,
00000189,
000003cb,
0000029a,
000000cb,
0000020e,
000002e8,
00000435,
0000029b,
000000b9,
00000342,
000001e2,
0000046f,
00000253,
0000043d,
0000000b,
000002ee,
0000022f,
00000229,
000003cc,
0000009a,
00000113,
0000026c,
0000042f,
00000226,
0000006c,
0000008b,
0000012b,
0000026b,
000002b0,
00000396,
00000177,
ffffff46,
0000020c,
ffffff1e,
000000b2,
ffffffbf,
00000304,
000001fe,
00000327,
000003ae,
00000457,
0000008d,
0000038f,
00000222,
00000042,
0000039b,
0000007e,
00000272,
00000132,
0000044b,
0000030a,
00000240,
00000221,
00000287,
00000413,
00000807,
000018fd,
000006e1,
fffff81b,
fffffa54,
fffff7f7,
00000154,
fffffdb1,
fffff9d0,
fffffe24,
fffffdb9,
ffffff68,
000002bc,
00000079,
0000016d,
000000f9,
000000ff,
000003e1,
00000056,
0000032b,
00000424,
000003f1,
000003aa,
000001fb,
00000048,
00000413,
000002ec,
00000fb8,
00001ac2,
00001a3c,
00001324,
000004c1,
ffffef22,
fffff214,
ffffefcb,
ffffe953,
ffffe162,
ffffed4e,
fffff582,
000001ad,
0000095f,
00000f7a,
000006e0,
000000b2,
00000451,
000002ce,
000002af,
000000eb,
0000021b,
00000303,
00000416,
00000184,
000000de,
00000565,
00000c1f,
0000104b,
000014d8,
0000173a,
00000db1,
00001b20,
00001222,
00000dba,
00000a72,
0000088d,
0000074a,
00000beb,
fffffc35,
00000068,
fffff215,
fffff53a,
000008fc,
00000855,
fffffead,
000001c3,
000002d9,
000001b2,
000000b4,
0000010d,
0000029f,
000002bd,
00000406,
000000f6,
00000c87,
00000681,
ffffed87,
00000bf7,
00001a26,
000020a5,
00002110,
00000981,
000022bc,
00004353,
000057f3,
0000464b,
00003052,
000024f9,
fffff9ca,
0000078b,
00000a88,
000010a3,
fffff88e,
fffffdaa,
00000047,
0000020b,
000003ff,
000003a5,
00000275,
fffffef6,
00000065,
fffffa34,
fffffd78,
fffffd5c,
fffff45f,
fffff2d6,
ffffe3b4,
ffffd514,
ffffc647,
ffffac6a,
ffff9db4,
ffffcf29,
ffffb474,
ffffa61f,
ffffa23d,
ffffda6d,
ffffd9d2,
fffff29c,
00001ab0,
00001494,
fffff47b,
fffffa69,
00000474,
00000159,
000003cd,
00000364,
0000022c,
00000282,
000007e0,
00000300,
fffffd2c,
ffffec22,
ffffec78,
ffffcdbe,
ffffa205,
ffffbcb1,
ffffaa61,
ffff95f6,
ffff5dff,
ffff69b1,
ffff5453,
ffff5563,
ffff7970,
ffffac7d,
ffffd05d,
fffff8a8,
00001b83,
0000213e,
000007b8,
fffffc26,
00000450,
00000409,
000000f4,
0000028e,
fffffe67,
fffffd90,
0000078c,
00000ddc,
fffff462,
ffffef5c,
ffffd0d9,
ffffa7bf,
ffffbb47,
ffffa879,
ffffb1ce,
ffff7d3f,
ffff711b,
ffff813e,
ffff5f54,
ffff7339,
ffff86eb,
ffffc232,
ffffd6c0,
ffffe2c4,
0000224a,
000020bb,
ffffff5b,
fffff290,
fffffeae,
0000025c,
00000446,
00000032,
fffffcc2,
fffffbfc,
0000020e,
00001038,
ffffe4d9,
ffffde40,
ffffc21f,
ffffa999,
ffffbb5f,
ffffb8a8,
ffffbe51,
ffffa036,
ffff9996,
ffff97d7,
ffffa389,
ffffb4dc,
ffffbf5f,
ffffc00c,
ffffc8da,
ffffd8b7,
00001daa,
0000147e,
fffff757,
fffffb46,
00000021,
ffffffbb,
00000071,
00000118,
fffffe16,
fffffaaa,
000004dd,
000000c5,
ffffd69b,
ffffd65f,
ffffb7c7,
ffffafac,
ffffb9de,
ffffbf5a,
ffffcdb5,
fffff76f,
ffffc932,
ffffc83e,
ffffcce4,
ffffc7f0,
ffffc4fc,
ffffca08,
ffffabcc,
ffffdcf0,
0000193c,
00000d1d,
fffffcf7,
fffff9c0,
ffffffb7,
00000666,
00000232,
000000cd,
fffffc04,
ffffff02,
000002cc,
fffff0d1,
ffffda23,
ffffdd7e,
ffffcb18,
ffffe545,
ffffdabc,
ffffd3e3,
00002417,
fffff6cf,
ffffca95,
ffffdcb7,
ffffc63e,
ffffaad8,
ffffa996,
ffff9fc9,
ffffae4e,
ffffe38a,
0000172f,
fffffe34,
ffffee67,
fffff275,
fffffe80,
ffffff53,
00000325,
0000033a,
00000241,
00000106,
ffffec45,
ffffdb86,
ffffee4e,
ffffe516,
ffffe861,
00000b8d,
ffffdf1a,
00001e37,
00004add,
ffffe9a7,
ffffc48b,
ffffc340,
ffffb89d,
ffff9e1f,
ffffa34e,
ffffabd5,
ffffc6ca,
000001d0,
00001938,
fffff8dd,
fffffca6,
fffffd1c,
fffffef1,
000001c5,
000003fb,
0000000e,
00000249,
fffffe73,
ffffdf2a,
ffffcedb,
ffffcd5b,
ffffe68a,
00001b19,
00000110,
000012b2,
00003cb5,
00001840,
ffffbed8,
ffffacd3,
ffffa895,
ffffb0c6,
ffffa81b,
ffffab67,
ffffc4c6,
ffffd8e2,
fffff4fd,
000008ed,
fffffb34,
fffffd97,
00000238,
0000045c,
000002cb,
0000029a,
0000018b,
00000025,
fffffea8,
ffffef67,
ffffd523,
ffffb7be,
fffff9d4,
00001f03,
00000187,
fffffcdc,
fffffacd,
ffffdb51,
ffffbf4b,
ffffbfb3,
ffffb28e,
ffffbd04,
ffffa882,
ffffc026,
ffffe24b,
fffff1c6,
000009f2,
00000346,
ffffef35,
00000243,
00000417,
00000334,
00000019,
00000485,
fffffffc,
0000032d,
000006f3,
fffff555,
ffffccda,
ffffc951,
ffffe87a,
fffffdd6,
000006b0,
ffffde82,
ffffcaff,
ffffd26d,
ffffe808,
fffffbe0,
ffffdee1,
ffffc6b2,
ffffd3af,
ffffeb3e,
fffff7a8,
00001424,
00001817,
000008b1,
ffffff79,
0000196c,
00000c02,
0000066d,
000003b9,
000002bd,
000002da,
0000033a,
00000b5f,
fffff91c,
ffffd4e2,
ffffcd0f,
ffffc3f4,
ffffcadb,
ffffd9a4,
ffffdae0,
ffffc009,
ffffd852,
fffffc8c,
fffff97b,
ffffe16b,
ffffe0aa,
ffffdd89,
ffffe7a6,
fffff8d7,
00002b5f,
00002f38,
000014d3,
00001363,
00001224,
0000092e,
0000073e,
0000014c,
0000013b,
0000020e,
000004ae,
00000c64,
fffffaba,
ffffe587,
ffffed36,
ffffcd4c,
ffffc272,
ffffdba6,
ffffd768,
ffffe1a6,
fffff702,
fffff51e,
fffffb85,
ffffcbd3,
ffffeae9,
ffffd1f0,
ffffec62,
0000194f,
00002913,
0000232b,
000014b5,
000010e3,
000004de,
00000227,
0000014d,
0000043e,
0000009a,
000000be,
00000520,
000000a3,
fffff62c,
00000306,
fffffe42,
fffff914,
fffff976,
00000704,
fffffdf9,
000010e4,
000004fb,
0000034e,
fffff2d0,
fffff435,
fffff9e1,
ffffd059,
000010c3,
00001450,
00000e56,
000007b1,
000005e0,
000001d2,
00000147,
00000388,
0000001c,
000000ee,
000003cf,
00000250,
ffffff6b,
fffff70f,
fffffd9b,
00000f72,
00001b21,
00001980,
00002b80,
000034f2,
00003424,
00002c75,
000022af,
00001faa,
00001cff,
00000fca,
00000b8c,
0000117c,
00001ebd,
00000465,
ffffdf91,
ffffe852,
fffff39b,
fffffe6b,
fffffb97,
fffffdc7,
000000f4,
00000417,
00000362,
00000217,
ffffffa5,
fffffe6b,
0000036a,
0000176b,
00003341,
00003d9a,
00002cc5,
00001433,
000007f0,
000013ea,
00002032,
00002649,
000015a3,
00000061,
ffffebfd,
00002bb8,
000021ec,
fffffcec,
ffffeed2,
00000295,
00000719,
00000063,
fffff673,
fffff8dd,
000001cf,
000002e5,
000003b7,
000002d7,
000001f4,
000004ff,
ffffffc5,
00001909,
00001ff4,
0000240a,
fffff5fb,
ffffdb71,
ffffd45b,
ffffe52d,
00000216,
00001dae,
000005c8,
fffffcc9,
fffff992,
00003794,
00002a51,
00001e7a,
ffffffc0,
fffffdde,
fffffc70,
00000106,
fffff65f,
fffffde0,
000003ce,
0000033a,
00000181,
00000173,
0000016e,
0000047f,
00000a3c,
0000154a,
00001b81,
000024d5,
000018d7,
00000198,
ffffec28,
ffffe71c,
fffff7cd,
fffffca2,
fffff156,
ffffe3ce,
ffffd7e6,
000008ef,
00001803,
00001d36,
ffffef4b,
fffff443,
fffff771,
fffff9e7,
fffffd2e,
0000002a,
00000313,
000001f3,
0000031a,
000002bd,
0000010e,
000000c2,
00000354,
fffffb6d,
fffff220,
fffffe1f,
fffffce5,
ffffee3c,
ffffec53,
ffffee80,
ffffda20,
fffff261,
fffff0ff,
000002ce,
fffffde3,
000010da,
00002520,
00001eb7,
000002ee,
fffffa02,
fffff03a,
fffff604,
fffffdfe,
0000031a,
0000016f,
000000fc,
000001eb,
00000471,
00000387,
fffffd5a,
fffff45c,
ffffeca2,
ffffdcba,
ffffccc2,
ffffcd7f,
ffffcea9,
ffffc3e5,
ffffb5f5,
ffffb66f,
ffffde99,
ffffff59,
ffffff69,
fffff0e0,
ffffdc94,
ffffe386,
fffff522,
ffffec63,
ffffda5a,
ffffe68d,
fffff4b7,
fffffe36,
0000048f,
00000164,
0000010b,
000001d5,
00000294,
00000225,
0000035d,
fffff8f0,
fffff39c,
ffffeaca,
ffffd582,
ffffc85d,
ffffbaa7,
ffffbb82,
ffff9eeb,
ffff97be,
ffff9df3,
ffffb82e,
ffffcb26,
ffffa1e0,
ffff9546,
ffffbbc2,
ffffd5d6,
ffffde9e,
ffffdfd5,
fffff31b,
fffffcdb,
00000070,
00000409,
0000033e,
000001e2,
00000383,
0000001a,
000002ee,
000000b6,
00000144,
ffffff00,
ffffffcb,
fffff806,
fffff3bb,
ffffeb0f,
ffffe7b3,
ffffdd9b,
ffffc580,
ffffcc33,
ffffda02,
ffffdf20,
ffffcf2c,
ffffd6d9,
ffffe215,
fffff0b5,
fffffaf9,
00000258,
000003ef,
000001f4,
000000e3,
00000149,
00000365,
000002ca,
000000d8,
00000211,
0000001b,
0000045b,
00000221,
000002e7,
ffffff07,
fffffd0d,
000001f9,
00000013,
ffffff45,
0000034a,
fffffceb,
ffffffca,
000001a1,
0000035c,
fffffc3c,
fffffbcd,
fffffcde,
0000004a,
00000533,
0000049f,
00000369,
000003ce,
00000334,
00000423,
00000161,
0000041b;