memory_initialization_radix=16;
memory_initialization_vector=
00000280,
00000234,
000000ce,
000001b1,
0000039c,
000002e3,
0000036d,
0000004d,
00000395,
0000011f,
00000018,
00000474,
000000de,
00000262,
00000408,
00000150,
000003d4,
0000030d,
00000083,
000003c2,
00000277,
00000332,
00000283,
00000187,
000000da,
000003c3,
00000332,
00000085,
000001ad,
0000030e,
000003f4,
0000042d,
000000b0,
00000030,
0000014c,
0000043f,
0000024b,
ffffff52,
ffffff5e,
0000019d,
00000099,
ffffff89,
fffff598,
fffff458,
00000a34,
0000040f,
00000493,
000003ba,
000004d3,
000003ff,
00000102,
00000268,
00000299,
00000378,
000003e9,
00000373,
000002a9,
00000289,
000003f9,
00000456,
00000118,
00000354,
000003c2,
000000dc,
00000237,
0000043e,
0000090f,
0000100d,
ffffef69,
ffffd118,
ffffc076,
ffff9e35,
ffffc3ab,
fffffd58,
000027fd,
000019fc,
0000145c,
00001386,
00000ede,
00000978,
0000048a,
000002b2,
000000b2,
00000093,
0000012b,
00000009,
000000f2,
0000030c,
0000028e,
0000035b,
00000469,
00000c84,
00001d20,
00001b0c,
00002bc3,
000064d9,
fffff625,
ffff6dca,
ffffa435,
fffff1d5,
00001075,
00001d77,
00008754,
00002c86,
00000009,
00000461,
00002876,
000028b4,
00000f05,
000002d2,
000000dc,
000002d0,
000003d1,
000001c6,
fffff8fb,
fffffe18,
ffffffea,
fffff150,
fffff897,
fffff4db,
ffffe994,
ffffedc2,
ffffccb7,
000019cd,
ffffe417,
ffff0cf0,
ffffc75f,
ffffe83d,
000008f8,
00002eb1,
ffffe8ad,
ffffe75a,
ffff9b38,
ffffd1a9,
00001219,
fffff80c,
0000049d,
00001e53,
00000567,
00000311,
00000353,
0000011c,
0000019f,
00000224,
fffffe53,
ffffda6d,
ffffd4b0,
ffffdd5e,
000014be,
00002222,
0000459b,
00004624,
000069b5,
00001fdc,
000059c3,
00002489,
0000801f,
0000a7b6,
000060d1,
0000ccf6,
00005eaa,
00002186,
ffffe682,
ffffd228,
ffffded9,
00002adf,
00000c89,
000006b1,
00000457,
0000002b,
00000356,
00000239,
fffff3df,
fffff379,
00000c20,
00002a0d,
00002979,
000071d9,
00006c43,
00006a59,
00008aae,
00004578,
00005e95,
00006819,
00004260,
ffffe9db,
00003a30,
0001196c,
00009cf6,
000044b8,
fffff964,
ffffdd5e,
000013b3,
0000379d,
000005b4,
00000423,
000000a0,
000001b7,
00000331,
000002ea,
00000001,
000014b5,
000035eb,
000011e4,
000050dc,
00004cbf,
00002fdf,
00007eb7,
ffffd124,
00003f39,
ffffc915,
00006e87,
ffffcedf,
00004c1e,
000077da,
00002227,
00001a96,
00003c50,
00001172,
ffffea6b,
000038f6,
000025c1,
000005ef,
00000108,
00000208,
0000022f,
000000ce,
000004d9,
00001373,
000017f7,
00001490,
ffffea50,
ffffe0fe,
ffffdd5f,
ffffe79a,
ffffccc4,
ffff7f23,
fffff2dd,
00002885,
ffffde2e,
000075a3,
ffffd192,
00001ad3,
00001869,
0000305b,
0000621c,
fffff6c4,
00003001,
000040d1,
000030ed,
00000773,
000002fe,
0000033e,
000004b0,
00000139,
00000cc1,
00002a98,
00002ec0,
00000ef3,
ffffdcda,
ffffbc55,
00000f86,
ffffd52f,
000026b8,
0000048a,
ffffb88a,
ffffc863,
ffff5568,
00000477,
0000498d,
00000cd6,
000054f7,
00005f65,
00001473,
fffffc47,
000053e7,
00005c83,
00003aba,
00000b65,
fffffaf8,
00000178,
00000390,
000001cb,
00001d29,
00001e91,
00001b67,
000047d3,
00003ddb,
0000281d,
00005408,
00000ec5,
00003d54,
ffffa84f,
ffff8e73,
ffff93bf,
ffff2f72,
ffffd8a5,
ffffe53a,
00005a70,
00005b96,
0000526a,
00004222,
0000457f,
00006125,
00004d8c,
0000201a,
000015ca,
000009da,
00000295,
00000081,
000000fc,
0000179e,
00000012,
fffff5a2,
000026d2,
00001398,
00000dfc,
00000161,
ffffa2be,
ffff853c,
ffff7e61,
ffffcc81,
ffff5e86,
ffff1833,
ffff75a5,
ffff8164,
000037c5,
0000618f,
0000174f,
fffff8b2,
000042f7,
00005aef,
000083a1,
00005433,
00002b09,
00000646,
000002d1,
00000327,
ffffffdf,
00000088,
fffff734,
0000058a,
00000036,
ffffde56,
ffffad49,
ffff9f66,
ffffda4e,
ffffe9f5,
ffff8a2a,
000008f8,
00000971,
ffff6716,
ffff5e2e,
ffffc6bc,
ffffd9eb,
000052b7,
00001e49,
fffffc5c,
000025db,
00003afc,
00003025,
00002733,
000018a6,
fffffa42,
00000363,
0000039c,
000000a8,
fffffa26,
000001a3,
00000b87,
ffffe716,
ffffcc2e,
ffff98a1,
ffff55aa,
ffff9efe,
000042df,
00001f47,
ffffd458,
ffffd753,
ffff97d4,
ffff1fc2,
ffff2327,
ffffc4ff,
000085cd,
00003251,
00000374,
00001017,
00001cb0,
00002b8f,
000016ae,
00000ae6,
0000043f,
000003f5,
00000071,
ffffff83,
fffff82e,
fffffa72,
fffff83d,
ffffecce,
ffffc280,
ffffa3b6,
ffff461a,
00000471,
000058ff,
fffffda7,
fffff19d,
00001b40,
00001175,
ffff3b0d,
ffff5e23,
ffffdb70,
0000605c,
00005cfd,
00002512,
000016f4,
0000055d,
00000904,
00000af5,
00000911,
000002f6,
00000194,
000001d8,
fffffe01,
fffffcea,
fffffa04,
0000185b,
ffffecd4,
ffffa752,
ffffa0d6,
ffffd6c5,
000050cc,
ffffc690,
ffffda6c,
ffffbe31,
00000c61,
ffffd1a4,
fffee21e,
ffff59b3,
0000123b,
000097fb,
0000a2d7,
00003b2b,
00002f54,
0000058b,
0000070b,
fffffe5c,
00000285,
000000a9,
000001fd,
00000230,
000001ae,
00000027,
ffffffaf,
0000319e,
000014ec,
ffffe799,
ffffb978,
ffff8100,
00000e69,
ffff7b25,
000032dd,
ffff8d10,
fffff67e,
ffff81d0,
fffeebcd,
0000642a,
0000c6cc,
0000b1c6,
000098d8,
00005298,
00002ce3,
00001125,
0000080d,
00000b70,
00000114,
0000000a,
000002a0,
0000025b,
0000041e,
fffffaa0,
00001a23,
00004f52,
00007038,
000040f4,
ffffec7b,
ffffc6b7,
ffffd75e,
00002b6f,
ffffb041,
ffffb9e2,
ffffbb29,
ffff8256,
fffff4fa,
00017e99,
0000f110,
0000fd47,
0000ae24,
00007d6b,
00004d09,
00002108,
00000a1d,
000022c9,
fffff744,
000003f0,
000001e3,
000000a5,
00000231,
00000004,
000031e6,
00007485,
0000ec12,
0000aee1,
000071a3,
0000394f,
0000ab70,
0000433b,
00003380,
0000016a,
fffff054,
00007c53,
0000f615,
000127df,
000079c9,
0000bb5a,
00007028,
00005c02,
00003358,
00000fb9,
fffffddf,
fffff325,
fffff281,
ffffface,
000002cc,
00000352,
00000478,
00000986,
00004b9a,
000099b8,
00007b39,
000062cd,
00009604,
00000d55,
00009287,
000033ee,
00000966,
ffffc320,
ffffe2f4,
0000607f,
000069c7,
00007858,
000052fa,
0000859f,
00006041,
00005842,
00003fed,
000009de,
ffffe43b,
ffffe696,
fffff315,
ffffff04,
000000d7,
0000028b,
00000818,
000011b6,
0000388d,
0000845e,
00000b81,
000027a5,
ffffc3af,
ffffa319,
ffffe08f,
ffffd8f8,
ffff8e8e,
00001dbe,
ffffa419,
0000623b,
ffffd268,
ffff9d9b,
ffffc5a1,
ffffee84,
fffff950,
ffffe4f8,
ffffcfdb,
00000973,
fffffcd4,
00000590,
fffffaa2,
000002bb,
00000365,
00000320,
00000883,
fffff3b3,
fffffc38,
ffffe0fe,
00000887,
ffffe8ba,
ffff829e,
ffff8a3e,
ffff6a08,
ffffd2aa,
ffffd6d7,
00007bfa,
0000396e,
fffff57b,
00004ed8,
000096b5,
ffffb4a5,
00001cdc,
ffffcd69,
ffffcf64,
00000ee8,
00000f69,
fffff388,
fffffed7,
0000039d,
00000360,
00000252,
00000326,
000006f5,
fffffe2c,
ffffea4e,
ffff97b9,
ffffdef9,
000028ac,
ffffef56,
ffffeff2,
0000484f,
00005eda,
0000babd,
0000da57,
00005b65,
000054e1,
00009928,
00003411,
ffff8033,
ffffed09,
ffffa3e6,
fffff76b,
000028de,
00000ddb,
00000376,
ffffff3e,
00000193,
00000281,
00000018,
000001b0,
0000018c,
00002151,
000017b3,
ffffa922,
ffffbe4d,
000050c1,
00009bcb,
00000ece,
0000378a,
00005cd3,
ffffa107,
00004ea8,
00008387,
00002962,
000005d1,
fffff745,
0000059f,
00000af4,
ffffe067,
00004445,
00002db5,
0000179e,
00000320,
fffffcc7,
fffff70e,
00000193,
000003c8,
000002fa,
0000041c,
00001485,
00000c1e,
ffffd942,
ffffe4c1,
00000e80,
000026ca,
000035d4,
ffffec57,
00006b16,
0000a2ce,
00009448,
00002b5f,
00008340,
0000e0b5,
000025c3,
0000041d,
fffff8b8,
00000789,
0000159b,
00001940,
ffffff6d,
ffffff45,
00000159,
0000031b,
0000046e,
0000023f,
0000039f,
0000016f,
fffffcb4,
fffffe7d,
fffff461,
fffffaf6,
000005a5,
ffffe6c1,
ffffd767,
ffffe4b8,
ffffb921,
ffffe2da,
ffffc6a8,
ffffe6a5,
0000656e,
00007104,
00004c48,
000026df,
00002e0b,
000008e0,
fffffc68,
fffffcac,
fffffd03,
00000206,
000001d7,
000000f0,
0000029d,
00000167,
0000047c,
00000279,
0000033b,
fffff99f,
ffffef40,
ffffecc5,
fffff2b8,
fffff228,
ffffe5c2,
ffffeb5f,
fffffa7f,
fffff9c0,
fffff699,
fffff63a,
000009ef,
000018fa,
000010e6,
00000dd4,
000005bd,
000004b1,
0000022a,
000000fc,
00000480,
0000026d,
00000460,
0000045d,
00000448,
000001af,
000000cc,
00000253,
00000316,
000000a6,
00000005,
0000020b,
00000545,
0000047e,
000000cb,
ffffff14,
000000a5,
fffffabd,
fffffbe5,
0000008a,
00000160,
00000095,
fffffd88,
fffffce1,
ffffff18,
ffffff4d,
000002cf,
00000240,
00000067,
00000461,
000002bb,
00000448,
0000023f;