memory_initialization_radix=16;
memory_initialization_vector=
0000018c,
0000012d,
0000001a,
00000275,
000001de,
0000013a,
000002ea,
000001dd,
00000416,
000001ca,
0000004b,
000002b9,
00000299,
000003de,
00000292,
00000460,
00000371,
0000012b,
0000022e,
00000004,
000003d3,
00000232,
00000173,
00000144,
00000322,
0000038d,
00000414,
0000002b,
00000353,
0000027a,
00000284,
0000004d,
000003a8,
0000029f,
000002c3,
000000e9,
000003c1,
00000103,
0000029f,
00000290,
00000288,
0000031c,
00000190,
000000e1,
00000291,
00000426,
000000ad,
00000143,
000000b0,
000002ea,
0000014c,
00000483,
0000008a,
000002c0,
00000135,
000003ac,
000001bb,
000000b7,
000003d8,
0000007c,
00000332,
000001c9,
000000c9,
0000023e,
00000446,
000002c8,
fffffa78,
fffff73c,
fffff8f0,
000000aa,
fffffeae,
fffffb0b,
fffffaa2,
ffffffd1,
fffffdf6,
fffffb7c,
00000206,
ffffffe7,
000003b7,
00000436,
000002fd,
00000071,
00000427,
00000388,
00000332,
000000ca,
000002a2,
0000005b,
0000016f,
00000067,
000001c2,
ffffffb9,
fffffe44,
fffffcdf,
0000009f,
fffff24e,
ffffe774,
ffffef60,
ffffced8,
ffffa928,
ffff9c86,
ffffdfcb,
fffff775,
ffffe887,
ffffe547,
ffffd76a,
ffffee17,
000002ac,
00000322,
00000428,
0000032b,
0000018b,
00000008,
000002c0,
0000018c,
000005f1,
00000b45,
00001c43,
00001548,
000009b4,
fffffc26,
ffffd48d,
0000024d,
ffffc06d,
ffff9431,
ffff8f66,
000013ab,
ffffdf80,
ffffac8c,
ffffa4bd,
fffffe56,
ffffdda6,
ffffdfd6,
ffffd0b3,
ffffe391,
ffffd4d7,
fffffbd4,
00000069,
000000c1,
00000393,
0000001f,
000003f6,
fffffff9,
fffff58c,
fffff619,
00001bb7,
00002319,
ffffea30,
ffffea10,
fffff818,
00002e8c,
000006c4,
fffffb8b,
00001e0c,
fffff4e5,
ffffd3e3,
00001855,
ffffa9e5,
fffff35e,
000018a3,
00000984,
fffffa5c,
ffffd25b,
ffffcf54,
ffffeb6c,
000002b7,
000002fd,
00000201,
000002e5,
00000428,
000004c1,
fffff630,
0000169c,
00002d5a,
0000165d,
00000309,
000040d6,
ffffd1a2,
ffffed20,
0000208b,
00000585,
00002de8,
fffff2bc,
00006a65,
00004fe9,
0000427f,
00002f8f,
ffffaae3,
ffffe18d,
00003bb3,
ffffa9db,
ffff99d9,
ffffe167,
00000386,
000002c8,
000003c0,
00000233,
000007e1,
0000026b,
fffffa8d,
00003cf2,
00001eb2,
000043b5,
00002d48,
00003208,
ffffc4f3,
ffff58f0,
ffffcb1b,
000066f6,
00004080,
0000024d,
000045f1,
ffffb241,
ffffd999,
00002fd3,
00005d61,
00000ea4,
fffff0fc,
ffffb1a6,
ffff5697,
ffff9452,
ffffee07,
000006e2,
000002eb,
000000fc,
ffffffe0,
00000925,
00001b0a,
000028e7,
ffffd235,
fffff7bb,
fffffc5d,
00001d29,
000022d4,
000043cc,
00001d19,
00003230,
000053bd,
00003d2c,
00001a64,
00000e2b,
ffffb588,
0000795e,
00008f05,
000011e7,
0000356f,
ffffc336,
ffff00b8,
ffff5863,
ffffd5bc,
00000541,
0000040b,
0000010d,
000000f1,
00000516,
000028c8,
fffff790,
ffffa9c8,
ffffde88,
00000e54,
00003361,
00001b78,
00005fbd,
00001b86,
ffffa014,
ffff668a,
fffee79d,
ffff5840,
fffffd09,
00001441,
0000412f,
0000160d,
00005691,
0000286d,
ffffbbe3,
ffff5d03,
ffff70d1,
ffffefe7,
000001f4,
0000020b,
00000486,
00000243,
000003b2,
0000295b,
fffff04c,
ffffef43,
0000045f,
ffffb1c6,
ffff9c63,
ffff4d9c,
fffeb3a7,
fffe8430,
fffde53b,
fffe8678,
ffff5703,
ffffbea2,
00006f77,
fffff8e0,
00008348,
00003df1,
0000b433,
00006419,
ffffb094,
ffffb328,
ffffc95d,
fffffdef,
00000288,
0000020a,
00000272,
0000014b,
ffffecfd,
ffffefde,
ffffb11a,
ffff95ee,
ffffacc2,
ffff0098,
fffeb118,
fffe3b47,
fffdf2f4,
fffeba06,
ffff33d6,
fffff918,
0000b19c,
0000b1f3,
0000290d,
00001e57,
00008949,
00006025,
00009666,
fffff6fc,
ffffc118,
ffffd1f4,
ffffe398,
0000019e,
00000266,
0000027c,
000000ea,
fffff398,
ffffe3b8,
ffffb946,
ffff85cc,
ffff624f,
ffff2f71,
ffff0a5b,
ffff19a1,
ffff2f0d,
ffffd05f,
ffffe75b,
00005d80,
00004b79,
0000bba8,
00004540,
ffffeedb,
ffffc2fa,
00006533,
ffff6b3d,
ffff88e1,
ffff4b3c,
ffff71cc,
ffffd27f,
fffff167,
00000354,
000000fc,
0000041b,
00000225,
ffffe41f,
ffffe316,
ffffd59c,
ffff8fdb,
ffff65e9,
ffff4c5c,
ffff1dea,
ffff7d52,
ffffcb9c,
000027e2,
ffffeaab,
00005165,
000078df,
00000f17,
ffffc45f,
00000d77,
ffffcda4,
ffffcdd0,
ffff162d,
ffff30b2,
ffff3204,
ffff222c,
ffffc64a,
ffffeb39,
fffffd2a,
00000159,
000002f3,
00000095,
fffffadc,
ffffe66b,
ffffde54,
ffffa681,
ffff88a5,
ffff81c8,
ffff877e,
00000a63,
ffffdb31,
ffffdd0f,
ffffd7e8,
ffffff12,
0000a829,
000088fc,
00007856,
000028d2,
00003a27,
ffffc081,
ffff8a6a,
ffff68ed,
ffffea1a,
ffff7579,
ffffcbac,
ffffe332,
fffffcaf,
0000019e,
00000455,
00000007,
000005c7,
00000283,
ffffe7f2,
ffffd069,
ffffc9de,
ffff9368,
00000cb4,
fffff7cc,
fffffb39,
ffffef59,
00002e20,
00003f21,
ffffdb53,
0000ab67,
00000590,
ffffb61f,
ffff8a12,
ffffe785,
00000347,
ffffe006,
00006299,
fffffc2f,
0000089f,
fffff79c,
00000065,
00000f7e,
00000057,
0000027f,
0000040b,
00001fa4,
00000d95,
fffffd28,
ffffbb4a,
ffff744c,
ffff7e2e,
ffffb629,
000037c6,
ffffd2b6,
00005026,
000086a3,
00009261,
fffffea3,
ffff9dc6,
ffffdb64,
ffff9509,
fffffe42,
000005c1,
fffff6d6,
000045b0,
00000162,
0000086d,
fffff080,
fffff8bd,
000002bf,
00000397,
000003fa,
0000039b,
000020b1,
000024c2,
000025e0,
ffffad5a,
ffff38f8,
fffeec49,
fffed52c,
fffe8c3e,
fffe4711,
ffff561b,
ffff9998,
ffffc8e9,
ffff92d5,
ffff590a,
00000969,
ffffdb06,
000048bf,
00002594,
ffff99f4,
fffff217,
00002dc3,
fffff20b,
ffffb9b1,
ffffd6dc,
000000f2,
00000091,
000000ad,
00000110,
000022ec,
00006403,
00002204,
000004d6,
ffff597f,
ffff3454,
ffff0f32,
fffe2dc8,
fffdd979,
fffdfe7f,
fffdc5ff,
fffe25cc,
ffff2d03,
ffffae83,
00001796,
00005da2,
0000610c,
00003dc8,
00006236,
0000a83c,
0000730a,
ffffc054,
ffffbb65,
ffffe6d5,
00000413,
000002ec,
000000f6,
0000006f,
fffff8a5,
000059ce,
00005fcc,
ffffecf7,
ffff7f5b,
fffff4b7,
fffffb35,
ffff7ee3,
ffff084a,
ffff1c5c,
fffea5d5,
ffff0c29,
ffff3f62,
ffffa746,
00000408,
0000403a,
0000361b,
0000446c,
0000de67,
00008d06,
00002a57,
ffffcd48,
ffffb6a4,
ffffef86,
00000327,
0000017a,
00000332,
000002c6,
fffff4d1,
00007c1f,
00006ecf,
00002e18,
ffffc046,
00006882,
00002612,
00000f63,
ffff9f0b,
0000251b,
ffffffdf,
ffffc077,
ffff5535,
ffff7b7c,
ffffb87e,
fffffcd5,
ffffe20c,
000038a9,
00007e25,
000007b9,
ffffb24a,
ffff84ce,
ffffbd19,
fffff9e5,
000002f5,
000003c3,
000001e1,
00000166,
00001c11,
00006e00,
00008c2a,
00004005,
0000778d,
00003804,
fffff3d6,
ffffdfcd,
00006019,
0000671c,
00006c1e,
fffffb92,
000035f9,
ffffeb93,
ffff7030,
ffff8e84,
ffffdb32,
fffff9ea,
ffffeafa,
ffffdd06,
ffff845a,
ffff72be,
ffffbf3d,
ffffedbc,
0000041a,
00000020,
000002d3,
00000217,
00001abb,
00005b15,
00007abb,
00006848,
00003c10,
000032bc,
000045a3,
ffffbecb,
0000102f,
0000280a,
ffff765c,
00002ff8,
ffffba96,
00002aa8,
000039dc,
00007175,
ffffca4d,
0000358d,
ffffd790,
ffffd8d1,
ffffa804,
ffffd1d0,
ffffd540,
ffffe6b0,
0000037c,
0000041d,
00000152,
000002e9,
0000206c,
00004c45,
0000790f,
000099bd,
0000293e,
00000f28,
fffff379,
ffffee61,
ffffede0,
ffffd5d2,
ffffd6a7,
00005913,
ffffe079,
00002503,
ffffc445,
000011a7,
00000750,
ffffd643,
ffffadb5,
ffffc77e,
ffffb3d9,
ffffe679,
fffffece,
fffffe35,
000002b9,
00000104,
00000323,
000001b6,
00000d18,
00003b3a,
00004715,
000048e8,
00005632,
00004740,
000016f9,
00005e70,
000063b0,
ffffff19,
000060bb,
000023f8,
ffff9d5d,
ffffa0d8,
ffffd7fa,
0000175d,
ffffdb51,
ffffa8f1,
ffffbd87,
ffffd749,
ffffd5f4,
ffffe894,
0000020a,
00000116,
00000428,
000002ee,
00000215,
00000260,
00000478,
fffffc8d,
fffff2fd,
00000f5f,
0000158c,
ffffc9e6,
00002e30,
00003a4f,
000043d7,
fffffd02,
ffffc07c,
ffff8d23,
ffff6929,
ffffab95,
ffffb615,
ffff871f,
ffffcdad,
ffffe1d8,
ffffe4a2,
ffffdb66,
ffffec37,
fffffa50,
000002aa,
000000b2,
0000045a,
00000099,
000001c8,
000003f0,
00000387,
000003df,
000002df,
000006ab,
00000610,
ffffb385,
ffffc1a0,
ffffc167,
ffffbda4,
ffff9a2a,
ffffa89c,
ffffe09c,
ffffbc65,
ffffb6a8,
ffffe0d5,
ffffd089,
ffffe7b5,
ffffd369,
ffffd9a2,
fffff8ff,
0000006b,
00000230,
00000148,
00000007,
000001e0,
0000040e,
000000b9,
000001a8,
00000015,
00000282,
00000107,
000003a3,
000001e2,
000002e0,
000001ff,
000001c4,
000000db,
fffffa32,
fffffdfd,
fffff857,
fffff128,
fffffee1,
00000068,
000000de,
000001e3,
00000146,
ffffff09,
ffffff0f,
0000020d,
00000169,
00000366,
00000151,
00000385,
0000001c;