memory_initialization_radix=16;
memory_initialization_vector=
00000283,
00000414,
000001f5,
00000432,
0000004e,
00000448,
000002b6,
00000105,
00000483,
0000004e,
000000b4,
00000414,
000002fe,
0000015d,
000003f3,
00000271,
000000a1,
00000147,
00000119,
000000f3,
0000018e,
0000023e,
000002c4,
000001f9,
000000ac,
00000089,
00000260,
0000007b,
00000344,
00000217,
000002ba,
00000135,
00000199,
0000001d,
000000de,
000001f2,
00000458,
000003c8,
000003d8,
00000480,
0000051b,
000005b9,
000004a1,
000001e6,
0000019f,
00000421,
0000001b,
000000f5,
00000474,
0000014b,
00000222,
0000019b,
00000383,
00000038,
00000375,
0000042f,
000000c2,
00000144,
00000014,
000003f1,
00000360,
000002c2,
00000055,
00000007,
fffffc9e,
ffffe997,
fffff25b,
fffffcf7,
fffffbcb,
fffff8d9,
fffffaf2,
fffffbb4,
fffff6ee,
fffffcc3,
00000026,
000001de,
00000486,
000004fe,
00000284,
000000b1,
000002b9,
000002d1,
000001de,
00000271,
0000037a,
000000c1,
000001ec,
00000400,
000001b3,
00000876,
000007fb,
00000aed,
00001364,
fffff472,
00001b8d,
0000375c,
0000286d,
00002a1d,
00002141,
ffffef3f,
0000128e,
00001814,
00001dd4,
000025ef,
00002c74,
00001c4a,
00000e69,
00000892,
000003c8,
0000013f,
000003d9,
00000030,
000003e9,
00000404,
00000245,
00000335,
000001a0,
00000902,
000006b3,
00001d30,
0000356f,
000033e7,
00003914,
0000065d,
ffffdb37,
ffffdc09,
0000033a,
00002bfa,
00002433,
00001d8b,
00001a4c,
00003111,
00001cc5,
0000189b,
00001216,
00000573,
00001776,
00000e36,
00000370,
000003bf,
00000211,
00000326,
000001b8,
fffffec0,
fffffbae,
00001fd3,
00002cf9,
00003884,
00003a1e,
000048db,
0000239c,
ffffdde7,
ffffa647,
ffffc8d7,
ffffec11,
ffffee9c,
ffffd346,
fffff940,
fffffd1b,
0000393b,
00001655,
ffffe59f,
ffffe12b,
ffffe4ce,
00001b77,
00001346,
0000095a,
0000036c,
0000034d,
000002f3,
000008ea,
fffffc8e,
fffffac7,
00002972,
00003440,
00002407,
00003e32,
000030ef,
00000046,
ffffc8fa,
ffffbaf0,
ffffc488,
00003671,
00004e28,
ffffe4f8,
fffffe6f,
ffffd244,
fffff7af,
fffff313,
ffffef58,
ffffdee0,
ffffefa2,
0000134c,
00000c7d,
00000308,
00000189,
000003ed,
000003de,
000000c5,
fffff5ba,
fffff152,
00000d55,
00003927,
00001011,
ffffe803,
ffffedf7,
00001182,
00002508,
ffffd43c,
ffffe25e,
00002bfc,
00004e23,
ffffd5d7,
ffffe5dc,
ffffce5f,
ffffb6c8,
ffffcecf,
ffffce89,
ffffcca4,
ffffeff2,
00002301,
00000cae,
00000689,
0000041c,
000001b4,
00000102,
fffffc33,
ffffeaab,
ffffd0c4,
fffffa5a,
000005cf,
ffffe5df,
ffffc6d8,
ffffcbe2,
0000166a,
000047c2,
00001112,
fffffdfc,
ffffcab6,
ffffcab9,
fffff8b4,
ffffc309,
00000237,
ffffb71d,
ffffcd10,
ffffca13,
ffffc664,
fffff23c,
00002b2c,
00001761,
0000032d,
000005e3,
0000047a,
00000179,
fffff8b9,
fffff58f,
000003cd,
00001966,
00001c1e,
000003cf,
ffffd0ab,
ffffa607,
000018eb,
0000506a,
00005ba0,
00000da9,
ffffe8d1,
ffffc4fe,
ffffc994,
ffffecc5,
ffffcc31,
ffffcda5,
ffffd08e,
ffffbc32,
ffffc903,
ffffee3f,
000011e5,
0000078c,
00000208,
000002d4,
00000201,
00000201,
fffffbec,
00001173,
000012be,
00003334,
000017bb,
0000086c,
ffffd0b8,
ffffc533,
ffffe7fa,
fffff5ec,
000023da,
00001ad5,
ffffcf6a,
ffffa9f9,
000017fe,
00000d0b,
ffffbe8e,
ffffa54b,
ffffc5fa,
ffff9fc5,
ffffc770,
ffffe1f4,
fffffdb1,
00000510,
ffffff6f,
000003a9,
000002ee,
0000008b,
fffffe35,
00000a5b,
0000123b,
00000ceb,
fffffdf4,
ffffdc42,
ffffb936,
ffffa841,
ffffc849,
ffffbb07,
ffffe8ca,
0000213d,
ffffb612,
ffffd5d2,
00003048,
000055a5,
0000029a,
ffffc032,
ffffc631,
ffffb17f,
ffffcc63,
ffffdac1,
0000070f,
0000087a,
000002e5,
000003a9,
000003d1,
000001f0,
00000171,
00000114,
fffffd99,
ffffe9df,
ffffd4aa,
ffffb00f,
ffff8a72,
ffff9168,
ffffb9da,
ffffccbc,
ffffa983,
ffffc4cd,
ffff9d3d,
fffffba4,
000010fe,
0000272a,
000028ad,
000003ad,
fffffd77,
fffffbf7,
fffff448,
ffffe753,
ffffe0ce,
fffff08a,
00000044,
000000c1,
00000451,
00000094,
ffffffce,
000001cc,
000000ec,
ffffe403,
ffffbf84,
ffffbda8,
ffff9a86,
ffffab48,
ffffbd80,
fffff305,
fffffc9a,
ffffd1e8,
ffffc1c5,
000014a4,
ffffdf1a,
ffffadf7,
fffff3ae,
00003b68,
000024c4,
fffff70c,
00000c47,
fffffcc9,
ffffe410,
fffff2d0,
fffffb8a,
0000010c,
000000e8,
000000be,
00000302,
00000123,
fffffdf2,
ffffea20,
ffffd9e4,
ffffdd35,
ffffbfa7,
ffffa819,
fffff0bb,
000028e6,
000000d4,
ffffd8a9,
ffffec6c,
000014dc,
ffff7bda,
ffff8c1c,
fffff370,
00006c46,
00005d6a,
000011e3,
000012bc,
00002b38,
000004b3,
fffff40b,
fffff49f,
0000009c,
00000433,
00000495,
00000385,
00000d75,
00001b71,
fffffd75,
fffff3c6,
0000165f,
ffffd13d,
ffffc9c3,
ffffdef2,
ffffba91,
ffffb168,
ffffa163,
fffff409,
ffffdc8b,
ffff583e,
ffff911c,
000014c0,
00006d4a,
00009707,
0000392f,
0000346e,
00003dd7,
00000242,
ffffeb75,
ffffee8f,
00000022,
000003c6,
000002df,
000003cf,
000028aa,
00003321,
00002374,
00001df2,
00000de2,
00000a63,
ffffb08f,
ffff657b,
ffff5ea4,
ffff938f,
ffffb611,
ffff9662,
ffff7864,
ffff65fd,
ffffc09d,
ffffe696,
00001cdc,
00004cee,
00002d4d,
00002032,
00002030,
0000005b,
ffffd267,
ffffeb06,
fffffd23,
00000200,
0000035d,
00000754,
000028ba,
0000448c,
0000460f,
00003ef9,
00003818,
0000300e,
ffffe31a,
ffff7bea,
ffffacce,
ffffa3fc,
ffff9103,
ffff7e93,
ffff4c3c,
ffff7bf7,
ffffb69d,
ffff9162,
fffffdaa,
00000c9c,
00003d6e,
000034be,
00002c4d,
00000bc0,
ffffc2ef,
ffffeee4,
000002e2,
0000022a,
00000463,
000006a4,
00002c25,
0000594b,
00008052,
00006243,
00001d02,
00001181,
00000b3a,
0000087b,
00001157,
ffffcf03,
ffffd707,
ffffba8f,
ffff793a,
ffff82c2,
ffff96df,
ffffa063,
fffffdf7,
ffffefcc,
000017d3,
00002ff6,
000025f9,
000009ae,
ffffd5d9,
fffff963,
fffffdee,
00000449,
000000c7,
000004d5,
0000218e,
000052fb,
00007d7d,
000029e5,
fffff3ac,
0000308c,
00000f06,
00005247,
00003563,
00003e01,
ffffe5b1,
ffffd0ba,
ffffbd64,
ffffad81,
ffffecf1,
ffffff0f,
fffff73b,
ffffd61e,
fffff98a,
000027a3,
000036ef,
00001aab,
ffffd900,
fffff965,
ffffffa3,
00000414,
00000377,
ffffff09,
00000213,
00000373,
00002c3f,
ffffed08,
fffff7b4,
000009b6,
00001a2e,
000044a7,
00002544,
000002e0,
000037de,
00000bfe,
ffffc14f,
ffffd5ff,
ffffb747,
ffff915b,
fffff695,
ffffe478,
fffff302,
000039a7,
00002dd2,
fffffe46,
ffffe649,
fffffa26,
000002a6,
00000285,
00000401,
00000308,
fffff32d,
ffffdf1e,
ffffd47c,
ffffbddc,
ffffd2fd,
ffffe7f4,
ffffe00f,
fffff43d,
00000b09,
00002641,
00003bdf,
fffffb17,
ffffb1fb,
ffffce60,
ffffc72e,
ffffd0ac,
00003b5d,
0000138b,
fffff8d7,
000013d2,
ffffede7,
ffffdd25,
ffffdfd0,
fffffca5,
000000f8,
000001ca,
000001c4,
00000359,
fffffb1a,
ffffddc4,
ffffaeb7,
ffffb357,
ffff9ded,
ffff7a4e,
ffff78c9,
ffffc8fb,
ffffc3f3,
00000cec,
00001d86,
00001d90,
ffffdf6f,
ffffec53,
00002cf3,
00003454,
00005d9c,
00003829,
00001128,
0000128d,
000006ff,
ffffe228,
ffffef99,
ffffff65,
fffffffc,
000003da,
00000402,
00000023,
000005ad,
fffff793,
ffffd2eb,
ffffc3ae,
ffffcf44,
ffffa50b,
ffff7150,
ffff90c4,
ffff9aae,
ffff65a2,
ffff796e,
ffffa2a5,
ffffa21f,
ffffe564,
fffff6db,
00001c12,
0000667b,
00005237,
00002a55,
000016d1,
ffffff70,
ffffee98,
fffffa69,
fffffccb,
00000236,
000001e6,
0000002e,
0000023e,
00000694,
00000cee,
00000ab7,
00000dce,
000022a5,
00001c95,
ffffe5e2,
ffffe7ea,
ffffd017,
ffffa455,
ffffb634,
ffffaf61,
fffff634,
000015c7,
00000599,
fffff989,
00002135,
0000358f,
00001a99,
fffff4e8,
ffffefca,
fffff44a,
fffffc3b,
00000331,
000001f2,
0000013b,
00000274,
00000423,
00000420,
00000cb0,
00000dd7,
0000189a,
00001dbf,
0000158d,
00001472,
000022d3,
00001eb9,
000025bd,
00002702,
0000226a,
000019bc,
000023f3,
00000f12,
00001242,
00002379,
00000c08,
0000058b,
00000351,
000001c9,
000001c4,
0000018c,
00000303,
000001c9,
000002fc,
000003c3,
000003bb,
00000438,
00000178,
000001dd,
0000042f,
00000806,
000003eb,
000004b8,
00000238,
ffffffdf,
0000098c,
fffffebb,
ffffff42,
fffffe1d,
fffff9a2,
ffffee64,
fffff153,
fffff52b,
fffffb0f,
000000df,
0000032d,
00000217,
0000010d,
0000028c,
000000a2,
00000380,
00000066,
0000001d,
000000b7,
00000362,
000003dd,
00000472,
00000314,
00000118,
000002ea,
00000074,
fffffff1,
00000272,
00000213,
ffffff7b,
fffffbc9,
fffffe14,
fffffd3b,
fffffb27,
fffffffa,
fffffc2a,
fffffe7c,
00000108,
000002ba,
000000de,
000003b3,
00000149,
00000288,
00000033;