memory_initialization_radix=16;
memory_initialization_vector=
000002b4,
00000370,
00000216,
000001a2,
000000ec,
000001de,
00000356,
000001a9,
00000390,
000001c3,
00000361,
000000cf,
00000107,
0000020d,
000002ca,
0000036d,
0000029f,
00000392,
00000238,
0000048a,
000000bf,
00000491,
00000045,
0000042e,
00000324,
00000003,
00000307,
0000045e,
0000045c,
00000089,
00000127,
0000027f,
000003f7,
0000033a,
00000406,
0000002d,
00000084,
000002d0,
000001df,
00000416,
0000016d,
000000bc,
fffffa7c,
fffff7fb,
00000108,
00000269,
00000021,
000001ab,
00000210,
0000023c,
0000012b,
000002f4,
00000243,
00000143,
00000287,
000000d5,
00000147,
000000fc,
000000a2,
000000d7,
00000181,
000001c7,
000003bf,
fffffda5,
0000010d,
00000939,
000002e4,
fffffecc,
fffffb8d,
ffffefb6,
ffffea8a,
ffffec38,
000002fd,
00001e10,
00001ce3,
fffff977,
0000010d,
0000041e,
000004af,
000006d2,
0000044a,
0000047c,
0000048c,
000002b9,
0000012a,
00000282,
00000335,
00000129,
0000023d,
00000470,
000002ac,
fffff9fb,
00000de8,
000017f1,
00001253,
0000138e,
000004c1,
ffffffae,
0000186b,
00002619,
00003845,
000022de,
0000228d,
000023e4,
00001b14,
00001ae3,
000013c5,
00002197,
00001bc2,
000003d1,
000000f7,
000000de,
00000211,
000000bc,
0000026e,
000002d2,
000002d9,
00000512,
fffffa14,
00000035,
000017fd,
00001808,
00001634,
fffff58f,
ffffe39e,
000005e9,
00000d6f,
000027e6,
00003a02,
000038d4,
000024eb,
00003fe1,
00003bff,
000031cf,
00002371,
000012f1,
00000e1f,
fffffede,
fffffe30,
000003fc,
00000078,
0000021d,
0000048d,
000002bd,
ffffff7c,
0000054d,
fffffc20,
00000fc9,
00002a57,
00002273,
00002513,
00000cf3,
fffffafe,
00000456,
000001fc,
00003dea,
00005712,
00002ac8,
00001fab,
0000181c,
000006ea,
00001ca9,
ffffe8d5,
ffffd13e,
ffffec78,
fffff26f,
00000013,
000000c1,
0000048b,
00000481,
00000324,
00000495,
00000f2e,
00000ec8,
0000253a,
00004fd9,
00005807,
000048dc,
00003aa8,
0000115c,
fffffcde,
fffff9c9,
fffffbeb,
00002529,
00002baf,
ffffeb9c,
ffffb75f,
ffffb81b,
ffffca41,
ffffd677,
ffffb1b7,
ffff907c,
ffffbcf2,
ffffef60,
fffffdde,
00000296,
000001a6,
00000480,
000000e7,
000001f7,
0000203a,
00002f7b,
000042a7,
00003c3c,
00000ab9,
fffff790,
fffff0a1,
ffffd143,
ffff8e04,
ffffac38,
ffffc7f8,
ffffd6fe,
ffffc1f1,
ffffa1fd,
ffff66cb,
ffff8a24,
ffffc00c,
ffffaed4,
ffffa4ac,
ffffa094,
ffffcdfc,
ffffd301,
fffffac3,
00000188,
00000455,
0000021c,
ffffffdd,
fffffd35,
00001778,
0000121d,
0000147a,
fffff92e,
ffffd54a,
ffffbd1c,
ffffd3d2,
ffff884c,
ffff565e,
ffff6984,
ffffa63f,
ffffb44b,
ffffb614,
ffff89a4,
ffff5781,
ffff8705,
ffffaf81,
ffff95bc,
ffffb40f,
ffffb839,
ffff98aa,
ffffb484,
ffffee74,
00000213,
000002a8,
00000358,
fffffd2b,
0000014e,
00001938,
00000665,
ffffff6f,
fffff1e8,
ffffe6a5,
fffff4f6,
ffffcc43,
ffff9a8e,
ffff8a95,
ffff8d57,
ffffb7ac,
00001de2,
000016ac,
ffffb13c,
ffff83c1,
ffffaa4b,
ffffbc60,
ffffa768,
ffffc783,
ffffb676,
ffff9467,
ffffa01f,
ffffeb45,
0000014a,
000003af,
ffffff03,
fffffd8a,
0000043e,
00001d68,
00000aa7,
000002e5,
fffff20e,
ffffda17,
ffffc621,
ffffa568,
ffffb27c,
ffffa9cc,
ffff9fab,
ffffbfd7,
000061b5,
0000341e,
ffffe2b5,
ffffc597,
ffffbbdf,
ffffb7df,
ffffc23a,
ffffc659,
ffffb04e,
ffff9b65,
ffffaf6c,
fffff394,
000003d5,
0000044a,
000000a1,
fffffffb,
00000721,
00000ca5,
00000123,
ffffe356,
ffffdc3d,
ffffa1b6,
ffffa8aa,
ffffb880,
ffffc683,
00000312,
fffff9a0,
ffffef1f,
000036f8,
000014bc,
ffffd31c,
ffff98e4,
ffffa1cf,
ffffadbd,
ffffb215,
ffffbdd6,
ffffc2dd,
ffffc47c,
ffffd3d2,
fffff9ed,
00000010,
00000070,
00000190,
000003de,
00000015,
fffffd57,
0000004a,
ffffdcaf,
ffffc56d,
ffffa08b,
ffffa595,
ffffe6ed,
ffffcb4e,
ffffc92d,
ffffaa49,
ffffc242,
00001aec,
0000090f,
fffff5df,
ffffe0b1,
ffffa7be,
ffffd304,
fffff692,
00000a39,
00000d51,
0000116d,
fffffbe6,
fffffbc9,
000000e7,
000001e8,
0000000a,
00000102,
fffffe5a,
ffffedfc,
ffffe998,
ffffd692,
ffffc038,
ffff9ab8,
ffffb46c,
ffffe6af,
ffffee87,
ffff97ad,
ffff8b9c,
ffff8947,
ffffa3cc,
ffffeb74,
00000911,
0000154b,
ffffcfba,
ffffe66e,
00000897,
000017c8,
00000f75,
00000cc9,
00000542,
00000be2,
0000077d,
00000063,
000001df,
0000006b,
00000200,
ffffedb3,
ffffdf27,
ffffc7ee,
ffffbe21,
ffffa8d0,
ffffd3a2,
fffff727,
00000aa9,
ffffa980,
ffff9d5f,
ffff7963,
ffffa6a9,
ffffebe0,
ffffea36,
000039db,
00001aab,
0000270b,
000022d6,
000010ce,
00000544,
00000127,
00000e6f,
00000912,
0000018d,
0000002a,
000002c4,
0000015b,
000000c1,
ffffee83,
ffffe72b,
ffffc231,
ffffe267,
ffffd809,
ffffe39f,
fffff131,
ffffd11c,
ffff8f7c,
ffff8307,
ffff8113,
ffff9d6f,
ffffcf96,
ffffe887,
00000926,
00003ee9,
00004477,
000020fd,
00001f5d,
fffff89a,
000004f5,
00001548,
000008a1,
000003f7,
000000fe,
000003ee,
00000b52,
00000798,
ffffff5d,
ffffe303,
ffffec40,
00001792,
000015c4,
00000bb5,
00000a63,
ffffaff4,
ffff890f,
ffff9034,
ffff9c6e,
ffffd708,
0000053a,
000006f6,
0000043c,
000003d5,
0000167f,
000027fb,
00003754,
00002893,
00001a59,
00001c7b,
00000f58,
000002d7,
00000108,
0000002d,
00000d91,
00001161,
00000ab9,
ffffefba,
ffffe180,
00000d9d,
fffff051,
ffffa52d,
ffffa434,
ffffc3b1,
ffffcb63,
ffff976f,
ffff9925,
fffff06f,
ffffe7ca,
ffffd42d,
00001192,
00002b47,
00001fd5,
00001c79,
00002183,
000049f0,
00001eae,
00001836,
0000009f,
ffffff7d,
000001e0,
00000233,
00000424,
00001c8b,
00000168,
fffff670,
ffffeb4d,
ffffe0da,
ffffc68d,
ffffa034,
ffffd5af,
ffffe129,
ffffd0b9,
ffffbd7d,
ffffce59,
fffffd82,
000013d2,
00000bd9,
00002916,
00001573,
fffff322,
00000631,
0000250a,
000051da,
000023d0,
fffff85f,
fffffb75,
fffffed7,
000002f2,
000000bd,
000010ac,
00002aa2,
000011ee,
00001510,
00002023,
ffffef17,
ffffda99,
ffffde9d,
000034e8,
0000365f,
00001ace,
ffffddb7,
ffffe1a8,
fffffa09,
00000da1,
00002b41,
00003078,
ffffe675,
ffffe312,
0000119e,
000039df,
0000361a,
00000e0b,
ffffef71,
fffffb7c,
ffffff01,
00000174,
0000046c,
0000111d,
00002fcb,
0000317d,
00001a4e,
00001140,
00001caa,
ffffd728,
ffffed18,
00001c68,
000016cf,
00000bdf,
00000900,
fffffdbd,
fffff88d,
fffff004,
0000066f,
fffff1e0,
ffffdc4c,
0000098b,
00001bd9,
00003043,
000032b7,
fffffc79,
fffffcb1,
0000006a,
00000304,
0000012c,
00000161,
0000063a,
0000131d,
00001365,
0000286d,
00001807,
0000173e,
00000572,
fffffbc3,
00001aa7,
00001e8c,
000028bb,
000017d1,
00000730,
fffffca4,
000017a3,
ffffe20c,
ffffce83,
ffffeb26,
fffff32b,
000013f2,
000011bf,
000012d3,
fffffe2f,
00000043,
00000453,
000002ee,
000000b8,
000003b3,
000003fe,
0000089b,
00000317,
00000c29,
0000189a,
00001946,
ffffea66,
ffffc45e,
ffffda32,
ffffef46,
ffffe512,
ffffcacd,
ffffa6be,
ffffcb35,
ffffead7,
ffffce48,
ffffea90,
00000d3b,
00000c37,
00001090,
00000a08,
fffffe7c,
fffff099,
00000234,
000003d3,
0000004b,
0000039a,
000003a1,
0000079a,
000012cd,
00000b53,
000005f9,
ffffeae2,
ffffeed2,
fffff1e7,
ffffb62e,
ffff8d14,
ffff9156,
ffff8551,
ffffc1c5,
ffffbf94,
ffffd22c,
ffffda59,
000004db,
00001996,
00001cf1,
0000127a,
00001a77,
0000022a,
000002c2,
fffff7ed,
00000209,
000002bf,
000003e8,
0000020b,
000002b7,
0000068a,
00000bf1,
00000ccf,
00000b40,
fffff4bc,
fffffcec,
fffff382,
fffff2a7,
ffffd410,
ffffbd4e,
ffffbec3,
ffffe740,
ffffefcd,
ffffe92f,
000006a8,
000011ce,
0000179e,
00000d4b,
000003ff,
000004c6,
000002ff,
fffffea2,
fffffc9e,
000003c6,
00000086,
00000446,
00000157,
000003ae,
000003b2,
000003ba,
fffffe43,
fffffc7e,
fffffe2e,
fffffe29,
fffffcb1,
ffffeea0,
ffffd786,
ffffca47,
ffffe7cc,
ffffe89f,
ffffdd48,
ffffddd4,
ffffe49a,
ffffe92b,
fffff93f,
00000715,
fffffd36,
fffffb77,
fffff88f,
fffffbba,
fffffe6e,
00000495,
0000033e,
000003c5,
00000331,
0000039c,
00000379,
000003e3,
fffffe5d,
ffffff26,
0000050a,
00000895,
000003d5,
fffff9c5,
ffffefc2,
ffffe16b,
ffffece7,
ffffed52,
ffffecda,
ffffeb69,
ffffef56,
fffff10f,
fffff7cb,
fffffccc,
fffffbb5,
00000094,
000001b9,
0000022b,
0000004a,
0000006b,
000001d6,
00000394,
0000005a,
0000006d,
000002c7,
0000038b,
0000040b,
000001bf,
00000325,
000001ec,
00000420,
00000171,
0000005b,
fffffeec,
ffffff12,
ffffffe2,
fffffecb,
fffffce8,
00000089,
fffffed6,
00000217,
000003a4,
000001f5,
000003a3,
000002b5,
00000462,
000002ba,
00000090,
0000031f,
00000308;