00000000000000000000001011100000
00000000000000000000001110111100
00000000000000000000001110100101
00000000000000000000000000111100
00000000000000000000001010011101
00000000000000000000000111010001
00000000000000000000000011100111
00000000000000000000000011010000
00000000000000000000001110111001
00000000000000000000001010011101
00000000000000000000000000100111
00000000000000000000000010011011
00000000000000000000010000111011
00000000000000000000001000010110
00000000000000000000000100101000
00000000000000000000000001101010
00000000000000000000001010011111
00000000000000000000010000101110
00000000000000000000000111010010
00000000000000000000001111001001
00000000000000000000000000111101
00000000000000000000000000000000
00000000000000000000001000111011
00000000000000000000001111100100
00000000000000000000000010110010
00000000000000000000001100001100
00000000000000000000001100011110
00000000000000000000001010111010
00000000000000000000000011001110
00000000000000000000001101100000
00000000000000000000000100110010
00000000000000000000001110101110
00000000000000000000001001110110
00000000000000000000000000010110
00000000000000000000001110000111
11111111111111111111111110110100
00000000000000000000001010111001
11111111111111111111111011101101
00000000000000000000000101100010
11111111111111111111100010110110
11111111111111111111000000010001
11111111111111111111101001000001
00000000000000000000100111111111
00000000000000000001101001001100
11111111111111111111111001001011
00000000000000000000011010110111
00000000000000000000011110001101
11111111111111111111111011110010
00000000000000000000000100101011
00000000000000000000001110101010
00000000000000000000001110000110
00000000000000000000001011010000
00000000000000000000010001001001
00000000000000000000000111111101
00000000000000000000001001011011
00000000000000000000000001101001
00000000000000000000000001110111
00000000000000000000000011100111
00000000000000000000001100011110
00000000000000000000000101011001
00000000000000000000010100111011
00000000000000000000010000110000
00000000000000000000001011110101
00000000000000000000000110111101
11111111111111111111010011111101
11111111111111111111100110101111
11111111111111111111110000010101
00000000000000000000100011110010
11111111111111111111111001110111
00000000000000000001011101010010
11111111111111111100110110000110
11111111111111111111111011011010
11111111111111111110000100100000
11111111111111111101000000111010
11111111111111111111110001101100
00000000000000000001000010100110
00000000000000000000011011000000
00000000000000000000011101111101
00000000000000000000111010000110
00000000000000000000011110001010
00000000000000000000010100000101
00000000000000000000001110000011
00000000000000000000000010001011
00000000000000000000001000101011
00000000000000000000000101110000
00000000000000000000001011100111
00000000000000000000001011011000
00000000000000000000001001101010
00000000000000000000001111010110
00000000000000000000001101000110
00000000000000000000111100101110
00000000000000000000101000100111
11111111111111111111001011111010
11111111111111111101100111111011
11111111111111111011110011000011
11111111111111111101101111011100
11111111111111111110011110110110
11111111111111111011111110001111
11111111111111110111000111111011
11111111111111111001001011000101
11111111111111111011101001110010
11111111111111111111000001011111
11111111111111111111111000101111
00000000000000000001101100000100
00000000000000000010001001101111
00000000000000000010001100111101
00000000000000000001101001000011
00000000000000000000101001101001
00000000000000000000010110010001
00000000000000000000000010010000
00000000000000000000001110101110
00000000000000000000001001111010
00000000000000000000001100111001
00000000000000000000010001110110
00000000000000000000000100110011
00000000000000000000000010010100
00000000000000000000000101100001
00000000000000000000100101010001
00000000000000000000010101000111
11111111111111111110000010010001
11111111111111111100011011110010
11111111111111110110111100100100
11111111111111110111111000011101
11111111111111110111111010001000
11111111111111110100010010111110
11111111111111110111100010001101
11111111111111110111110000100011
11111111111111110111101000011101
11111111111111111001010100000000
11111111111111111100100010010100
11111111111111111111001010111000
11111111111111111110100011001000
11111111111111111111010010010100
00000000000000000000110110111111
00000000000000000001110100011110
00000000000000000010000001110011
11111111111111111111100111111000
11111111111111111111101010001111
00000000000000000000000100011101
00000000000000000000000001100111
00000000000000000000010001110101
00000000000000000000000011000000
00000000000000000000001110111101
00000000000000000000000000010111
11111111111111111111010101011001
00000000000000000011000100001001
00000000000000000011111111110010
11111111111111111101110101000011
00000000000000000000010000100111
00000000000000000001100000101110
11111111111111111110000000010001
11111111111111111111101011010000
00000000000000000010111011011001
11111111111111111101111101101010
11111111111111111101000100111010
11111111111111111100011111011011
11111111111111111100101001101101
11111111111111111101010001000001
11111111111111111100011100101101
11111111111111111011010110101011
11111111111111111001111000100111
11111111111111111001010111101100
11111111111111111011101010000001
11111111111111111111000101010101
00000000000000000000001100110101
00000000000000000000101101001110
00000000000000000000000101010101
00000000000000000000010001000101
00000000000000000000001111010110
00000000000000000000001111010000
11111111111111111111110101011001
11111111111111111111100001110001
00000000000000000000010111001000
00000000000000000101110101110001
00000000000000000011010000110010
11111111111111111101000111111010
00000000000000000101110010100010
00000000000000000000010101100001
11111111111111111110111001010100
00000000000000000000110010010010
00000000000000000001110101111101
11111111111111111100100010100101
11111111111111111001001010111011
11111111111111111100011111011110
11111111111111111110111000100100
00000000000000000010100110011100
11111111111111111010100100101101
11111111111111111110011100010100
11111111111111111100001101111111
11111111111111111100010011010010
11111111111111111111110010101110
00000000000000000001101111101100
00000000000000000001001100010010
00000000000000000000010101100011
11111111111111111111110001001110
00000000000000000000001010001010
00000000000000000000001110110001
00000000000000000000001110100000
00000000000000000000000011010011
00000000000000000000101000101111
00000000000000000000110110010100
11111111111111111111010100001110
00000000000000000000001000101101
00000000000000000101010010000010
11111111111111111001011100101000
11111111111111111111011001111110
00000000000000000100110010010111
11111111111111111100001010001001
11111111111111111100010101011100
00000000000000000000101010111011
11111111111111111100111100000110
11111111111111111010000011111000
11111111111111111010010110110001
11111111111111111110001010111111
11111111111111111101001101111111
00000000000000000001000010000001
00000000000000000010111111001101
11111111111111111101111000110101
11111111111111111111101101011011
00000000000000000100010111100011
11111111111111111111010110110111
11111111111111111101101111110101
11111111111111111111111100010101
11111111111111111111111111001110
00000000000000000000000010000010
00000000000000000000010000101111
00000000000000000001100100001101
00000000000000000011101100101000
00000000000000000000110000111111
00000000000000000001011100000100
00000000000000000000100111001000
00000000000000001010011111100101
00000000000000000000011000111001
11111111111111111111010100000110
00000000000000000011001110010011
11111111111111111111110111100011
11111111111111111101111010000011
00000000000000000011010010011100
00000000000000000101100000111010
00000000000000000000111110010111
11111111111111111110010000011010
11111111111111111101011110111001
11111111111111111100100011101010
11111111111111111100000011010011
11111111111111111111000001000100
11111111111111111110000010000111
00000000000000000000000101001101
00000000000000000001000010000001
11111111111111111110101010111111
11111111111111111101111100001111
11111111111111111111001111011010
11111111111111111111110001100000
00000000000000000000011011100001
00000000000000000001001100001101
00000000000000000010011101100000
00000000000000000101010011010011
00000000000000000010111101010000
11111111111111111110100011110111
00000000000000000011010011101100
00000000000000000101010101101100
00000000000000000001001001010001
00000000000000000001000010111110
00000000000000000011011001100000
11111111111111111011000101011111
11111111111111111100111110001100
00000000000000000000111010000011
00000000000000000100001011011011
11111111111111111101110110111010
00000000000000000001000110001001
00000000000000000011010001110001
11111111111111111011010000001111
11111111111111111110001100010100
11111111111111111110100101001001
11111111111111111110001011000010
11111111111111111100010000011000
11111111111111111111000011101011
00000000000000000000101000111101
00000000000000000001010001010100
00000000000000000010000001001011
00000000000000000011110111111001
00000000000000000000011011000000
00000000000000000000111111001101
00000000000000000011011111011101
00000000000000000001011000011101
00000000000000000000101110001010
11111111111111111101001011000011
00000000000000000001110011101101
00000000000000000011111100101001
00000000000000000101101110100110
00000000000000000101010100110001
11111111111111111110010000111011
11111111111111110011111011101011
11111111111111110101100110110110
00000000000000000000101001011100
11111111111111111001101011000001
00000000000000000001110001000110
00000000000000000000000001001110
00000000000000000001110000101000
00000000000000000010011110111110
11111111111111111101100101111110
00000000000000000110001100010011
11111111111111111101101010111101
11111111111111111100000101101111
00000000000000000010010001011011
00000000000000000101000010000011
00000000000000000011011101110110
00000000000000000001000010110010
00000000000000000000101011001101
00000000000000000000010110000110
00000000000000000000111011010001
00000000000000000001100111100000
11111111111111111111011110101011
11111111111111111101011110110001
00000000000000000101011001010000
00000000000000000110011111100110
00000000000000000101000100000111
00000000000000000111010100000001
00000000000000000001101111100111
00000000000000000001001100011010
11111111111111111101111101000100
11111111111111111001001010101101
11111111111111111111110110010010
00000000000000000001100101110111
11111111111111111111001001011111
11111111111111111110000000110010
11111111111111111010100101111010
00000000000000000011011110100100
11111111111111110101111111000101
11111111111111111111110011011000
00000000000000000010111001110111
00000000000000000011101001010011
00000000000000000010100010000011
11111111111111111101101011010111
11111111111111111101001000111011
11111111111111111110001001001001
00000000000000000000000000101000
00000000000000000000001111101010
00000000000000000000010000110111
00000000000000000001100100000001
11111111111111111110111011111001
11111111111111111111110101111101
00000000000000000001000101011001
00000000000000000001001000011010
11111111111111111111100111110010
00000000000000000011000110110110
00000000000000000001010101010111
11111111111111111100100100010101
11111111111111111010110011001101
11111111111111110001111010100001
11111111111111111010001011000000
00000000000000000100101101100101
00000000000000000000011001111111
11111111111111111001110100000101
11111111111111111101011110010010
11111111111111111111001100011111
11111111111111111000010011001010
11111111111111111101010111001111
00000000000000000011101010100010
00000000000000000100000111101110
00000000000000000000100011110011
11111111111111111110100011000111
00000000000000000001110101011000
00000000000000000010010000110010
00000000000000000001001110011011
00000000000000000000010001011110
00000000000000000000000101110101
00000000000000000000011001010000
11111111111111111111011011111011
00000000000000000110001010100010
11111111111111111110101101001110
11111111111111111100111001110000
11111111111111111100100000110010
11111111111111111101110101001001
00000000000000000010110011111101
11111111111111111100110001001001
11111111111111111001110101110001
11111111111111111000100010000110
11111111111111111110111000101111
11111111111111111110001000010010
11111111111111111100100010010101
11111111111111111100001101011010
11111111111111111100101100000011
11111111111111111111110000100101
11111111111111111100110101001101
00000000000000000000110101110111
11111111111111111111000000110000
11111111111111111111000101000001
11111111111111111101000011000101
11111111111111111100011010110111
11111111111111111111101110000111
11111111111111111111000101110010
00000000000000000000001100010011
00000000000000000000001110111111
00000000000000000000000110011101
00000000000000000000001000111100
11111111111111111110101011001001
00000000000000000101001000110110
11111111111111111110110001101011
11111111111111111101001101001011
00000000000000000000100010100011
11111111111111111111011111011100
11111111111111111010101010001000
11111111111111111100000011001101
11111111111111111110100110010111
00000000000000000011010111100010
00000000000000000011000010101011
11111111111111111000001101111001
11111111111111111010000101100101
00000000000000000011110100101010
00000000000000000010111010110101
11111111111111111100011011000000
11111111111111111111011111110011
11111111111111111100100110111110
11111111111111111010011110011100
11111111111111111011110101011000
11111111111111111010011100111001
11111111111111111011101101101110
11111111111111111101111011011101
11111111111111111111010100111011
00000000000000000000001110010110
00000000000000000000000111010010
00000000000000000000000001011010
00000000000000000000001100101111
11111111111111111110100101000101
11111111111111111110111011100111
11111111111111111100100100011100
11111111111111111111111101101101
11111111111111111101101110100110
11111111111111111010001101001001
00000000000000000010000010101110
00000000000000000001110011010111
00000000000000000010001101101100
11111111111111111111000011001110
11111111111111111110111011110110
11111111111111111111110111110101
11111111111111111100011000011000
11111111111111110111011001010110
11111111111111111111101011000000
11111111111111111011000110011101
11111111111111111000010111100100
11111111111111111011010111101111
00000000000000000100011011100110
11111111111111111111101110010001
11111111111111111100010111100101
11111111111111111101000001001101
11111111111111111011010111010000
11111111111111111111010011010010
00000000000000000000001111001100
00000000000000000000010000110101
00000000000000000000000100100101
00000000000000000000000011010100
11111111111111111100010010001111
11111111111111111011001100101000
11111111111111111000110000000100
11111111111111111010110011001101
11111111111111111011010011100111
00000000000000000000000000011010
00000000000000000000101111101110
00000000000000000000010001001000
11111111111111111111010011011011
11111111111111111100111011101101
00000000000000000001101111100011
11111111111111111011011100110010
11111111111111111010101001001110
00000000000000000001010100000110
11111111111111111101011001001001
11111111111111111101111001000010
11111111111111111100111000110010
00000000000000000000011010010000
11111111111111111010010111011011
11111111111111110111101001010011
11111111111111111010111010110110
11111111111111111010000000111111
11111111111111111011010100101011
11111111111111111100111100011000
11111111111111111111110010001110
00000000000000000000000011111011
00000000000000000000001101110100
00000000000000000000000111010011
11111111111111111100111100101100
11111111111111111011101010111110
11111111111111111011000111101110
11111111111111111001001001010001
11111111111111111100110000100101
00000000000000000000110010011111
11111111111111111110110111001100
11111111111111111101010111110001
00000000000000000011110000000011
00000000000000000010000111001000
00000000000000000000100010001101
00000000000000000101101100111001
00000000000000000100100101110001
00000000000000000010101000000011
11111111111111111011100100110000
11111111111111111101111111000110
11111111111111111100000100011100
00000000000000000001110010001011
11111111111111111011011100001110
11111111111111111101000111110111
11111111111111111111010000110010
00000000000000000010011101010000
11111111111111111100000100111011
11111111111111111111000111001000
11111111111111111111000001001001
00000000000000000000001000000110
00000000000000000000000100011101
00000000000000000000010010001101
11111111111111111111011010001011
11111111111111111011100100010111
11111111111111111101100001010001
11111111111111111010010101111001
11111111111111110111100011010010
11111111111111111111111110001010
00000000000000000000100011100111
11111111111111111101100011010110
00000000000000000000101110001001
11111111111111111010100000101000
00000000000000000010001111101010
11111111111111111010010111100001
00000000000000000001100100010111
11111111111111111011101010110111
11111111111111111110111101100101
11111111111111111010100101010111
11111111111111111011010111101011
11111111111111111011111001101001
11111111111111111101000101001010
11111111111111111100110000110101
11111111111111111101001100111110
11111111111111111110111110011100
11111111111111111111110011000010
00000000000000000000111011110000
11111111111111111111001010010011
00000000000000000000000010101100
00000000000000000000011000010110
00000000000000000000100000101110
00000000000000000000001101110011
11111111111111111100010010111110
11111111111111111101110110110101
00000000000000000000110010000100
11111111111111111110010011001110
00000000000000000000001000010101
11111111111111111110100011101001
11111111111111111011101111111101
11111111111111110111011110101110
11111111111111111001001110000001
11111111111111111011100010001110
11111111111111111000100010101011
11111111111111111010100010101111
11111111111111111001001001010001
11111111111111111111000111110101
11111111111111111111110100010000
11111111111111111110101100110110
11111111111111111110001000110110
11111111111111111101000111010100
11111111111111111011111100100010
11111111111111111011011110000010
00000000000000000000100101111010
11111111111111111110110101001100
11111111111111111111001101001011
00000000000000000000001000000100
00000000000000000000010001001001
00000000000000000000100101110010
00000000000000000000010100011100
11111111111111111111001101100010
11111111111111111100010110000000
11111111111111111101100110011100
00000000000000000100110100101010
00000000000000000000100010101111
11111111111111111110001100011100
00000000000000000001110010010000
00000000000000000001101111110100
11111111111111111111100110010101
11111111111111111100111110001000
11111111111111111110111111101110
11111111111111111111000100100001
11111111111111111110010101010000
00000000000000000001000010101000
00000000000000000011111001110010
00000000000000000000111011101101
00000000000000000000111101110000
11111111111111111100100101110000
11111111111111111001010101110111
11111111111111111011001011101000
11111111111111111101101110111010
00000000000000000000101111110010
11111111111111111101100000010001
11111111111111111111001101011110
00000000000000000000000111011001
00000000000000000000001111110101
00000000000000000000001101000010
00000000000000000000010110000010
11111111111111111111111101010110
11111111111111111101100010000000
11111111111111111110001100010101
00000000000000000000011000110001
11111111111111111101111111001100
11111111111111111111011110101001
11111111111111111100111100100011
11111111111111111010110110110011
11111111111111111001101110111001
11111111111111111011110000011010
11111111111111111001101111111000
00000000000000000000100011111110
00000000000000000001010011010000
00000000000000000001101011000100
11111111111111111100000111010100
11111111111111110011100001100010
11111111111111111101101000110010
00000000000000000000101110111100
11111111111111111110001010101110
11111111111111111101011001010000
11111111111111111110010000101001
00000000000000000011000100110111
00000000000000000000101110000101
11111111111111111111110001100000
00000000000000000000000000111011
00000000000000000000001011101110
00000000000000000000010001000101
00000000000000000000011000010101
11111111111111111111010000010010
11111111111111111110100100011101
11111111111111111111011001110010
11111111111111111111001000000110
00000000000000000001110000110110
00000000000000000000110010001001
11111111111111111101111001100011
11111111111111111000100101100000
11111111111111111101001101101001
00000000000000000000101101111001
11111111111111111001011110111100
00000000000000000011101000001110
00000000000000001001101101100110
00000000000000000100101000011001
00000000000000000000001110010011
11111111111111111011101100010110
11111111111111111110111111100010
11111111111111111111110101001000
11111111111111111011100100101101
11111111111111111101010011011010
11111111111111111110010011011110
00000000000000000001000001011001
00000000000000000001010010010010
00000000000000000000110011111100
00000000000000000000001101010001
00000000000000000000010001011000
00000000000000000000001010000111
00000000000000000000001011001010
11111111111111111110100100000110
11111111111111111111001011010000
00000000000000000000000111010001
00000000000000000000000101000111
00000000000000000011000011011110
00000000000000000010000110101100
00000000000000000111110111111100
00000000000000000100011110001101
00000000000000000101111011010101
00000000000000000010010100100101
00000000000000000111000011100010
00000000000000000101100110001101
11111111111111111110000011101000
11111111111111111001101000110110
11111111111111111110100000111011
11111111111111111101110010011011
11111111111111110111000110011010
11111111111111111011110100010111
11111111111111111000000110100001
11111111111111111110001010110010
00000000000000000001001101100001
00000000000000000010110010001001
00000000000000000001111101110100
00000000000000000000100111000011
00000000000000000000001000111101
00000000000000000000000110110101
00000000000000000000001110001101
00000000000000000000000011011111
11111111111111111111111001001100
00000000000000000001001000001100
00000000000000000010101001110111
00000000000000000011000111111100
11111111111111111111111110000111
00000000000000000001000100110101
00000000000000000101111100101101
00000000000000000110010000111110
00000000000000000110001101100101
00000000000000000011110100000101
00000000000000000010100001110111
11111111111111111010010100011011
11111111111111110111010011011101
11111111111111110001100001011100
11111111111111111101101010111100
11111111111111111100010011100111
11111111111111111010011010010110
11111111111111111111100010111011
11111111111111111110001010001100
11111111111111111101110001111001
00000000000000000000010110111101
00000000000000000000011101100010
00000000000000000000001011101010
00000000000000000000001000010010
00000000000000000000000111110010
00000000000000000000000100100101
00000000000000000000000110011001
00000000000000000000010000100010
00000000000000000000011100101000
11111111111111111111110111011001
11111111111111111111001011110110
00000000000000000000001001000011
11111111111111111111001100110100
00000000000000000000000100001001
00000000000000000100110011100010
11111111111111111110110101111000
11111111111111111111101001001001
00000000000000000010110100011001
11111111111111111101110010110001
11111111111111111011110101011011
11111111111111111011000111100000
00000000000000000000111010010011
11111111111111111111100101010000
00000000000000000000010011011000
11111111111111111111011110001001
00000000000000000000000011100111
11111111111111111110011001010001
00000000000000000000100001100111
11111111111111111111111101101100
00000000000000000000010100101101
00000000000000000000001011101010
00000000000000000000000010101110
00000000000000000000001010010101
00000000000000000000001010110000
00000000000000000000001011011011
00000000000000000000010010000111
00000000000000000000001110110111
11111111111111111110110110110011
11111111111111111111010101011011
00000000000000000000010001100011
00000000000000000001011110001111
00000000000000000001101111100100
00000000000000000001110110001110
11111111111111111111011001110000
11111111111111111110001000101101
11111111111111111111000111100110
00000000000000000011111100001011
00000000000000000010100101010001
00000000000000001000000100111111
00000000000000000100110100001111
00000000000000000011001001011000
00000000000000000010001000101101
00000000000000000011000000000011
00000000000000000011100001011100
11111111111111111111101011011011
00000000000000000000101000011000
00000000000000000000000110011011
00000000000000000000001100111000
00000000000000000000001110100111
00000000000000000000000000000100
00000000000000000000010001101001
00000000000000000000001000000001
00000000000000000000000011011011
00000000000000000000001001101100
00000000000000000000000000011111
00000000000000000000001110101111
00000000000000000000001110001111
00000000000000000000011000101101
11111111111111111111111000111011
00000000000000000000001111101010
00000000000000000000110000100010
00000000000000000001000110100001
00000000000000000000110011011110
00000000000000000001000000100000
00000000000000000001111110110000
00000000000000000001011110000101
00000000000000000001010101000111
00000000000000000001010111010000
00000000000000000001100100000011
00000000000000000000100101010100
00000000000000000000111001011010
00000000000000000000101010101010
00000000000000000000100001100001
11111111111111111111111110000111
00000000000000000000011010100001
00000000000000000000000010100001
00000000000000000000010001100000
00000000000000000000001010111010
00000000000000000000001111000100
