00000000000000000000001000010111
00000000000000000000010001110111
00000000000000000000001000111110
00000000000000000000001111110000
00000000000000000000001111010001
00000000000000000000000010100100
00000000000000000000000001100110
00000000000000000000000100101001
00000000000000000000001110100001
00000000000000000000000111100111
00000000000000000000000011101111
00000000000000000000000000101001
00000000000000000000001001100001
00000000000000000000001000111010
00000000000000000000010000111110
00000000000000000000000101000010
00000000000000000000001101111111
00000000000000000000001011010010
00000000000000000000001100011010
00000000000000000000001111110100
00000000000000000000000000010111
00000000000000000000001001010111
00000000000000000000001101101010
00000000000000000000000001001111
00000000000000000000000100100011
00000000000000000000001101001000
00000000000000000000000101101000
00000000000000000000001000011010
00000000000000000000001000100011
00000000000000000000000001110011
00000000000000000000000110100110
00000000000000000000010000111010
00000000000000000000000001010111
00000000000000000000001111100000
00000000000000000000001100101010
00000000000000000000001110000101
00000000000000000000010000111110
00000000000000000000001111000101
00000000000000000000000001001101
00000000000000000000001100001111
00000000000000000000000010100111
00000000000000000000000100101011
00000000000000000000010001010101
00000000000000000000010010011111
00000000000000000000001101011011
00000000000000000000001011100101
11111111111111111111111111010010
00000000000000000000001000100011
00000000000000000000000110101100
00000000000000000000001110011000
00000000000000000000001001000011
00000000000000000000000111001001
00000000000000000000000101001110
00000000000000000000000100011111
00000000000000000000001000011000
00000000000000000000001001110010
00000000000000000000010001101000
00000000000000000000001110000001
00000000000000000000010010001110
00000000000000000000000111111000
00000000000000000000001111111000
00000000000000000000000110001011
00000000000000000000000011110110
00000000000000000000001100000100
11111111111111111111111101100001
11111111111111111111111110111110
00000000000000000000001010101111
11111111111111111111110111001111
11111111111111111111110001101001
11111111111111111111110000110100
11111111111111111111111010100011
11111111111111111111110001000111
11111111111111111111110011100111
11111111111111111111111011100011
11111111111111111111101011101001
11111111111111111111110101001010
11111111111111111111111100011011
11111111111111111111111010010011
00000000000000000000001100110110
00000000000000000000001111111101
00000000000000000000010001110010
00000000000000000000000111001000
00000000000000000000000101111101
00000000000000000000000101001101
00000000000000000000001011100101
00000000000000000000001110010110
00000000000000000000001111010011
00000000000000000000001010111010
00000000000000000000001010000101
00000000000000000000001101001100
11111111111111111111111100100011
11111111111111111111111101101011
11111111111111111111110101110010
11111111111111111111110101111011
11111111111111111111101011111001
11111111111111111111100011001101
11111111111111111111101000100001
11111111111111111111100010110001
11111111111111111111101111011011
00000000000000000000001101000111
00000000000000000000000000111111
11111111111111111111110111001111
11111111111111111111110111100101
11111111111111111111110110101011
00000000000000000000000010011101
00000000000000000000001110110111
00000000000000000000001001110011
00000000000000000000001111110101
00000000000000000000000101001011
00000000000000000000001110101001
00000000000000000000010000001101
00000000000000000000000011111110
00000000000000000000000010110000
00000000000000000000000011101110
00000000000000000000001010010000
00000000000000000000001110011010
00000000000000000000010000110000
00000000000000000000000001110010
11111111111111111111111101010011
11111111111111111111111101100010
11111111111111111111110111101100
11111111111111111111110100010001
11111111111111111111110101101011
11111111111111111111011111110000
11111111111111111111010101100000
11111111111111111110111111111100
11111111111111111111011000110010
11111111111111111111101100111100
11111111111111111111011011011011
11111111111111111110101100111010
11111111111111111111000101101110
11111111111111111111010011001000
11111111111111111111101011100011
11111111111111111111111011010101
00000000000000000000001000100100
00000000000000000000001111010000
00000000000000000000010000000110
00000000000000000000000101111110
00000000000000000000000011010000
00000000000000000000010001001011
00000000000000000000000000001111
00000000000000000000000000110110
00000000000000000000000011001110
00000000000000000000000010001101
00000000000000000000000000100000
00000000000000000000001000110101
00000000000000000000001010101110
11111111111111111111111100100101
11111111111111111111101111101011
11111111111111111111101011011101
11111111111111111111101010111010
11111111111111111111001001100101
11111111111111111111000000000100
11111111111111111110111100110011
11111111111111111110111010011101
11111111111111111111001101011111
11111111111111111110101110101001
11111111111111111110000111011111
11111111111111111110101101000001
11111111111111111111000011000001
11111111111111111111000101010001
11111111111111111111011011100000
11111111111111111111101100110011
11111111111111111111111001010110
11111111111111111111111100110011
00000000000000000000001000110100
00000000000000000000001001100000
00000000000000000000000100001001
00000000000000000000010001111001
00000000000000000000001100000001
00000000000000000000000011000100
00000000000000000000001110111001
00000000000000000000000101111001
00000000000000000000000101000110
11111111111111111111111100011110
00000000000000000000001001011000
11111111111111111111110010010010
11111111111111111111101101100101
11111111111111111111101011101111
11111111111111111111001011000100
11111111111111111111000110111100
11111111111111111111000101011100
11111111111111111110111011010001
11111111111111111111001101011011
11111111111111111111000101000110
11111111111111111110101101111001
11111111111111111111001110000010
11111111111111111111001000111101
11111111111111111111010100101001
11111111111111111111011110001110
11111111111111111111100111101011
11111111111111111111101111011010
11111111111111111111110100000110
00000000000000000000001001110111
00000000000000000000001100100001
00000000000000000000010001001001
00000000000000000000001000011000
00000000000000000000000000000101
11111111111111111111111111010100
00000000000000000000000011101000
00000000000000000000000100000110
11111111111111111111111100010101
11111111111111111111110010010100
11111111111111111111101110001000
11111111111111111111110000110011
11111111111111111111100001010111
11111111111111111111011001010001
11111111111111111111010101100100
11111111111111111111001000001100
11111111111111111110100011110111
11111111111111111110101001010111
11111111111111111110000111010110
11111111111111111110000111010110
11111111111111111101110100111101
11111111111111111110011001101110
11111111111111111110010001100110
11111111111111111110110011101000
11111111111111111111001101100010
11111111111111111111011000010100
11111111111111111111110000010110
11111111111111111111110110110101
00000000000000000000000011001010
00000000000000000000010100011001
00000000000000000000010010100011
00000000000000000000000010010100
00000000000000000000000110011001
00000000000000000000001000101011
11111111111111111111111011111100
11111111111111111111101111101111
11111111111111111111111010110000
11111111111111111111100010110101
11111111111111111111010101101110
11111111111111111111001010111000
11111111111111111110110110000000
11111111111111111111001100011100
11111111111111111111001010000011
11111111111111111110011100101100
11111111111111111101111010110010
11111111111111111110000111011010
11111111111111111101111001010110
11111111111111111101100001000111
11111111111111111110000000000110
11111111111111111110010000101011
11111111111111111110010011000001
11111111111111111110110001110100
11111111111111111111000101101110
11111111111111111111100001110111
00000000000000000000000000110101
11111111111111111111111001001010
11111111111111111111111110101111
00000000000000000000000101110100
00000000000000000000001111001011
00000000000000000000000111100010
00000000000000000000000001010101
00000000000000000000000110110000
11111111111111111111110110011010
11111111111111111111101111001011
11111111111111111111110011001110
11111111111111111111100111000101
11111111111111111111010111000011
11111111111111111110101000011101
11111111111111111110011001111110
11111111111111111110110110001111
11111111111111111110101001001011
11111111111111111110010010101101
11111111111111111110000010001110
11111111111111111101101111000100
11111111111111111101101110110010
11111111111111111101110010110001
11111111111111111110110110100011
11111111111111111110101001101001
11111111111111111110011000101101
11111111111111111110100011110011
11111111111111111111001000100000
11111111111111111111011010011000
11111111111111111111111000111000
00000000000000000000001000010111
00000000000000000000000111010111
00000000000000000000001000100010
00000000000000000000001011100101
00000000000000000000000100010110
00000000000000000000001001001000
00000000000000000000000000010011
11111111111111111111111100100101
11111111111111111111111110100001
11111111111111111111110001110010
11111111111111111111100110111110
11111111111111111110111101101011
11111111111111111110101010110011
11111111111111111110101100111101
11111111111111111111000000110011
11111111111111111111010101010110
11111111111111111110111000100011
11111111111111111110101111000000
11111111111111111110000000010101
11111111111111111110101111001111
11111111111111111111000110000010
11111111111111111111100100101010
11111111111111111110111110101010
11111111111111111110110101001001
11111111111111111111000010101101
11111111111111111111011000000011
11111111111111111111010111101100
11111111111111111111110100011011
00000000000000000000001011001111
00000000000000000000011011001100
00000000000000000000000101110000
00000000000000000000001001101100
00000000000000000000001110001000
00000000000000000000000101001100
11111111111111111111111011000101
11111111111111111111110110000111
00000000000000000000000000000011
11111111111111111111111101001011
11111111111111111111011110010100
11111111111111111111000111001111
11111111111111111110110111101001
11111111111111111111000011100000
11111111111111111111001110011101
11111111111111111111101011001011
11111111111111111111101000011100
11111111111111111111001111101101
11111111111111111110100101100011
11111111111111111111011101111101
11111111111111111111100101110000
11111111111111111111101110001101
11111111111111111110101011010101
11111111111111111110111110011101
11111111111111111110111101000100
11111111111111111110111100010100
11111111111111111111001001011100
11111111111111111111101011111010
11111111111111111111110010110000
00000000000000000000010010010001
00000000000000000000001000010100
00000000000000000000000011000110
00000000000000000000000101001101
00000000000000000000000111010100
00000000000000000000000111110100
11111111111111111111111100111101
00000000000000000000010001001111
00000000000000000000000101000111
11111111111111111111011001001100
11111111111111111111100001110001
11111111111111111111001011001000
11111111111111111111010001111101
11111111111111111111100001101111
11111111111111111111110100101010
00000000000000000000000101101010
11111111111111111111001100001110
11111111111111111110101100110111
11111111111111111110111110011101
11111111111111111110110111010011
11111111111111111110101111011010
11111111111111111110011100110011
11111111111111111110110001000100
11111111111111111110110100000100
11111111111111111110110101110001
11111111111111111111000111000001
11111111111111111111010100111000
11111111111111111111111010101010
00000000000000000000011100010000
00000000000000000000001000000011
00000000000000000000001110011000
00000000000000000000001100011111
00000000000000000000000111101111
00000000000000000000001110111000
00000000000000000000010010110100
00000000000000000000010011011110
00000000000000000000000011010010
11111111111111111111100001001100
11111111111111111111011100011100
11111111111111111111000100111010
11111111111111111110111001111101
11111111111111111111010101000010
11111111111111111111101010010100
11111111111111111111111010111111
11111111111111111110010111111110
11111111111111111101111000101101
11111111111111111101100100010101
11111111111111111110011000101110
11111111111111111110100111100100
11111111111111111110001110110001
11111111111111111110101001100001
11111111111111111110110101101000
11111111111111111110111111111001
11111111111111111111000010000001
11111111111111111111010110101010
00000000000000000000001010100110
00000000000000000000001011010110
00000000000000000000001001001000
00000000000000000000001001110010
00000000000000000000000100001110
00000000000000000000000110111001
00000000000000000000000100101010
00000000000000000000010010001000
00000000000000000000001101001001
11111111111111111111110000100100
11111111111111111111011101001000
11111111111111111111001110101110
11111111111111111111000110101010
11111111111111111111000110000100
11111111111111111111000111101001
11111111111111111111100100100100
11111111111111111110111100110111
11111111111111111101011101111011
11111111111111111101000110010111
11111111111111111101011110111010
11111111111111111111000000101011
11111111111111111110110001011100
11111111111111111110011110010101
11111111111111111110110101010000
11111111111111111111001000010100
11111111111111111111001011011011
11111111111111111111001101010001
11111111111111111111100110000110
11111111111111111111111110011001
00000000000000000000000001000100
00000000000000000000000101011100
00000000000000000000000110101100
00000000000000000000000111101000
00000000000000000000001001100010
00000000000000000000010001001101
00000000000000000000001000111101
00000000000000000000001000100000
11111111111111111111101010010101
11111111111111111111010110111101
11111111111111111111001010010010
11111111111111111111001101110111
11111111111111111111001110100011
11111111111111111111010101000110
11111111111111111111000111111111
11111111111111111110010011111100
11111111111111111100111101101111
11111111111111111100100101010010
11111111111111111101010100111100
11111111111111111111001000011110
11111111111111111110101100111011
11111111111111111110100011111110
11111111111111111110111010111011
11111111111111111111000010010101
11111111111111111110110100101101
11111111111111111111010010000010
11111111111111111111100011110001
00000000000000000000001000011011
00000000000000000000000001010101
00000000000000000000000111100010
00000000000000000000000111111010
00000000000000000000000111111111
00000000000000000000000111111000
00000000000000000000001110111111
00000000000000000000001110000010
00000000000000000000001110001001
11111111111111111111110110000011
11111111111111111111011101000001
11111111111111111111001010110001
11111111111111111111010010100100
11111111111111111111000011111110
11111111111111111111011101111001
11111111111111111110101111001101
11111111111111111101101000001000
11111111111111111100111101001001
11111111111111111101000100011001
11111111111111111110000101110010
11111111111111111111000011111011
11111111111111111110100010111010
11111111111111111110111011000101
11111111111111111111010100001011
11111111111111111110110111000101
11111111111111111110110000000000
11111111111111111111001111011110
00000000000000000000000101010101
00000000000000000000011010101011
00000000000000000000010010011000
00000000000000000000010000101000
00000000000000000000001101101010
00000000000000000000000011001110
00000000000000000000001110111011
00000000000000000000000011000101
00000000000000000000001100110011
00000000000000000000000011001110
11111111111111111111111101010110
11111111111111111111011010011000
11111111111111111111010000001111
11111111111111111111011111010000
11111111111111111111010010101010
11111111111111111111011111101000
11111111111111111110101011101011
11111111111111111101101010011100
11111111111111111101000010110010
11111111111111111110000011001110
11111111111111111111000101010011
11111111111111111110111011110111
11111111111111111111010011000100
11111111111111111111011110110000
11111111111111111111011001011101
11111111111111111110111000010100
11111111111111111111000110110010
11111111111111111111110010100111
00000000000000000000011000110110
00000000000000000000010101001101
00000000000000000000000101100001
00000000000000000000000110010001
00000000000000000000000101101101
00000000000000000000000011110000
00000000000000000000001100111000
11111111111111111111111111100111
00000000000000000000001011010011
00000000000000000000001011011011
11111111111111111111110000100100
11111111111111111111100100010101
11111111111111111111101001011101
11111111111111111111100111111100
11111111111111111111100100011100
11111111111111111111100101111000
11111111111111111110111001010110
11111111111111111101111100100101
11111111111111111110000100010011
11111111111111111110100110011111
11111111111111111111000111100110
11111111111111111111010011001001
11111111111111111111010100100111
11111111111111111110111000001011
11111111111111111110111100110111
11111111111111111111010011110001
11111111111111111111100001011110
11111111111111111111101000100101
00000000000000000000001001000001
00000000000000000000011001101100
00000000000000000000000101011111
00000000000000000000010101100001
00000000000000000000001000010011
00000000000000000000001011111100
00000000000000000000000001001110
00000000000000000000001101100001
00000000000000000000011001011111
00000000000000000000001011101011
11111111111111111111101110111110
11111111111111111111010010000001
11111111111111111111001110100111
11111111111111111111101000110101
11111111111111111111011110000100
11111111111111111111000111010101
11111111111111111110101001111000
11111111111111111110101100010000
11111111111111111110101100011000
11111111111111111110100001010100
11111111111111111110010110000001
11111111111111111110101101110110
11111111111111111110010101011011
11111111111111111110010100111111
11111111111111111110110001000001
11111111111111111111010011010111
11111111111111111111011100100110
11111111111111111111110101111111
00000000000000000000001010100001
00000000000000000000010001001010
00000000000000000000001101110100
00000000000000000000010101011001
00000000000000000000010000010100
00000000000000000000000010010111
00000000000000000000010000110011
00000000000000000000000101001111
00000000000000000000010011111111
11111111111111111111111000001101
11111111111111111111110000110111
11111111111111111111010101011001
11111111111111111110110000101010
11111111111111111110111001101010
11111111111111111110111101100111
11111111111111111110101011111010
11111111111111111111000111000010
11111111111111111110110001110101
11111111111111111110000100001111
11111111111111111101110000101001
11111111111111111110000011101101
11111111111111111110001111110000
11111111111111111110101001011001
11111111111111111111001010101101
11111111111111111111001100101111
11111111111111111111100001000011
11111111111111111111110001010100
11111111111111111111110111010110
00000000000000000000000000101001
00000000000000000000000110000000
00000000000000000000001111000011
00000000000000000000001000110011
00000000000000000000001001010010
00000000000000000000001101111011
00000000000000000000000110111100
00000000000000000000000101100001
00000000000000000000001101010101
11111111111111111111111101110010
11111111111111111111101100110001
11111111111111111111001111110000
11111111111111111110101110110010
11111111111111111110110110000100
11111111111111111110100001101101
11111111111111111110110010111000
11111111111111111110110110101101
11111111111111111110100010010000
11111111111111111101100111111001
11111111111111111101100011100011
11111111111111111110011011111001
11111111111111111110110100100110
11111111111111111111010010101011
11111111111111111111100010110111
11111111111111111111100010110111
11111111111111111111101110100001
11111111111111111111111001001110
11111111111111111111111011001100
00000000000000000000000101001101
00000000000000000000000110110000
00000000000000000000001010011001
00000000000000000000000100001110
00000000000000000000000001100110
00000000000000000000001010100000
00000000000000000000001010100101
00000000000000000000001001000100
00000000000000000000000001101110
00000000000000000000000110001010
11111111111111111111100000010101
11111111111111111111000110010101
11111111111111111110111010010011
11111111111111111110101110011010
11111111111111111110011000111110
11111111111111111110000101101000
11111111111111111110110101101111
11111111111111111111001000011111
11111111111111111110101101000011
11111111111111111110101000001011
11111111111111111110110111100011
11111111111111111111000011110000
11111111111111111111101101001111
00000000000000000000000110001100
11111111111111111111111001101111
00000000000000000000000010001100
00000000000000000000001001000111
11111111111111111111111001011111
00000000000000000000001011110101
00000000000000000000000001001101
00000000000000000000000111100110
00000000000000000000000111110011
00000000000000000000001011011110
00000000000000000000010000010100
00000000000000000000001010000011
00000000000000000000001100000110
00000000000000000000000110101110
11111111111111111111111101111110
11111111111111111111110111110000
11111111111111111111111010100100
11111111111111111111001111010111
11111111111111111110100001011110
11111111111111111110001100000101
11111111111111111101111101100100
11111111111111111110001000101100
11111111111111111111000000001001
11111111111111111110100110010010
11111111111111111110011001110111
11111111111111111110100011011101
11111111111111111111000111011101
11111111111111111111100111101011
00000000000000000000000001001010
00000000000000000000001000000000
00000000000000000000001101110110
11111111111111111111111001111011
11111111111111111111111111110110
00000000000000000000000111101111
00000000000000000000000110111001
00000000000000000000000110011011
00000000000000000000000011100110
00000000000000000000001000100000
00000000000000000000001010011011
00000000000000000000001001011011
00000000000000000000000001111000
00000000000000000000001000010100
00000000000000000000000101011010
00000000000000000000011010010111
00000000000000000000011010100001
11111111111111111111111011011001
11111111111111111111100000100000
11111111111111111111101010000111
11111111111111111111010100101110
11111111111111111111010010001111
11111111111111111111011110001111
11111111111111111111110001100010
11111111111111111111011011100100
11111111111111111111011100100010
11111111111111111111100111011100
00000000000000000000000001100000
00000000000000000000000100000000
11111111111111111111110111000101
11111111111111111111111000111111
00000000000000000000000110111001
00000000000000000000000101011101
00000000000000000000010010100100
00000000000000000000001111101101
00000000000000000000001100001010
00000000000000000000000111111111
00000000000000000000000011111100
00000000000000000000010000100110
00000000000000000000001010110100
00000000000000000000001100100010
00000000000000000000001001001110
00000000000000000000001001110101
00000000000000000000010111010101
00000000000000000000011001100100
00000000000000000000001011011100
00000000000000000000001110000100
00000000000000000000010010010011
11111111111111111111110110001101
11111111111111111111110000101100
11111111111111111111101111101110
11111111111111111111110001011000
11111111111111111111011100010000
11111111111111111111011111011010
11111111111111111111010110100100
11111111111111111111100110111110
11111111111111111111101010000110
11111111111111111111110000001110
11111111111111111111111101110001
00000000000000000000010000001110
00000000000000000000001110010101
00000000000000000000001001010010
00000000000000000000001000000001
00000000000000000000010010010010
00000000000000000000001000100101
00000000000000000000000100101111
00000000000000000000001011011010
00000000000000000000010000101010
00000000000000000000001000101100
00000000000000000000001001111001
00000000000000000000001000111101
00000000000000000000000011110001
00000000000000000000000000001011
00000000000000000000000011011111
00000000000000000000000010110000
11111111111111111111111101001000
11111111111111111111100111011000
11111111111111111111100010010101
11111111111111111111100110111000
11111111111111111111011100001101
11111111111111111111010110010001
11111111111111111111100010001111
11111111111111111111100000111001
11111111111111111111100101011111
11111111111111111111111111011111
11111111111111111111111000011000
11111111111111111111111011000000
00000000000000000000001111100111
00000000000000000000000101011000
00000000000000000000001001110101
00000000000000000000001111000001
00000000000000000000010000111101
00000000000000000000000001010000
00000000000000000000000100001010
00000000000000000000010000111001
00000000000000000000001001111001
00000000000000000000001000111010
00000000000000000000001010000001
00000000000000000000001000001110
00000000000000000000010001101011
00000000000000000000000001011001
00000000000000000000010001011000
00000000000000000000000001110001
11111111111111111111111111101011
00000000000000000000000110010001
11111111111111111111111011111101
11111111111111111111111100110000
11111111111111111111111110011001
00000000000000000000000000010100
00000000000000000000000100101001
11111111111111111111111110101011
00000000000000000000000111001110
00000000000000000000000011001001
00000000000000000000000011111110
00000000000000000000000100000101
00000000000000000000000010010100
00000000000000000000001001111000
00000000000000000000000101101111
00000000000000000000010010000001
00000000000000000000001110011010
00000000000000000000001111101111
00000000000000000000001110110010
