11111111111110011000010001100011
11111111111110010010110111101011
11111111111110010001100110001111
11111111111110010001101010100111
11111111111110001000011101011110
00000000000000000001101010011010
00000000000000011000111111010111
11111111111111110110011100100011
11111111111110010101100011010001
11111111111110001101100010101110
11111111111110010100100101111001
11111111111110001111010001001000
11111111111111100111000101100001
11111111111110011010000110110111
00000000000001101111100001111000
11111111111110001110111111010000
11111111111110010100100111111111
11111111111110010101100111100110
11111111111110111010001111010101
11111111111111101100111011000111
00000000000000000010110001101011
11111111111101010001001000010010
11111111111110010010110000011011
11111111111110000001010011010101
00000000000000001101110101011010
11111111111110010000110110101000
11111111111110010100110011011101
11111111111110010001100001010111
11111111111110011000100110000101
11111111111110010000110101101100
11111111111110010010001000011001
11111111111101101111011101001110
11111111111101111111110000011111
11111111111110010110101000001000
11111111111110010011111000110011
11111111111111101011001010001101
11111111111110110001100010000110
00000000000001111101111010101011
11111111111110011001010010000011
00000000000011000001110111001000
11111111111111101110010001000111
11111111111111111011111100001010
11111111111110010100111110100000
11111111111111101001011100101111
11111111111110001111101001001111
00000000000000010101000000011010
00000000000010111110000000000001
11111111111110101011011100011000
11111111111110001010100000011111
11111111111110010111001101010100
11111111111110010100010000100110
11111111111110001111000000001110
11111111111110011000001110111001
11111111111110010101011100011010
11111111111110101000100111011000
11111111111111001101110110100101
11111111111111000000100111101110
11111111111110000011000100110111
11111111111110001111001010011011
11111111111110100011111110110001
11111111111110000100001101111001
11111111111110010011010100000000
11111111111110010001110011000111
11111111111100010100100100011110
11111111111111011000101101000100
11111111111110000011011010101101
11111111111110000101101100101100
11111111111111101101110010000110
11111111111110010100011010001111
11111111111111110101000111100110
11111111111110000101101001111101
11111111111110011001111010100110
11111111111110010100010111001000
11111111111111001011000000011110
11111111111110011000111101110010
11111111111110010101100010011011
00000000000001001000011100111011
11111111111110001111101101111011
11111111111110011000000000000110
11111111111101111100111100010101
00000000000000001111100101011001
11111111111101100101000100011010
11111111111110001110010001110100
11111111111111100011111011010011
00000000000000000100011111111101
11111111111110000001000001111100
11111111111110010101001110010010
11111111111111110111101101110101
11111111111110011001101101100100
00000000000000100001000010011111
11111111111110011110110110000110
11111111111110010111011011111101
11111111111110001111011010001011
11111111111111001111011011100100
11111111111110011011111101001111
11111111111110001110001100000101
11111111111111011001100001010010
11111111111110010000100111010101
11111111111111110000010001010100
11111111111110000111101110000010
11111111111110011001001100010111
11111111111111011011001000000110
00000000000000000010000100011010
11111111111110010110100011100010
11111111111110001110011111100011
00000000000001000111110101010010
11111111111110010101011101110001
11111111111110100110000110110000
11111111111110000111111011100000
11111111111110010101011100001001
11111111111111000001000111000000
11111111111110101111110100001011
11111111111111101110111000111000
11111111111110101111000001101011
11111111111101111111110101000111
11111111111110010011000101011111
11111111111110010010011011010000
11111111111110011001011100011000
11111111111110011100101001110110
11111111111111110000011000001001
00000000000010010001011101110101
11111111111110000001101101001110
11111111111110011000100111000010
11111111111110010010101011100001
11111111111111011001000101000100
11111111111101111101110100110101
11111111111111101000010001110111
11111111111110010011000110011100
