memory_initialization_radix=16;
memory_initialization_vector=
00000368,
000001ac,
0000046b,
00000377,
00000095,
0000002b,
0000025c,
000002fa,
00000103,
000003c8,
00000451,
00000314,
00000131,
00000075,
00000137,
00000311,
00000137,
0000006e,
000001eb,
000003ca,
00000265,
0000043d,
0000020e,
000001fd,
0000039a,
0000048b,
00000022,
000000e2,
000003ab,
0000040c,
00000345,
00000281,
00000125,
0000031b,
0000013a,
00000168,
000002b0,
000002e7,
fffffe92,
000001f1,
00000193,
00000477,
000000e1,
fffffd73,
fffffe05,
000002c1,
000001c6,
000000e5,
000003d4,
0000042a,
00000046,
00000242,
0000041e,
0000028a,
00000447,
00000326,
00000283,
0000046a,
0000040a,
00000190,
000003d8,
00000292,
000002b9,
fffffdbd,
000000c1,
000004df,
ffffff5d,
fffff94e,
fffff1dc,
ffffefa2,
ffffec0c,
ffffe32e,
ffffdd54,
ffffda5b,
ffffe0a9,
ffffed5e,
fffffa62,
fffffb61,
ffffffb0,
000000ef,
000000c7,
00000425,
00000430,
00000486,
00000200,
000003e6,
00000310,
0000041f,
000002d3,
00001a9f,
000015f9,
00000d19,
fffffc29,
ffffd56f,
ffffb8d0,
ffffd84f,
000009cf,
ffffe718,
ffffe17f,
fffff56d,
0000383d,
0000436c,
ffffeda1,
ffffcf3e,
ffffe238,
ffffc5f9,
ffffec24,
fffff878,
000003ce,
000002b3,
000003c9,
00000430,
000001e7,
0000030d,
00000403,
000003ab,
0000099a,
000023a8,
00002036,
00003633,
00002e17,
ffffe841,
000000f4,
ffffe1db,
00006b81,
0000d273,
ffffcb3b,
00003087,
00002820,
00000705,
0000174f,
ffffcbcf,
ffff9b91,
ffffbc67,
ffffa460,
ffffbc71,
fffff547,
0000048c,
000004bd,
00000078,
000001d6,
00000326,
00000499,
000001ef,
fffffe8e,
0000117d,
00002515,
00003a01,
00001e87,
00001869,
ffffed59,
ffffc4db,
ffffe3fb,
00004508,
00001960,
000071da,
00002f3d,
ffffe188,
00002bd8,
0000404b,
ffffd4da,
000005ce,
ffffa76d,
ffff83dc,
ffffd9e4,
fffffb8e,
00000455,
00000093,
0000009b,
000003c2,
000001f2,
fffffe68,
fffff72a,
000021bc,
00001a5c,
ffffdb49,
ffffdafa,
fffffc9f,
0000278a,
00002781,
ffffe929,
000072b8,
ffffe9eb,
ffffe196,
fffff1fa,
00004b6c,
00005c8d,
0000396b,
ffffa0bd,
ffffe902,
ffff86c9,
ffff3d95,
ffffbe3d,
ffffeb77,
fffffdd4,
ffffff16,
000002a0,
00000442,
00000033,
000004da,
0000076c,
0000266c,
fffff1e8,
ffffdd92,
fffff7bc,
00004271,
000043cb,
00002876,
0000490b,
00004c78,
00003db9,
ffffbe10,
ffffa45f,
00009366,
ffffbfba,
00001a76,
000032b6,
ffff8fb1,
ffff2656,
ffff3fa4,
ffff8a72,
ffffdd16,
0000004f,
000003ca,
0000048c,
fffffff3,
fffff7f5,
fffff9bb,
000007a9,
00003d8e,
00003ed3,
00003d1e,
00002bf7,
000014df,
fffff631,
ffffa5fb,
ffff8c6f,
ffff6b7b,
ffff442a,
fffffaa3,
00005d44,
000026e4,
ffffe498,
ffffe30e,
00001f9c,
ffff45e1,
ffff5314,
ffff784f,
ffffa5bd,
ffffe7ea,
00000145,
00000040,
000003b8,
0000019a,
fffffbf7,
fffff485,
ffffe2ad,
00001b1c,
00003fd8,
000013cf,
ffffaee4,
ffff1dce,
fffef20e,
fffe8e88,
ffff1b98,
ffffbb20,
00006223,
00000f15,
000060e6,
0000587d,
fffffd4a,
ffffe477,
fffff53a,
ffff6952,
ffff644b,
ffff9c76,
ffffcd84,
ffffecd9,
ffffff93,
00000009,
00000263,
0000025f,
fffff9f8,
fffff512,
ffffc25f,
ffffcc70,
ffffb499,
ffff4da2,
fffeca63,
fffeb649,
ffff59e8,
ffff8a83,
ffffc1b3,
0000925d,
0000b87e,
00000828,
0000609c,
0000555c,
000047d8,
0000000c,
ffff68ae,
ffff742b,
ffff972a,
ffffd7d4,
ffffe8c5,
ffffe8c9,
00000265,
000004d3,
0000046a,
00000026,
fffffbb8,
fffff7fa,
ffffd0d8,
ffff9779,
ffff8a24,
ffff6b80,
ffffa9dd,
000010be,
00003204,
0000949f,
0000cae2,
00001f2e,
00001b4c,
00005470,
ffffa4f0,
ffffd8d2,
ffffd118,
ffff9558,
ffff5e98,
ffff4482,
ffff7cd8,
ffffbda3,
ffffde1f,
fffffb87,
0000037f,
000001b6,
000000af,
00000192,
fffffa9b,
ffffecb0,
ffffcce0,
ffffcd78,
ffff98a3,
ffffb1fa,
00002457,
00003ffa,
00003621,
00006cb1,
ffffdcfd,
ffffab62,
ffffde18,
ffffec74,
00001b25,
ffffa382,
ffffb0e9,
ffffa2f7,
ffffdad2,
ffff9684,
ffff9757,
ffffcc24,
fffffb1f,
00000449,
000000bd,
000003fd,
0000009f,
00000313,
fffffe92,
ffffec0a,
ffffc614,
ffffbf56,
ffffea6c,
00001555,
00000b36,
000030b3,
ffffad2e,
ffff9d5d,
000026b3,
000061fd,
000042e1,
00001fff,
0000472c,
ffff4e82,
00000fb3,
00000135,
00005e7a,
000005fe,
ffffcc72,
ffffc9ee,
ffffdcd5,
000001d6,
0000026b,
fffff9f2,
0000006c,
000000d8,
00000073,
ffffdc6b,
ffffd1fb,
ffffcded,
ffffe596,
ffffb625,
fffffbd3,
ffffb979,
ffff9288,
ffffdb88,
0000056d,
00000bd8,
ffffd127,
ffff9fa3,
ffff869a,
ffffc9b0,
ffffcd01,
000034ec,
000020cb,
00006132,
00002bf9,
ffffd480,
ffffef56,
fffff848,
ffffe8d0,
fffffa3e,
000003bd,
00000278,
0000004f,
ffffe639,
00000051,
ffffea02,
ffffbcc1,
ffffb599,
ffffb571,
ffff619a,
ffff8c4e,
ffff92c3,
ffff7ee5,
ffffcfab,
ffffe6a7,
000005bf,
00003ffd,
00001fe2,
fffff183,
0000299b,
00002ebc,
fffffcb1,
000065fe,
00005c39,
0000113c,
ffffdfcb,
fffff2d8,
0000044f,
0000040b,
000003ef,
000007f8,
fffff8ec,
fffff07b,
ffffc359,
ffff8cdc,
fffffcee,
ffffb182,
ffff55e4,
ffff0b21,
fffed29d,
fffed421,
fffecc4f,
ffff1c31,
ffff6b07,
ffffef79,
000052f1,
000025ab,
0000568b,
ffffd8a6,
00001cdc,
00004332,
0000529f,
00002b6c,
ffffd279,
fffff688,
0000011d,
0000040d,
0000006d,
00000a37,
00000e7f,
ffffdaf1,
ffffb7f4,
ffff6bd4,
ffffc391,
ffffedc5,
0000023a,
ffffeb75,
ffff74ea,
ffff23d5,
ffff0ede,
ffff5e0e,
ffffac4b,
000010e8,
00000968,
ffffb466,
ffffe5b5,
fffff9d6,
00004212,
00001d7f,
000010bf,
00000de5,
ffffb191,
fffff5e4,
000002fc,
00000133,
0000002f,
0000015d,
00001714,
ffffdf3b,
000000f6,
00000e5f,
00003676,
000080e0,
00003b74,
fffff1df,
ffffff13,
ffffdffe,
ffffb960,
ffffd632,
ffffdb35,
ffffe75d,
ffff78ff,
00002af6,
00000259,
00000488,
00005c16,
00002947,
ffffcbd5,
ffffdcc3,
ffffb351,
fffffb3e,
00000328,
000002cc,
00000349,
ffffb097,
00000e6a,
00004f2d,
00005824,
00005b60,
00001560,
fffff8fc,
00001c2e,
ffffde45,
000029a8,
00002f72,
0000080a,
ffff97dc,
ffffd867,
ffffddf1,
ffffafd3,
00000320,
00000974,
ffffe46e,
ffffbcb9,
ffffad67,
00000abf,
fffff562,
ffffda6d,
fffff9a2,
000000e4,
00000402,
00000144,
ffffc09a,
000010ce,
00000b26,
fffff6f0,
000041c1,
ffffd8a9,
00000102,
00002181,
000018bf,
ffffec42,
fffff625,
fffff981,
ffffefb5,
ffffbd6b,
fffff0a3,
ffff8d56,
ffffc229,
ffffbf8c,
ffffad9f,
ffffb278,
ffffdad2,
ffffcb94,
ffffefbe,
ffffed73,
fffffa91,
00000016,
00000012,
000001ce,
fffff39e,
0000094f,
fffff6bf,
ffffb1e8,
0000080a,
fffffe57,
ffffb2cd,
ffffb663,
ffffc058,
00003004,
ffffe374,
ffffec8d,
ffffee6a,
ffffc0ca,
00001571,
ffff9d61,
ffffaa32,
00004234,
fffff4f0,
ffffa6c3,
ffffc774,
ffffcc79,
ffffdf10,
fffff908,
ffffffc3,
00000018,
00000349,
ffffffa5,
fffff241,
ffffe9fb,
000016ac,
00000d4c,
0000838e,
00005544,
ffff8cbc,
00000fda,
00005dc1,
0000025b,
ffffc909,
fffff4f3,
fffff8e1,
fffffdba,
ffffc586,
ffff90d1,
ffffd959,
00000fd5,
ffffda73,
ffffbb9e,
00000cab,
00000fb1,
fffff184,
fffffd70,
0000025f,
00000225,
000003d3,
0000046f,
0000000d,
fffffc75,
fffffa59,
ffffd600,
ffffbbee,
ffffd80c,
fffffa6f,
ffffebf7,
000017d8,
000013e6,
ffffcae6,
ffffe820,
ffffdaf2,
ffffd9a9,
ffffcde8,
ffffde6b,
000018e2,
0000266b,
000016f2,
ffffd80f,
ffffd9b5,
fffffe3e,
fffff212,
000001c8,
00000243,
0000008c,
0000032e,
00000236,
0000047f,
000005ca,
ffffff44,
fffffe6d,
ffffe0be,
ffffe0dc,
ffffd00b,
ffffd594,
ffffc2dc,
ffffb5cc,
ffff87a1,
ffffc135,
ffffc746,
ffffcb69,
ffffe7cf,
ffffd187,
ffffce32,
ffffd018,
ffffce23,
ffffe770,
fffff4e2,
fffffe24,
ffffff1a,
000001c0,
000001ee,
000003c7,
000001ac,
00000175,
0000049f,
00000082,
0000065f,
000003eb,
fffff813,
fffff16c,
00000729,
00000c1e,
000015fd,
fffff3dc,
ffffafc8,
ffffc235,
ffffd7ab,
ffffdba1,
ffffd067,
ffffc453,
ffffcb58,
ffffeb2c,
ffffeec3,
ffffefc3,
fffff981,
fffffeb9,
000001c3,
000002d1,
0000017e,
000000fa,
0000011a,
00000371,
0000002f,
000002b8,
ffffffef,
00000593,
0000024c,
fffffcad,
fffff87a,
ffffecfb,
ffffe9c6,
ffffe21e,
ffffde41,
ffffe7f3,
ffffe089,
ffffdfb8,
fffff111,
ffffed21,
fffff5d1,
fffff773,
fffffb4a,
fffffa7f,
000002f6,
00000182,
000002f3,
000000ba,
0000042c,
000001a8,
000003e2,
00000119,
000002a3,
0000006a,
00000481,
00000293,
00000272,
fffffed6,
0000015e,
00000039,
000001b2,
fffffd64,
fffffeaf,
fffffa03,
fffffa20,
fffffb0f,
fffffb4e,
fffffbba,
ffffff3f,
0000020b,
000001e1,
000002f9,
000000ac,
00000088,
00000479,
00000155,
0000025a,
000002e2;