memory_initialization_radix=16;
memory_initialization_vector=
0000041b,
00000219,
00000428,
00000014,
000003ed,
00000072,
0000019f,
00000282,
00000489,
0000016f,
00000040,
000000b7,
0000029e,
00000443,
000003aa,
00000256,
000001f2,
000000b3,
000001a4,
00000430,
0000013b,
000000c7,
0000000f,
0000000d,
0000034f,
00000103,
0000021c,
00000178,
0000029a,
0000023c,
00000360,
00000223,
00000452,
000002f4,
0000024a,
000003b2,
0000029f,
000002ca,
000001b2,
0000043e,
0000020c,
00000301,
00000660,
00000765,
00000130,
0000033e,
00000162,
00000353,
000004a3,
0000039c,
000002f1,
00000092,
00000352,
000002c6,
0000009c,
0000020f,
000003c9,
000002b8,
00000384,
000001d5,
0000006e,
0000023f,
000003d1,
ffffff64,
fffffeb7,
fffff30c,
fffffd27,
fffff956,
fffffbd0,
0000005d,
000001ec,
000006ff,
00000817,
0000074f,
00000380,
000005e7,
000002f8,
000003e6,
000005ab,
000001e1,
000003ee,
00000081,
000000f9,
00000256,
0000035d,
00000196,
00000464,
00000299,
00000425,
00000281,
00000252,
fffffb94,
000001ee,
0000389c,
0000522b,
000015ca,
0000153b,
00001679,
fffffa58,
000025c6,
00001f2b,
00000737,
ffffffc4,
ffffff14,
00000647,
fffffa84,
0000072c,
00000750,
00000889,
000000d6,
00000405,
0000037e,
0000010a,
00000029,
0000015a,
000004c9,
fffffde8,
fffff9de,
ffffecc7,
ffffb8c7,
ffff9147,
000001fb,
00002678,
fffffc5f,
ffffd185,
0000014e,
000026ab,
00004551,
00003be4,
00001ee0,
0000405c,
fffffe5d,
000017bd,
fffffe50,
ffffebb8,
ffffed07,
fffff650,
000001bb,
000000da,
000001bc,
00000383,
00000445,
00000095,
000001d4,
fffff579,
fffff535,
00001218,
ffffdbc6,
ffffdb4a,
fffff4d6,
00001a79,
fffff42c,
ffffbc22,
ffffc6b5,
ffffd694,
000002f4,
0000357b,
00001b86,
ffffffc1,
ffffe153,
fffff35f,
000008cc,
fffff5c0,
ffffdc14,
ffffed73,
fffffbfb,
00000206,
00000309,
00000453,
00000347,
00000303,
fffff61d,
fffff0f8,
0000004e,
000061c2,
00003d21,
00003c63,
00002eb2,
000042c0,
00000b72,
000004da,
ffffe970,
ffffb38f,
00001eee,
00004b2b,
00000240,
000004a8,
00002338,
ffffc345,
ffffcd54,
ffffef3d,
ffffd53e,
ffffea00,
fffff4d1,
fffffef6,
000001a1,
00000197,
00000058,
0000005e,
ffffee0b,
ffffd922,
ffffea59,
00001a62,
00002981,
00003191,
fffff5aa,
00003383,
000054fe,
00003d8c,
00000400,
ffffe765,
00001b2f,
ffffef96,
ffffbf83,
ffffc734,
ffffddea,
ffffa2fc,
ffffab62,
ffffcfba,
ffffdeba,
ffffe24f,
ffffeeb6,
fffffced,
000001b0,
0000025b,
0000041b,
fffff98c,
ffffeae6,
ffffb7a6,
ffffde16,
0000083b,
00001ce3,
000050d8,
00003844,
00002241,
000048c0,
ffffd434,
ffff8fc0,
ffff7e09,
ffff2fe1,
fffeeaa5,
ffff3697,
ffff9a09,
ffff7bb2,
ffff7e35,
ffffa38a,
ffffc7e8,
ffffe03a,
ffffe402,
ffffeeaa,
fffff972,
0000012e,
00000058,
000000c5,
fffff6ee,
ffffecfd,
ffffce3a,
fffffa33,
00004a6e,
00003ed1,
00000d13,
00001dba,
0000042a,
00002d7d,
00001c64,
000007d3,
0000018f,
000019a2,
fffff62c,
ffffa5a3,
ffffa07d,
ffff8670,
ffff65a0,
ffff8ae3,
ffffae19,
ffffdda1,
ffffe29e,
ffffe76c,
fffffd21,
0000011a,
ffffffd2,
fffffd6d,
fffffc0d,
fffff470,
fffffa4c,
00002355,
ffffe8bf,
ffffe0ae,
ffffc893,
ffffea3c,
ffffc688,
fffffd03,
00000acf,
0000033b,
ffffe6d1,
ffffef19,
00007947,
00001e2e,
ffffcd6f,
0000103f,
ffffe5ce,
ffffb240,
ffff9fbc,
ffffcb62,
ffffe86e,
ffffe9bb,
000002cb,
000000ec,
00000201,
00000203,
ffffff96,
fffff5f4,
000010e3,
0000295c,
ffffdbdf,
ffffef0b,
ffffd0b9,
000024d0,
000029e6,
00004c24,
000070a3,
00002e37,
00002cea,
ffffe9c6,
00001871,
000057d9,
0000531c,
000015ca,
000045ad,
000024cc,
00002079,
ffffeb6a,
00001ec9,
00001899,
00000c28,
00000353,
00000047,
00000368,
0000029d,
fffffc6f,
0000226f,
00002060,
ffffe723,
000027ef,
00003793,
00000c71,
00002d02,
ffffffe3,
ffffe548,
ffffd814,
ffffde38,
ffffbacf,
ffffa3e0,
fffff4eb,
fffff9ae,
00000e77,
00000820,
000028f4,
000017f8,
fffff4f0,
ffffe310,
fffff10c,
fffffc06,
00000196,
00000240,
0000020d,
000003a7,
00000006,
0000120a,
0000143b,
ffffdcaf,
fffff371,
00005f0d,
00001cb2,
fffffa48,
000006ee,
ffffd634,
ffff809a,
ffff8c65,
ffff983b,
ffffa432,
ffffd53a,
ffffdc30,
ffffeb79,
ffffda75,
ffffc246,
000000b4,
00000ead,
ffffe0ff,
fffff228,
fffffd76,
0000005d,
000003e5,
000003b3,
000001b7,
ffffffc2,
ffffec7d,
ffffcf2f,
ffffa7a6,
ffff96d6,
ffffb5f0,
ffffd9b7,
ffffe358,
000003b5,
ffffbd2f,
ffffb119,
ffffac9e,
ffff8e34,
ffff9866,
ffffeba6,
000010aa,
ffffd984,
fffff888,
ffffe336,
000006f9,
00000bf7,
fffff1c3,
fffffa6b,
fffffd2f,
0000038f,
00000461,
000003e4,
000004e4,
00000066,
00000a5c,
ffffd620,
ffff7ecb,
ffff9036,
ffff8843,
ffff8ead,
fffff4ab,
ffffe777,
ffffdaa8,
ffffb298,
ffffc9e6,
ffffa414,
ffffaece,
ffffe6f8,
00003a11,
fffffb41,
ffffebdb,
00003387,
00001a2d,
00001aa2,
ffffec2a,
fffff724,
fffffc6a,
0000008b,
00000429,
0000054c,
000004fd,
00000393,
ffffffe4,
ffffe5ed,
ffff929c,
ffff748d,
ffffb795,
ffffdfdc,
000003b7,
ffffae31,
ffffac85,
ffffaed0,
ffffa5b9,
ffff90cb,
ffff9748,
ffffb7aa,
ffffdea7,
fffff817,
fffffec7,
ffffd43c,
fffffd06,
00001003,
ffffe9e7,
ffffef6e,
fffff92c,
00000166,
000002bd,
00000314,
00000591,
00000722,
ffffda4d,
ffffebc6,
ffffa51b,
ffff9ef0,
ffffc84c,
ffffe20f,
ffffd88b,
ffffd73e,
ffffe15f,
ffffb80f,
ffffbc45,
ffffb985,
ffffc5a0,
ffffaa34,
ffffbdb8,
ffffef7f,
ffffd459,
000009a8,
ffffc806,
000011eb,
00000543,
ffffecf3,
fffffc57,
00000051,
00000253,
000000fd,
ffffffb2,
00000e27,
00000ae8,
00000105,
ffffbda4,
ffffe0e6,
ffffd9f9,
fffffe2e,
00002df9,
ffffffcc,
000020e6,
000004ef,
ffffdad1,
ffffe3d4,
ffffca41,
ffff9368,
ffffce5f,
ffffbc1b,
ffffe8b7,
00003195,
ffffe34a,
fffff7c2,
000011c6,
ffffef7f,
fffffe2b,
00000002,
000002b9,
0000015d,
00000d76,
000027dc,
00001630,
fffffe8c,
000019e4,
00000af6,
000038d3,
00000d33,
000022b0,
00003102,
fffff85f,
ffffeed8,
0000002a,
00000030,
ffffcb68,
ffffbc8c,
ffffe231,
ffffd48e,
000020c8,
0000229b,
ffffbfaf,
000005df,
00000510,
ffffeb62,
fffffcf5,
00000142,
00000214,
00000317,
00000df7,
000021aa,
0000246b,
00001b89,
00002727,
ffffe83a,
00003a75,
00005f7a,
ffffebb1,
ffffcab3,
ffffe2f0,
ffffe9f5,
ffffd7b4,
ffffc418,
ffffd90e,
fffffddb,
00000917,
ffffe2cf,
ffffeb6f,
00001091,
0000148b,
0000314e,
00000607,
fffff488,
fffffc2b,
000003d6,
000003cb,
00000426,
fffffdd7,
fffff55d,
000008ec,
00002356,
0000442b,
ffffcf55,
00002aaf,
0000557f,
000048c2,
000034c1,
0000307b,
000011c1,
fffff35f,
0000058b,
ffffd6f7,
00000238,
ffffeed9,
ffffc002,
00000ed5,
0000112d,
000015d7,
00002874,
fffff82e,
fffff963,
00000240,
00000129,
00000441,
0000035b,
ffffff08,
fffffbec,
ffffec67,
00000522,
00002d7e,
0000320a,
00004595,
00004695,
0000026f,
000016b3,
ffffc7ad,
00002526,
fffffb08,
00000743,
00000325,
ffffd38f,
ffffc252,
fffff8ca,
00002476,
000024c0,
00001c02,
000007ea,
fffff3e3,
fffffd68,
000000b4,
00000127,
00000207,
00000397,
000002d5,
000003d8,
fffff562,
ffffe9e5,
fffff53e,
ffffeef7,
fffff1aa,
fffffea9,
000023c2,
00001bd8,
ffffe770,
ffffe069,
00000834,
fffffc11,
ffffd957,
ffffd40d,
00001801,
00002ea8,
00000be9,
fffffe7c,
fffffead,
fffff8a5,
ffffff0a,
00000154,
00000327,
000002f4,
0000037c,
00000388,
00000446,
0000057a,
0000071b,
0000089d,
000011c7,
00002171,
00000e51,
fffff004,
00000980,
00000207,
fffff830,
ffffd67e,
ffffc73e,
ffffd975,
ffffe57f,
00000d08,
ffffeeaf,
000003e7,
00000247,
ffffebc3,
fffff7e1,
0000028d,
fffffdb1,
00000014,
00000026,
00000265,
00000390,
0000030e,
000000b4,
00000390,
000005a4,
0000059f,
00000a94,
00001051,
000010aa,
ffffead6,
ffffe5ab,
ffffe61f,
ffffd9f9,
ffffcbf2,
ffffbac8,
ffffc642,
ffffd94b,
ffffdf7d,
ffffdd79,
fffff2f7,
fffffa84,
fffff244,
fffffc4b,
00000009,
00000265,
00000194,
0000046a,
00000307,
0000034b,
00000005,
000000da,
00000241,
000001d1,
00000012,
0000011b,
000003ae,
ffffff65,
00000151,
fffffef3,
fffffe8f,
fffff59d,
fffff5e0,
ffffd682,
ffffd081,
fffff043,
fffff3bc,
ffffeecf,
fffffa55,
fffffe1d,
fffff4d6,
ffffff7a,
0000019e,
0000005a,
0000032f,
000001fc,
0000031e,
00000050,
000001d7,
00000192,
0000039b,
000001d8,
00000267,
0000015a,
000000b9,
0000044e,
0000010e,
fffffff1,
ffffffb3,
fffffed9,
fffffe89,
fffff5d8,
ffffedfa,
fffffba5,
fffff9d2,
fffff310,
fffff9da,
0000010d,
fffff9f9,
fffffdd8,
000003f1,
000000e1,
000001cb,
000000af,
00000135;