memory_initialization_radix=16;
memory_initialization_vector=
000001bb,
00000027,
00000288,
0000009b,
000003b6,
000001e7,
00000408,
0000018f,
00000482,
0000042f,
00000183,
000000b3,
000003a8,
000000c4,
00000404,
00000248,
0000023c,
00000413,
00000405,
000000d5,
0000028d,
0000021f,
0000020d,
00000279,
00000405,
000002b5,
00000130,
00000012,
0000039b,
0000021a,
0000036e,
000000c4,
00000241,
00000153,
00000075,
0000000b,
00000201,
000001d8,
00000480,
00000c9c,
fffffe2d,
0000092b,
000001b1,
000004d7,
000001e9,
000003ac,
000001b2,
000002d3,
000002e0,
00000145,
000003bc,
000000de,
00000364,
00000138,
00000357,
000002d8,
000003ed,
00000487,
000002ea,
00000215,
000001b7,
00000198,
fffffd79,
fffffd6b,
fffffe07,
fffff105,
ffffe918,
0000022c,
fffff3b0,
00000cb4,
0000076e,
000006c4,
00000787,
000004e4,
fffffdf1,
ffffff86,
00000360,
00000203,
0000025e,
0000013d,
0000040e,
0000022b,
0000027e,
00000347,
00000363,
00000143,
0000018d,
00000044,
00000085,
000003ef,
fffffa21,
ffffeac1,
ffffe044,
fffffd89,
00003671,
000081a0,
00006476,
00005352,
00003aaf,
00004442,
00003bfd,
00001ed6,
000005b1,
00001b17,
000011bb,
00000334,
00000438,
000002fc,
000004f8,
000001a8,
00000306,
000003e4,
000003d3,
000000f2,
00000299,
0000029e,
0000025c,
000007be,
fffff8be,
00000394,
ffffeae6,
000006be,
00005b49,
0000492c,
0000a09d,
0000a413,
00007f41,
0000a574,
00008a09,
00006235,
00004b5d,
000036ca,
0000086a,
ffffc190,
0000102a,
00001339,
00000e4d,
000001fa,
00000145,
0000006d,
000002ca,
00000446,
00000419,
0000027d,
00000b14,
0000008b,
ffffff3b,
00003fa5,
000041d7,
00006799,
00009f09,
00009674,
00002272,
fffff77b,
00004e35,
000068d6,
0000bfe9,
00015954,
0001793d,
000157f1,
0001336f,
00007437,
0000aa0f,
00007acd,
00003243,
00001358,
00000ab1,
000000f4,
00000313,
00000151,
fffffefa,
fffff9c3,
ffffff6f,
ffffb586,
ffff857b,
ffff73d9,
ffff29dd,
ffff9121,
00000a39,
000007bb,
ffff5aed,
fffffe21,
00002da0,
0000475d,
0000bd0a,
00005c8d,
0000739f,
00004fb6,
0000cb91,
000006cb,
00005d52,
000061ee,
00005832,
00003605,
00001421,
0000021d,
0000027c,
fffff63b,
fffff869,
ffffe309,
ffffe3d1,
ffff8893,
ffff314b,
ffff69d9,
ffff59ef,
ffff3c67,
ffff6ef2,
fffffb78,
ffffc9a0,
00008010,
ffffee4e,
00000a11,
ffffe9a6,
ffff96f3,
ffff8fcc,
ffff633a,
ffffc6b7,
ffffeb14,
ffffd93a,
ffffd8e0,
000006e3,
0000537c,
0000148a,
00000110,
000005cc,
fffff8ac,
ffffe3fb,
0000012a,
000002a1,
ffff2a62,
fffed787,
ffff2753,
fffeef89,
ffff91e2,
ffff6c73,
ffff89a6,
ffffce0d,
00007ebc,
00002800,
0000348e,
00009238,
ffffc9ff,
ffffec79,
ffffd79d,
ffff2354,
ffffd250,
ffff4441,
ffffc573,
0000081a,
00006526,
0000351e,
000015a4,
00000212,
fffffb49,
ffffd82c,
ffffeab5,
ffff65c6,
fffebf8f,
ffff7a7f,
00000724,
ffff8114,
ffffb5b8,
ffff92b6,
ffffc724,
ffff936d,
ffff2e44,
ffff9b27,
ffff441d,
ffffc55e,
ffff1dbc,
ffff9c8b,
00000185,
000009a4,
ffffd188,
ffffb838,
000067d8,
00002308,
00004f97,
000015d8,
00000349,
00000347,
00000335,
ffffaeee,
ffffbcc1,
ffffbcce,
fffeea5b,
ffff9afa,
000022a5,
fffff3de,
000005c9,
ffff4314,
ffffbeaa,
00005337,
fffee1b1,
ffffb1e8,
ffff74ea,
ffff3947,
ffff636e,
ffff4cd0,
ffff8520,
ffffd321,
ffff75c6,
ffff62d7,
00007607,
00004f63,
00002688,
000011d7,
0000032a,
00000306,
ffffed1b,
ffff99ce,
ffffc2fb,
00004d80,
00000f82,
00006d93,
ffffec8c,
00009a40,
00003594,
000038b8,
000008c9,
00003e59,
00001ee6,
000017ce,
ffff7549,
ffff8f75,
0000437b,
ffff9fb7,
ffffe6d9,
ffff7134,
0000376a,
ffffa88e,
0000aa87,
00004e67,
000016a8,
00000c57,
000002b6,
00000068,
ffffbe6c,
ffffa538,
ffffe52e,
ffffda4e,
ffffea4d,
0000edfc,
ffffaae7,
ffffdc7c,
0000975d,
00011afa,
000058de,
0000ef5d,
00014710,
000125df,
ffffd43b,
000040a2,
fffff8d0,
00002b06,
0000c6b1,
0000588a,
000076f2,
0000b9c2,
00009e93,
000043ba,
00000013,
0000025c,
ffffffc6,
0000031e,
fffff825,
ffffc790,
00001e2b,
000005d1,
fffffd13,
00004466,
000004fd,
0000672a,
000018b6,
fffff95b,
ffffbd54,
00022259,
000204b1,
0000867c,
0000240a,
0000236b,
000010da,
0000cb92,
00010c38,
0000c734,
0000b36c,
00001794,
ffffb666,
ffffcc8e,
ffffff9c,
000000f6,
ffffff2f,
000000c5,
000000a2,
ffffe6eb,
00001d6e,
fffffe8b,
ffffe785,
0000a04c,
000049ca,
ffffb5c4,
000076f7,
0000d39b,
00014bb2,
00016c03,
000087cd,
ffffe30b,
ffffdff8,
00000b01,
ffffe2d2,
ffff59a1,
fffec072,
ffff7772,
00004543,
ffffc16d,
ffffc3b8,
00002961,
fffff3c2,
00000118,
0000046f,
000003fa,
000002fa,
fffffdf6,
00001218,
ffffe0c4,
00005d94,
00006275,
00007c42,
000120bd,
0000dfe0,
0000e615,
00009882,
0000b989,
00007358,
0000b077,
ffff86b7,
00003458,
ffff03f1,
fffefd38,
ffffaf12,
fffefe85,
ffff94b1,
ffff8615,
ffffca73,
0000322f,
000031c8,
00000ac9,
00000288,
000001f3,
000002dc,
000018da,
00003308,
ffffcc91,
000033a6,
ffffdb18,
0000647d,
00003a6b,
000053eb,
0000c851,
0000dfe6,
00000579,
00001731,
0000334d,
fffeed58,
00001542,
ffffca13,
ffffebce,
ffffcebd,
ffff9d30,
fffff649,
000008ea,
ffffd79c,
0000455a,
00005e05,
00000a71,
00000319,
0000010a,
000003ef,
00000700,
00002044,
00002e3c,
00005e94,
00007946,
00003666,
00004d4f,
fffff700,
00008da8,
000067b7,
fffff7c0,
0000571b,
0000aa11,
ffff90f4,
000050fb,
000014e3,
ffff930f,
ffff312b,
ffffc07d,
000080e6,
00004dd6,
000007ea,
00004768,
00000ae1,
0000081c,
000005a8,
000000d8,
00000067,
fffffe09,
00002f6e,
0000846e,
0000956d,
00008bac,
00001919,
000059df,
0000a4ab,
000104ab,
00000cb2,
ffffe1d8,
ffffdc51,
ffffb006,
fffff55d,
000034be,
00000f3e,
fffffdd9,
ffffc8ed,
ffff7357,
0000895d,
0000b097,
00006271,
00002fb0,
00000a02,
000003f9,
000002c9,
000000a6,
00000016,
fffffcd9,
00001f31,
00006f93,
000099f0,
00009735,
0000d0e9,
00002a6e,
00009911,
000063cd,
ffffa859,
ffff3b82,
ffff9974,
ffff929b,
ffff546c,
ffffffa4,
fffffa08,
0000ebd2,
00000f4b,
00005480,
00011724,
000109e7,
000079fd,
fffff6f3,
00000525,
00000286,
0000040d,
00000312,
00000276,
000005c9,
0000124a,
0000693e,
0000bee8,
0000bc9a,
0000b0f0,
0000aebe,
00009873,
00005f4e,
0000103d,
ffff7359,
00000949,
0000748c,
00005152,
0000dd8e,
00017a4d,
00019495,
0000f314,
00010b6b,
00011cd7,
0000e554,
00005076,
00000886,
00000c61,
00000285,
000002a4,
00000098,
00000172,
00000b0f,
0000326b,
0000663b,
0000a5cf,
0000c50e,
0000e10a,
0000b65d,
00002cde,
ffffeb7b,
000039a4,
000039bc,
ffffdc5b,
00008672,
00010c5c,
00000109,
0000b7be,
0000c1c6,
00008fe5,
0000dfa6,
00015780,
00010a88,
00006352,
0000172a,
00000a65,
fffffe50,
0000018f,
00000129,
000002a1,
00000d13,
0000328d,
00003f4a,
ffffe973,
ffffe4df,
fffffb93,
000042f4,
00003884,
00009577,
00008a7d,
00006de5,
00000462,
ffffdaa6,
00005d82,
00004185,
00003b5b,
00004fce,
00007b8b,
00014d71,
00015de0,
0000d00d,
00007245,
00001b79,
00000940,
00000306,
000003bf,
000000f0,
00000328,
000006d6,
00002524,
fffff066,
ffff6ba1,
ffff1c99,
ffffb04e,
0000c9df,
000068e2,
fffff5f9,
00001eff,
0000fc9e,
fffffaa6,
000002eb,
000031cc,
00008012,
ffffd503,
000054a8,
0000a509,
0000d07a,
0000f591,
0000c31e,
00007a12,
00003262,
00000e0d,
00000383,
000000d6,
00000443,
0000020f,
00000406,
fffff66a,
ffffa8cf,
ffff24db,
ffff6bb9,
0000408c,
fffff219,
0000ccde,
000084dd,
000026ae,
0000964c,
0000a15d,
00000359,
ffffaaa5,
fffffb0a,
ffff855b,
0000840f,
0000760d,
ffffdd3f,
00004018,
00009009,
000059b6,
00001f69,
00000e1b,
0000043a,
000000e8,
00000312,
000002f0,
00000319,
ffffdcdf,
ffff8087,
00003464,
ffffeada,
ffffbed5,
ffff9ea4,
ffffac86,
ffffedf7,
ffffcc8f,
ffff38da,
ffffbf0e,
0000217e,
ffffc94a,
000059a5,
00005593,
00002867,
000014ed,
00002360,
00001692,
000041a8,
00001503,
000005ba,
000001f3,
00000269,
000002b9,
000001dd,
00000212,
000003a2,
0000005e,
0000b7bd,
00006be4,
000071ce,
000028d8,
000025e1,
000068f8,
0000b271,
0000a05d,
00008b1f,
00001d5c,
00001faf,
ffffbd7c,
ffffdb07,
ffffe61b,
00006f75,
0000621e,
0000123a,
00000458,
0000201f,
00000e61,
00000303,
000003a0,
00000121,
000001ac,
00000100,
0000038a,
00000466,
000002de,
0000010a,
0000037c,
00000c76,
000029aa,
00000afe,
ffffdb89,
ffffb081,
00001390,
0000061b,
ffff8413,
ffffb839,
00001677,
ffffdfab,
ffffe355,
ffffef72,
ffffe8ae,
ffffd6ae,
fffff71c,
00000ccc,
fffffe59,
00000158,
0000031e,
00000286,
0000044f;