memory_initialization_radix=16;
memory_initialization_vector=
00000239,
0000036f,
00000462,
0000009c,
0000029d,
000003da,
0000026e,
00000431,
0000043d,
00000037,
00000469,
00000051,
00000088,
0000014e,
00000305,
00000097,
000002db,
000001e5,
000001b6,
00000115,
000003d3,
000002af,
0000040a,
00000386,
00000126,
00000395,
0000041b,
00000286,
000002de,
0000009a,
00000166,
00000085,
00000409,
00000135,
0000011d,
000001dc,
fffffe97,
00000191,
00000106,
0000002c,
000002af,
0000009b,
fffffda8,
000001cf,
ffffffea,
0000019b,
00000020,
fffffeef,
fffffe14,
0000011a,
00000263,
0000000f,
00000056,
00000207,
000003a2,
0000017d,
0000010a,
0000032b,
00000403,
000003ea,
000003ac,
000000b5,
00000348,
0000001b,
fffffcd7,
fffff7ce,
ffffebe3,
ffffe882,
ffffe555,
ffffdcff,
ffffd2de,
ffffcaab,
ffffd824,
ffffe1a0,
ffffe603,
ffffe85d,
ffffed10,
fffff5b0,
ffffff34,
000000a0,
00000135,
0000021a,
0000031c,
0000022e,
00000420,
0000022d,
0000035b,
0000007c,
00000062,
00000500,
00000105,
fffffc39,
fffff2e9,
ffffd4d4,
ffffa56a,
ffffa701,
ffffae0a,
ffff9247,
ffffa19c,
ffff9251,
ffff62e4,
ffff8b5c,
ffffc0ee,
ffffdb16,
0000190f,
00000439,
fffff504,
000009b0,
fffffa51,
000000c9,
0000017a,
0000008d,
000000fc,
0000046d,
00000199,
00000101,
0000088d,
fffffd3c,
ffffe196,
ffffd6bb,
00001475,
00001a02,
00004c07,
0000277c,
ffffa232,
ffff8af4,
ffffba29,
fffff2ba,
ffffea78,
ffffe282,
ffffc52d,
ffffb31e,
00003091,
ffffdc98,
ffffe3c4,
ffffb457,
ffffe47c,
000009c5,
00000839,
000000e3,
0000023d,
00000319,
000000fa,
000003ff,
000004ce,
fffff877,
fffffaa7,
ffffdf16,
ffffe602,
ffffe47a,
ffffa9b5,
00000911,
000006e9,
ffffd644,
ffffc7fd,
ffff79c3,
00003dbe,
00007409,
fffff9d9,
00000d8a,
000041dd,
ffffef7d,
ffffe456,
ffffbe46,
ffffc73d,
00000577,
000007d5,
00000192,
00000010,
000001a1,
0000001e,
00000c46,
00000c58,
00003f23,
fffff5e0,
ffffe334,
ffffe8c5,
fffff452,
00002559,
000003ee,
0000161b,
00002e88,
ffff94b7,
00001395,
ffffecc5,
00007e0f,
ffffdafe,
ffffd844,
000067c5,
00000054,
ffffd4d1,
ffffe234,
ffffe819,
fffffdba,
0000056d,
000004d7,
00000441,
00000326,
fffff603,
00000e08,
000028ef,
00001704,
000000d3,
ffffdc7f,
00002e63,
00005b23,
fffff110,
ffff9984,
fffffd55,
000015f2,
ffffb033,
ffffed28,
ffff9ea1,
0000149a,
0000256c,
ffffec9f,
0000c2d2,
000036a1,
ffffc714,
00000ad5,
000014ea,
fffff08d,
0000160b,
00000430,
000002e8,
fffffda7,
ffffeaff,
ffffdfc8,
00000754,
fffff271,
00006ad2,
00002554,
ffffc5b5,
000044a9,
00000ca3,
00003c7a,
00006e2c,
00001e6d,
ffffc29f,
00000804,
00005034,
0000246b,
ffffff36,
000045aa,
ffffd569,
fffff9a9,
0000555c,
ffffeb50,
00001470,
0000149a,
00000e03,
00000886,
00000028,
fffffd5c,
ffffea15,
ffffe5e9,
00003449,
00002bee,
000066a8,
00001092,
00007b14,
00007767,
ffffd8b6,
000042a0,
0000866b,
ffffb2f9,
ffff48a4,
ffffc310,
000040cd,
0000727d,
ffffc11b,
000057ab,
000054bc,
00005024,
000082bb,
ffffe4a4,
ffffdc4e,
ffffda2e,
ffffff13,
00000651,
00000435,
fffffdb3,
fffff0e1,
00000a70,
0000454f,
000026f0,
00004c6c,
00004318,
00004aec,
ffffe9fd,
00000d05,
fffffa51,
ffff623f,
ffff140d,
ffff38a2,
ffffeedf,
00001941,
000050df,
00002228,
00006f52,
000060d4,
00009dfc,
00006a1f,
00002c85,
fffff79d,
ffffd9fb,
00000031,
00000b61,
00000061,
000002bb,
fffffd4e,
000008da,
000036da,
000003b4,
ffffc8ee,
ffffa840,
ffffb894,
ffffe01d,
ffff3b1a,
fffee37c,
ffff3e46,
ffffec89,
0000a296,
00007ee1,
00000737,
00001a13,
ffffca7f,
00004694,
00007791,
00001533,
ffffe154,
ffffe0d6,
00001993,
fffffdef,
00000aac,
fffffec8,
000002cd,
00000124,
fffffda1,
ffffda82,
fffff2ff,
fffffa03,
ffff90b9,
ffff8a25,
ffff2cee,
ffff0dab,
ffff9279,
ffff7fbe,
ffffe929,
000058d7,
00008728,
00005387,
0000072d,
000026f7,
00002c84,
00003fc0,
fffffa9b,
ffffcb56,
ffff8529,
ffff64b5,
ffffbf81,
ffffe964,
000001d2,
fffffa35,
00000022,
00000356,
fffffed7,
ffffebbf,
ffffae7d,
ffffa124,
ffff3e6d,
ffff83c9,
ffff7688,
ffff500e,
ffff63f9,
0000259c,
000026ba,
00004c59,
00009030,
0000dbb8,
00003359,
00001cea,
000043d6,
ffffe0ce,
000015e0,
ffffc093,
ffff2953,
ffff1cd7,
ffff73fc,
ffffe84a,
000000bc,
fffffceb,
000001c6,
000004de,
000002b4,
fffff0e9,
ffffb108,
ffff6dc0,
ffff1b38,
ffff2fac,
ffff66b2,
ffffad19,
ffffda8b,
00005f97,
000031c9,
00003562,
ffffdf1e,
000026ab,
00003013,
fffffa38,
ffffedc3,
ffff6262,
ffff7cbe,
ffffb54a,
ffff57bd,
ffff5007,
ffff9354,
ffffe97d,
fffff011,
ffffff2c,
00000201,
0000046d,
000005f4,
00000fed,
00001905,
ffffd9b9,
ffff9624,
ffff8a12,
ffffb9ba,
ffffa208,
ffff8ea6,
00004bca,
000054dc,
00004176,
00009921,
00005259,
00002944,
ffff8b21,
ffffcefc,
ffff9faa,
ffffad71,
ffffc169,
0000027a,
ffffa5e4,
ffffc0cf,
ffffd8a8,
fffff6f9,
fffffe4f,
00000188,
0000058e,
00001c05,
0000544e,
000037d9,
ffffeca7,
ffffbf09,
ffffb2ad,
ffffe84d,
00001ebe,
000028b2,
fffff1e0,
00004da3,
0001368e,
00008ecb,
00001adf,
ffff9ed5,
ffffcbf8,
00000c72,
ffffae5f,
ffffca36,
ffffe59a,
ffffb4b9,
ffffddb3,
ffffd95e,
ffffb49d,
ffffe1f6,
fffffc92,
000001e3,
00000187,
00001ff3,
00006f45,
000046aa,
ffffc62f,
ffff6989,
ffff9a4d,
00004df0,
ffffe731,
ffff9e09,
ffffcb90,
0000c5e5,
000072a0,
ffff55a8,
ffff0ee4,
ffff8301,
ffff9e66,
ffff9576,
000009ec,
ffffbc35,
ffffec09,
ffffa0d3,
fffffe33,
ffffe71c,
ffffa5d9,
fffff2ef,
000000e2,
000001ac,
0000042a,
00001059,
000081c4,
000013bf,
00004338,
ffffdbc3,
ffff768a,
0000121f,
000019e8,
fffff865,
0000a1c2,
00009860,
ffffa9e7,
fffe835b,
ffff98a0,
ffffd668,
ffffb4d9,
ffffb5e6,
000003c2,
ffffcdd5,
ffff5cb1,
ffffd252,
000045b6,
fffff534,
ffffc48d,
fffffcea,
ffffff97,
0000032f,
00000391,
fffff298,
000056f3,
000014ec,
00009aa8,
00000a22,
ffff9a5d,
ffffed57,
00004651,
00003729,
000059ab,
000004e1,
ffff43f1,
fffef194,
00001ff5,
ffff8b97,
ffffb613,
ffff8d60,
ffffbc8d,
ffffc585,
ffffcd92,
00007068,
00005b09,
ffffc7b7,
ffffbbaf,
fffff1ef,
000001e8,
0000014f,
00000526,
fffffb74,
00002e10,
00002018,
ffffd652,
00000d72,
00002d97,
ffffd33d,
00002e6b,
00005d89,
000015bd,
000000f5,
ffffa184,
ffff97c3,
ffffc372,
ffffbfaf,
ffffc1b5,
ffff7ae5,
ffffc9f6,
00001059,
00003cd4,
0000482b,
00002c1c,
ffffb476,
ffffd404,
fffff0d1,
000002af,
000003f7,
0000014c,
00000357,
00001b61,
ffffef60,
ffffab1a,
00002db9,
00006191,
000063a4,
000005f6,
000004ad,
00000041,
000011fa,
000031a4,
00001d47,
000008ef,
ffffcbb7,
00003b18,
ffffc606,
00000fa6,
00000978,
00005617,
00005a80,
ffffe4bf,
ffff964b,
ffffed37,
fffffffb,
00000008,
000001ac,
000000b1,
00000e49,
00001c0a,
00001800,
ffffcbbb,
00000145,
000039f4,
00004ec1,
00003aa0,
00003091,
fffff79b,
0000017d,
ffffe90f,
0000464b,
ffffba47,
000001eb,
0000c89c,
00004180,
000034a0,
00000b94,
00003796,
00000c6a,
ffffe6fc,
ffffc05f,
fffffb3c,
00000259,
00000027,
00000189,
000001ed,
00000d9b,
000028dc,
00004a1e,
00001d12,
fffffff9,
00005a00,
00007a50,
ffff8cb9,
ffffdbd6,
00005b98,
00001194,
0000619b,
ffffddd6,
0000041f,
00002d61,
00000fcb,
000017fe,
00001e0d,
00001a67,
00002d1c,
0000113f,
fffff2a2,
ffffd717,
000001ae,
00000220,
00000172,
0000016c,
000000f5,
00000743,
00001ff1,
00004797,
00004a93,
0000915a,
0000653a,
fffff3d1,
ffff6b10,
ffffc722,
00003e56,
00000032,
fffff351,
00001cf9,
ffffd37c,
ffffa748,
ffff664c,
ffffa5aa,
ffffeceb,
ffffceef,
ffffc825,
ffffda0b,
ffffe63b,
ffffe31f,
ffffecff,
fffffa2d,
00000012,
000003a9,
0000002e,
000001d0,
0000005a,
000008ed,
000021da,
00000d2e,
ffffdd41,
ffffc645,
ffff9699,
ffffafd8,
fffff26b,
fffff751,
ffffe978,
ffffcb17,
ffff972b,
ffff6aa8,
ffff89c7,
ffffc2f0,
ffffccbc,
ffffb3c5,
ffffae58,
ffffe96e,
fffff8b4,
fffffbc5,
fffffa23,
fffffa0e,
00000225,
00000144,
00000405,
00000238,
00000040,
000001a0,
fffffe5e,
ffffec52,
ffffe5df,
ffffba81,
ffff86ee,
ffff84bf,
ffff76a2,
ffff6925,
ffff7f82,
ffff85f6,
ffff9724,
ffffbe21,
ffffe526,
ffffd57f,
ffffc491,
ffffca43,
ffffe15a,
fffff796,
000000fa,
0000025a,
00000031,
000002e2,
000002b9,
00000135,
0000004d,
0000004c,
00000279,
00000447,
0000023d,
00000237,
00000322,
000000cc,
fffffdc9,
fffff282,
fffff82d,
fffff5af,
ffffebdf,
fffff0fa,
fffff5cb,
fffff172,
fffff419,
fffff689,
fffffabf,
fffff512,
fffffa75,
fffffac1,
000000e1,
00000357,
000002ce,
000001f8,
00000121;