memory_initialization_radix=16;
memory_initialization_vector=
000001ed,
000002f6,
000001c5,
0000010c,
000003d8,
00000288,
00000198,
00000345,
000002e4,
00000068,
000000e6,
00000207,
00000257,
000003ba,
00000031,
000001f9,
0000009a,
000003b5,
000002c5,
00000164,
000003ed,
00000133,
0000002c,
0000036a,
0000041e,
000003c2,
00000439,
00000472,
000003e9,
00000489,
00000268,
00000144,
000002ee,
00000432,
000002a6,
000002aa,
00000d84,
00000f30,
0000086e,
00000897,
00000da3,
0000143a,
00000e00,
00000775,
00000429,
000005a3,
000005ef,
000003f7,
000002e4,
00000243,
000002f5,
0000012d,
00000376,
00000322,
00000005,
00000303,
00000252,
0000043e,
000002e3,
000001a9,
00000441,
000000c9,
000003d4,
00000882,
000016f2,
00002c87,
000036d4,
00004899,
000046c0,
000053b9,
000054d5,
000038c9,
00003c9d,
000046fa,
00003489,
00002424,
00001ab9,
000012f7,
00000510,
00000064,
fffff4ea,
fffffa45,
000001f9,
00000282,
00000265,
000001ff,
000000f3,
00000025,
000002e3,
00000adc,
00001674,
00001aed,
0000199c,
00002446,
00003113,
00003083,
00002080,
00003279,
00004a2b,
00003fa4,
0000193f,
00004c45,
00003658,
000020d6,
00001615,
00000b5a,
0000008d,
ffffff95,
fffff040,
fffff9bf,
000001d2,
000002e2,
000002fa,
000003cc,
000000d3,
000000b9,
00000217,
0000067c,
fffff644,
ffffde31,
ffffbc61,
ffffb361,
ffff9912,
ffffc0b6,
ffffb078,
ffff8374,
ffff9b46,
ffffd659,
000000a9,
ffffed54,
ffffffbd,
ffffccec,
ffffac39,
ffffdd11,
ffffe9be,
00000b9d,
000009a6,
fffffd67,
00000495,
0000026e,
00000006,
00000120,
000000a8,
00000236,
fffffed2,
fffff5db,
ffffc767,
ffff7e39,
ffffa5bd,
ffffa2d1,
ffffd81a,
fffff08b,
ffffea4f,
fffff0a7,
ffffb5d6,
ffffa928,
ffffdbc5,
ffffe70b,
00001162,
ffffeedf,
000004a7,
00004a20,
00004916,
00000b34,
00001c89,
fffffdfa,
00000047,
0000045b,
00000412,
0000003f,
000002a4,
fffffa78,
ffffed43,
ffffde02,
ffff8aeb,
ffff913e,
ffffe512,
0000075b,
000015e1,
00001943,
fffffb28,
ffffcc8f,
ffffc405,
ffffd2ff,
00002ad9,
00005c7c,
000089a6,
00009024,
00008a11,
00006d46,
00004273,
00001efb,
00003a3f,
00002566,
000002bf,
00000486,
000001f3,
000001ea,
ffffff6e,
ffffdee6,
ffffcaff,
ffffc9cc,
ffff7588,
ffffe0b1,
00002dd2,
000036bc,
00000add,
0000017d,
ffffcc80,
ffff6168,
ffffe8ac,
00005ac7,
00009056,
00005c85,
00005054,
00006037,
00003f01,
ffffd8fd,
ffff98a2,
ffffd7f1,
00003453,
00004138,
0000104b,
00000213,
00000448,
0000014a,
fffff90f,
ffffde4f,
ffffbbe5,
ffffaebb,
ffffad08,
ffffcf7d,
0000303a,
0000305f,
00005c8a,
00001ab0,
ffffe8b7,
ffff6de2,
ffff888e,
ffffa8ac,
ffff91cc,
ffff57d5,
ffff5750,
ffff2188,
ffff2210,
ffff4916,
ffff04c5,
ffff9ac6,
0000273f,
00003c0d,
00001159,
00000246,
00000056,
00000035,
fffffb1a,
ffffe535,
ffffccf3,
ffffca1f,
ffffabd1,
ffffc52d,
000029b1,
000014e1,
00009cd6,
000036b5,
ffffc1fb,
ffff4b6b,
fffeac9b,
fffecb45,
fffec6f8,
fffed0de,
ffff02fa,
ffff024e,
ffff0a5a,
fffecbd0,
fffefa14,
ffff6cb4,
fffff529,
000020d8,
000018a8,
00000602,
0000028b,
00000239,
00000094,
00000035,
ffffe9c5,
fffff4a8,
ffffdfed,
ffffe65b,
ffffea38,
ffffea28,
0000673f,
00005b6e,
ffffaed4,
ffff59ae,
fffecff3,
ffff3c20,
ffff6295,
ffff60da,
ffff5d51,
ffff3279,
ffff3e37,
fffedd3a,
ffff0ef1,
ffff45b6,
ffffca0d,
00001326,
00001192,
00000638,
00000205,
0000006f,
0000014b,
00000d35,
fffffeea,
000005c8,
00002f95,
00000061,
ffffc4b0,
fffffcdc,
00000fd8,
0000821c,
00001933,
ffffd3e7,
ffff93ba,
ffff6f3c,
ffffbf6d,
ffffee88,
ffffd832,
ffff9192,
ffff3926,
ffff1c9e,
ffff18dc,
ffff7f56,
ffffba53,
ffffe7e3,
fffffe3b,
ffffffe7,
000003f4,
00000024,
000000ba,
00000d9e,
fffff609,
fffff466,
00006a27,
00000811,
ffff979a,
ffffc112,
00002b07,
0000769b,
00006a6e,
00001232,
ffff6677,
ffff9c29,
ffffcca3,
0000241c,
0000772d,
00000375,
ffffc080,
ffff843d,
ffffc90e,
0000170e,
ffffe099,
ffffdeae,
fffffa51,
0000021d,
000002ad,
00000031,
ffffff84,
0000093a,
ffffd9ea,
000005c0,
00004006,
fffff756,
ffffd092,
00000fa1,
000036ca,
000081f8,
000062c8,
ffffa481,
ffff6dce,
ffff78a9,
ffffa1d9,
ffffbfad,
ffffd35f,
ffffb95d,
ffff70f4,
ffff8df8,
00005d97,
00009ad9,
00003baf,
ffffeaa6,
fffffd78,
000000c6,
0000042a,
0000005a,
0000027d,
fffff564,
ffffcb2e,
fffff037,
00002385,
fffffc17,
00002990,
00006cbe,
0000926d,
00008ffc,
00001c2b,
ffffbd5a,
ffffc983,
ffffddb8,
ffff9b71,
ffff87e7,
ffff96aa,
ffff66eb,
ffff2e6f,
ffff72e1,
0000618f,
00009686,
0000914a,
0000033c,
fffff1ca,
000000ca,
000000be,
000003df,
0000025f,
ffffed3c,
ffffd79d,
ffffcb60,
fffff1eb,
fffff761,
00001005,
0000621e,
0000dbe3,
0000624a,
ffffc2c4,
ffff92aa,
ffffe91c,
ffffe437,
ffff5602,
ffff76db,
ffff9dac,
ffff87c7,
ffff75fa,
ffffc9e3,
fffff025,
0000529c,
00008fc6,
fffffc2a,
ffffe78b,
fffffb02,
00000356,
000004dc,
00000207,
fffffee7,
ffffef52,
ffffb62f,
ffff9bf7,
ffffa3d9,
ffff9599,
ffffcdb4,
ffffed16,
ffffe6bf,
ffff9370,
ffffb4b0,
ffffcd52,
ffff8403,
ffff3c44,
ffff279e,
ffff6739,
ffffac7f,
fffffa77,
fffff38c,
fffff583,
00002179,
00004882,
ffffe4dc,
ffffdcf9,
fffff278,
00000051,
000001a4,
00000566,
0000017b,
ffffeb1e,
ffff9aab,
ffffa83e,
ffff6ff0,
ffff6817,
ffff6ef1,
ffffbd66,
ffff9c31,
ffff67ff,
ffff3cfd,
ffff2655,
fffeee15,
fffef230,
ffff47ed,
ffffee35,
fffff4b6,
000021f6,
00001ffc,
0000079b,
fffffad6,
00000451,
ffffe5f1,
ffffeb5e,
00000032,
000001e1,
0000035b,
000008a7,
fffffeac,
ffffeded,
ffffad41,
ffff8c5d,
ffff8203,
ffff5b27,
ffff3e3a,
ffff6829,
ffff7af7,
ffff4322,
ffff001a,
ffff3701,
ffff477c,
ffff75a8,
ffffd242,
00002272,
ffffd7a5,
ffffe164,
ffffe51a,
fffff2c5,
0000113f,
00000261,
ffffe934,
fffff7f3,
0000023e,
00000367,
00000017,
000010bc,
000008fb,
fffff665,
ffffc0dd,
ffff9e38,
ffff61c8,
ffff66bb,
ffff4418,
ffffa434,
00000036,
ffffd90b,
ffff836f,
ffff7d66,
ffff54fc,
ffffd064,
fffff988,
00001cb3,
00004ab1,
ffffcd7e,
ffffa840,
ffffdf1a,
ffffea13,
ffffcfdf,
ffffd2f7,
fffff53f,
00000487,
000002e7,
00000283,
000007b5,
000003d1,
00001400,
0000047c,
ffffb763,
ffff5606,
ffff7245,
ffff63e0,
ffffc447,
00002317,
00002d0a,
fffff8be,
ffff9b88,
ffff9f70,
ffffcb1f,
00003726,
00003937,
fffff554,
ffffbb23,
fffff4a2,
00000a77,
ffffcbf9,
ffffb1ac,
ffffd917,
fffffc65,
000000d9,
00000152,
000002a1,
00000211,
fffffdc1,
000008f9,
fffffb16,
ffffcb52,
ffff78b0,
ffff822a,
ffff7abf,
ffffeadc,
00001025,
00000d64,
ffffd47d,
ffff79be,
ffff9d80,
0000127e,
00000fda,
ffffe23f,
ffffd530,
ffffee6c,
00003df8,
00001b86,
ffffe6e0,
ffffde4d,
fffffd03,
00000307,
000002b7,
00000359,
00000370,
000002a6,
fffffe1a,
fffff58f,
fffff023,
ffffd9af,
ffffdea4,
ffff92b8,
ffff7147,
ffffd33e,
00001019,
ffffff33,
00002367,
00001b58,
0000485e,
00007775,
fffffbad,
00006258,
00004cb7,
00000404,
00000ab2,
000011d1,
ffffef1a,
ffffebac,
fffffdb5,
0000006d,
00000305,
000002c6,
000003ec,
000000a8,
00000452,
00001161,
00000dd9,
0000014b,
ffffe77a,
ffff9920,
ffff7c03,
ffffef18,
0000502b,
00006ed8,
000075bf,
000089d1,
0000a482,
00008b29,
000089c7,
000086e7,
000039fa,
0000155a,
fffffcb2,
00000de9,
000005f9,
fffff994,
0000006e,
00000248,
0000000a,
000001a2,
0000002e,
000002f0,
0000055d,
00000a2b,
00000626,
00001424,
00001de5,
00001a1f,
ffffb9a9,
ffffa710,
00000efb,
00007f3a,
0000d978,
0000c171,
00009d64,
000058ce,
00002ac9,
00002178,
00000260,
00000606,
ffffea4d,
00000769,
00000625,
00000112,
00000433,
000000c8,
000001fd,
000001ad,
00000052,
00000207,
00000342,
ffffffdd,
ffffff12,
00000a0a,
00000ed1,
00001611,
fffffec4,
fffff2e3,
ffffe6bc,
ffffd35f,
ffffdb99,
ffffd6d8,
ffffe86a,
ffffc8cb,
ffffb0dd,
ffffd5ef,
ffffff24,
fffff009,
ffffe861,
fffffdc0,
fffffeb2,
ffffff32,
000000ce,
000002a4,
000001d3,
0000007a,
0000036d,
000003d0,
00000228,
000003cc,
00000130,
ffffff06,
0000017e,
fffff879,
ffffe27c,
ffffe60d,
ffffea7d,
ffffe5ce,
ffffe032,
ffffcc92,
ffffd60c,
ffffe0c1,
ffffdf0a,
fffff4b7,
00000dff,
00000361,
000002ec,
0000062b,
000001cd,
000002fe,
000002af,
0000025e,
00000377,
0000037d,
00000070,
000000b8,
000003f8,
000003dd,
0000048e,
0000019f,
0000030e,
0000011d,
0000026f,
000002c5,
000002e9,
00000140,
00000102,
fffffb54,
fffffb74,
0000015f,
ffffff6e,
00000323,
00000125,
ffffffda,
ffffff79,
00000097,
00000179,
00000191,
00000490,
00000332,
0000048f;