memory_initialization_radix=16;
memory_initialization_vector=
00000117,
00000340,
000000ce,
00000034,
000003fb,
000002c6,
000001b0,
0000016c,
000000ca,
000001a5,
000000e7,
00000337,
00000043,
000002d4,
00000360,
000001b0,
00000099,
0000046c,
000001e8,
0000004c,
00000038,
0000040e,
0000013d,
00000065,
000003c8,
00000371,
00000076,
00000015,
000001b7,
00000252,
000000a2,
000002cf,
00000100,
00000170,
00000301,
00000067,
00000454,
00000127,
0000060b,
000009ff,
0000033d,
00000481,
000013be,
0000279c,
00000e59,
00000ad3,
00000a0e,
00000926,
00000b4d,
00000895,
0000028d,
0000027e,
0000008f,
00000320,
000002e8,
00000457,
000001ff,
0000035f,
0000046d,
000003b6,
000002a0,
000000a2,
000000f1,
00000080,
fffff338,
ffffd82b,
ffffe549,
000004c1,
000052d1,
00002183,
0000199e,
0000648f,
00005e82,
00006ff5,
00007955,
00004b24,
000040ac,
00002ad4,
00001311,
00000873,
0000006a,
000000e8,
000003c2,
00000095,
000000fb,
00000219,
ffffffc4,
000002cf,
0000010a,
00000800,
0000033c,
fffff8d0,
00000dff,
ffff640f,
ffff9147,
ffffc729,
fffffe3d,
00000e95,
00000764,
ffffe7c9,
ffffe28d,
00003e64,
0000cb92,
00005d36,
00009297,
0000bb70,
000058f6,
00003d97,
00001ec4,
000001a0,
00000987,
0000017a,
000001c8,
0000021c,
00000090,
00000aab,
00002366,
0000165f,
00002188,
00003548,
00000cc7,
ffff97ce,
ffffd69d,
00002f83,
00001177,
00005a23,
ffffc81d,
ffff5898,
ffffdf4f,
0000154f,
0000cf24,
00002736,
fffff4c9,
0000ecec,
0000992b,
00004802,
0000284c,
00000da0,
0000029e,
000000a5,
0000042b,
000000d5,
0000019a,
fffffac6,
ffffe730,
000011df,
ffffd441,
00000dc5,
ffffd78f,
ffffe986,
ffff7fc4,
ffffb87f,
ffffebd1,
00001168,
ffffd39d,
000008e3,
ffff8f64,
00000976,
00000eb0,
00005424,
ffffbdf1,
fffffb4f,
00001f05,
00000183,
0000136f,
00003e35,
00000661,
000003ff,
00000196,
0000029b,
000003f9,
fffff6a2,
ffffca8b,
ffffee0e,
ffff880f,
00003ee8,
00004c9a,
ffffa137,
00001d5f,
00005d55,
ffffdda2,
00008dad,
0000072c,
000060ed,
fffffde8,
fffff457,
ffffd287,
0000800e,
00002c77,
00001c84,
000079f3,
00005756,
000032db,
000062c5,
0000228b,
000013bb,
00000269,
000002fd,
ffffedce,
ffffcffb,
ffff8ff7,
ffff9414,
fffffb9b,
00001398,
ffff9667,
ffffcf53,
000032af,
ffffc5d0,
00006dee,
ffffa6e1,
ffffb6a9,
00004ea5,
0000050d,
000019e6,
fffff820,
ffffa50d,
ffffef9a,
000021a3,
fffff1f6,
000091c0,
0000c583,
00006f4b,
000019dd,
00000d7a,
0000009f,
fffffbd9,
fffff0c6,
ffffd182,
ffff7794,
ffff3a97,
000089fe,
00000ace,
ffffca25,
0000537e,
ffffa344,
fffff13a,
0000459a,
ffffdcb5,
ffff626f,
ffffa8f7,
ffffb92f,
ffff701e,
000038a5,
0000149e,
ffffcca1,
0000412d,
ffffe9bf,
00003a97,
00012cdd,
00007565,
00000c98,
000005ec,
00000197,
000002b1,
ffffffa1,
00000c46,
ffffa403,
ffff313e,
00002990,
0000005e,
ffff6598,
ffff92f3,
ffff9803,
ffffa3ed,
00001d9e,
000088ba,
00000ac2,
ffffe26e,
ffffb167,
fffffddc,
00000eed,
00002a04,
000061e2,
00004f02,
ffffba2d,
00008789,
000128f3,
000065d4,
000016c0,
fffff195,
000000e5,
00000403,
fffffe49,
00003513,
0000493e,
ffffb3d7,
ffffec04,
ffffcb2c,
ffff4289,
ffffc149,
ffff7ae6,
000059d0,
0000b6b6,
00008772,
0000947b,
00000500,
ffffd7ac,
ffffe697,
00002af9,
ffffe874,
00000d1c,
00000a5c,
00002463,
00009a16,
00005441,
00004c3f,
00001a58,
fffffc4d,
fffffff1,
000006c1,
ffffffd5,
00004a33,
00008289,
fffffd4c,
ffffe74d,
0000b2a7,
000010c0,
00005f41,
000151e0,
00013b73,
00011f6a,
0000ebec,
00010d00,
0000190b,
ffff8c20,
0000aae4,
ffffa31e,
ffffc1cb,
00007b58,
0000161b,
000046ba,
00006275,
0000767a,
00002dc8,
00002315,
0000019d,
000002b8,
00000137,
000001c1,
00004817,
000078eb,
0000aab2,
0000562f,
0000ca49,
0000d366,
00020098,
00026344,
00016840,
00012a64,
0000dc2d,
00010139,
00006336,
000032e7,
0000683d,
00003043,
fffff3f9,
0000215b,
fffffd20,
00005332,
00007c43,
00004f9d,
00001cb5,
00001b29,
000003c1,
00000341,
00000049,
000000c0,
000047c3,
00009c1d,
00015bc0,
00018b60,
0001fc2b,
00029aaa,
0001ebe6,
0000ca35,
0000c17a,
00003e50,
ffff9730,
000069f5,
00006c8b,
000003a2,
00007d26,
ffffedf2,
ffffed0e,
00003d1e,
ffffa8d9,
fffffbda,
0000233c,
fffff50f,
ffffb895,
ffffe102,
000002cd,
00000328,
0000046d,
00000190,
00004b9a,
00008316,
0001a108,
00020252,
00016539,
000179fc,
ffffa72a,
ffff680d,
00003f77,
0000178f,
00004bd4,
000030a1,
0000d9b6,
0000229f,
00004c47,
ffffa959,
00002887,
00006126,
00003664,
00003209,
00006598,
ffffb550,
ffff7be2,
ffffaa95,
00000302,
00000287,
fffffe75,
fffffbf3,
00001c62,
00009369,
0001143c,
0000e766,
00000c8b,
ffffda3f,
ffff9a59,
00000da2,
ffffc55b,
ffffc4f2,
ffff3d03,
000002b2,
00001e46,
00003984,
000025be,
00001f8c,
00004140,
0000ba02,
00005152,
0000a3f5,
00002caf,
fffff791,
ffff622f,
ffffb62c,
fffffb9e,
000001b1,
00000005,
fffff97f,
00001922,
000094bc,
000056ea,
ffff864e,
ffff50f7,
ffff7531,
ffff3b0d,
ffff7530,
ffffe657,
00002927,
ffff2438,
000069d9,
fffff690,
fffffb5b,
fffff68d,
00003828,
ffffde23,
ffffed83,
ffffdaff,
00001989,
000026b6,
fffff185,
ffff435b,
ffff9986,
fffff5cd,
00000064,
00000158,
000005ea,
0000198d,
000035df,
ffffe8b3,
ffff639d,
fffff27a,
ffffcc49,
000029b0,
ffff6dab,
000037d7,
ffffadb5,
ffff6a8b,
ffffb1f5,
fffff803,
000021b8,
00002055,
ffffea93,
0000bd58,
00004875,
ffffddf0,
ffffee47,
ffffe1fd,
ffff4295,
fffed9b9,
ffffb077,
fffffc7f,
00000391,
00000040,
00001fa1,
00006945,
fffff469,
ffffb8e0,
00000e65,
ffffa413,
ffff4c51,
ffffaa34,
ffff9750,
ffff947e,
ffff4a17,
ffffd3a0,
ffffae44,
fffffd6f,
00002389,
ffff8cea,
ffffffc6,
00007a70,
000009f2,
000011f8,
fffff99f,
ffff7bf1,
ffff3884,
ffff4f39,
ffffe14a,
fffffb07,
0000005c,
000005a9,
00002672,
00007d70,
ffffd3f8,
000006f4,
00005e91,
ffff9dbf,
00002050,
fffebc56,
00002eed,
ffffc748,
ffffdf97,
ffff3cdf,
000079db,
00009665,
00001054,
0000137a,
00004a85,
00006647,
000051b0,
00006d97,
fffff185,
000004a5,
ffff9367,
ffff9dc2,
fffff653,
00000134,
00000201,
00001001,
0000168f,
fffffa91,
ffff4fa5,
ffffea3a,
ffff37fb,
ffff93d5,
ffffd5a8,
0000280a,
ffffe9c7,
ffff8dcd,
ffff752d,
ffffb29b,
ffff58d0,
fffffd31,
00005c82,
000093f4,
00001956,
ffff7563,
ffffd905,
ffffd634,
ffffcd5c,
ffff773a,
ffff5b13,
ffffa506,
fffff42e,
00000140,
00000213,
000003b0,
00000d7f,
ffffd859,
ffff5c01,
ffff9b86,
0000076c,
0000bca4,
00004699,
ffff8f85,
ffffbb84,
00005cea,
000002c1,
ffffcae3,
ffffcbf7,
00002aef,
ffff66aa,
ffff97d1,
ffffa603,
ffffadfe,
000024d1,
ffffe38b,
ffffa8e1,
ffff48e1,
ffff5385,
ffffcbb3,
fffff52d,
00000077,
00000123,
00000297,
00000b3c,
000004fb,
ffffc2e9,
ffffa7d6,
00003ea7,
ffff9607,
fffff47c,
fffffad2,
ffffeff3,
000037fa,
ffffd479,
ffffcc08,
fffffa4e,
00008750,
000035cc,
00003d10,
ffffce67,
000039a5,
ffffbecb,
ffffdd4c,
ffff48ac,
ffff95e6,
ffffa293,
00001129,
fffffda5,
00000326,
00000440,
00000482,
00000909,
00004ae5,
00001016,
ffffc845,
ffff7df6,
ffffd514,
00006536,
ffffe17e,
00006c60,
fffff288,
000036ad,
ffffddda,
00002fc1,
000001a6,
0000813a,
0000b171,
fffff4a1,
00002eda,
00007e3d,
ffffe0dc,
ffff4ea9,
ffffa4fc,
ffffe3d6,
00000aab,
fffffee9,
00000135,
0000048e,
000003e2,
000006d0,
0000581d,
000005af,
ffffe135,
00005128,
00002f7a,
ffffec99,
ffffe7b2,
000024a5,
0000060f,
00001e81,
ffffcd16,
ffff7bad,
ffffa865,
00002b4b,
ffffc0e6,
ffffc11f,
ffffae27,
ffffd388,
ffffe9ea,
ffffdc3b,
ffffe7f6,
ffffe7ad,
fffff9b7,
00000112,
0000028c,
00000363,
0000023d,
000003e1,
fffff9b7,
00000233,
00004dbe,
00003936,
00005108,
00006014,
00005082,
00008bcf,
00006d19,
00000b45,
00002aa1,
0000169a,
ffffdb9c,
fffff3a5,
00000018,
00008425,
000089b3,
00003809,
0000569b,
00002790,
00001052,
000002ad,
000002a1,
00000240,
000003ce,
00000170,
000003fe,
000001c9,
00000032,
000012db,
000044ca,
00004646,
00000fc3,
ffffeecf,
ffffdbd8,
ffffedcf,
00000b52,
000014f1,
00001a2b,
00001089,
000012c3,
00002db0,
00002b50,
000017ed,
00000bdd,
00000e8a,
00002aa9,
00001ccb,
00000373,
000002f9,
000000e1,
0000030c,
000000be,
000003d9,
0000010c,
0000048d,
000000b7,
00000073,
000001a8,
00000098,
0000033a,
0000045f,
fffffd2b,
fffffd02,
fffffe56,
fffffc23,
fffffc85,
fffff976,
fffffee0,
fffffed7,
00000191,
00000307,
00000422,
000001f7,
000003de,
000021b2,
000002cb,
00000267,
00000387,
0000019d,
000000ce;