00000000000000000000000001100010
00000000000000000000000001010111
00000000000000000000001110010110
00000000000000000000001111101101
00000000000000000000001011010001
00000000000000000000000001111101
00000000000000000000001001011011
00000000000000000000001111111110
00000000000000000000001011101100
00000000000000000000001001010011
00000000000000000000010000010001
00000000000000000000001000110111
00000000000000000000000001101001
00000000000000000000000101100111
00000000000000000000010001101101
00000000000000000000000100000110
00000000000000000000001010011111
00000000000000000000001011110001
00000000000000000000001111111000
00000000000000000000001110011011
00000000000000000000000100110010
00000000000000000000001110100110
00000000000000000000001110111001
00000000000000000000010001000110
00000000000000000000001011011101
00000000000000000000000111110110
00000000000000000000010000100001
00000000000000000000000101100111
00000000000000000000000010010111
00000000000000000000001011111100
00000000000000000000001111110111
00000000000000000000000011111010
00000000000000000000001101010010
00000000000000000000001011111011
00000000000000000000000010001101
00000000000000000000000111011010
00000000000000000000001101100111
00000000000000000000001001010101
00000000000000000000000011001011
00000000000000000000000111010010
00000000000000000000001010000100
00000000000000000000001000111100
00000000000000000000010010001110
00000000000000000000000101010111
00000000000000000000000101001000
00000000000000000000010000010001
00000000000000000000001000011000
00000000000000000000010001010100
00000000000000000000001110010010
00000000000000000000001010000110
00000000000000000000001100101011
00000000000000000000001110000011
00000000000000000000000000000000
00000000000000000000000111101011
00000000000000000000001100101111
00000000000000000000001011011101
00000000000000000000001111100001
00000000000000000000001010111110
00000000000000000000010001000101
00000000000000000000010010001000
00000000000000000000000100101110
00000000000000000000001110100000
00000000000000000000000100110010
00000000000000000000010100100111
00000000000000000000001001101000
00000000000000000000000111110110
00000000000000000000010001111101
00000000000000000000010000101000
00000000000000000000100101100111
00000000000000000000010101001100
00000000000000000000001111001100
00000000000000000000011000000011
00000000000000000000010010100011
00000000000000000000010011011111
00000000000000000000010111100111
00000000000000000000100000100110
00000000000000000000010110100000
00000000000000000000011011111010
00000000000000000000011110011110
00000000000000000000010110101000
00000000000000000000001100101001
00000000000000000000000101100111
00000000000000000000001011010000
00000000000000000000001010111010
00000000000000000000001101011110
00000000000000000000000101101101
00000000000000000000000011110011
00000000000000000000001011010000
00000000000000000000010000011100
00000000000000000000000011100011
00000000000000000000001011101101
00000000000000000000000000110001
00000000000000000000001000110110
00000000000000000000001110101010
00000000000000000000000010010001
11111111111111111111111111000101
00000000000000000000000101101101
00000000000000000000000111101100
00000000000000000000000111100000
00000000000000000000100111000010
00000000000000000000110010100100
00000000000000000000101100010110
00000000000000000000110000100000
00000000000000000000100011000011
00000000000000000000111000010101
00000000000000000001000010010110
00000000000000000000111000001101
00000000000000000000101110101110
00000000000000000000100011110001
00000000000000000000001000001110
00000000000000000000010011000110
00000000000000000000010000000111
00000000000000000000001010111011
00000000000000000000001010011101
00000000000000000000000111110101
00000000000000000000000110100000
00000000000000000000010100001101
00000000000000000000010000101101
00000000000000000000010000110111
00000000000000000000000110000000
00000000000000000000001011111011
11111111111111111111110011100110
11111111111111111111100111011010
11111111111111111111011010101100
11111111111111111111001000011001
11111111111111111110110001101011
11111111111111111110100100011100
11111111111111111110111001011111
11111111111111111111011011101111
11111111111111111111011000110111
11111111111111111111001000011000
11111111111111111111110001111100
00000000000000000000101100001011
00000000000000000001001011011111
00000000000000000000110011100100
00000000000000000000111001001101
00000000000000000000100110011010
00000000000000000000011000101110
00000000000000000000010100110010
00000000000000000000000100110011
00000000000000000000000010010001
00000000000000000000010000111000
00000000000000000000000001001011
00000000000000000000001101110101
00000000000000000000001100000100
11111111111111111111111111001010
11111111111111111111101011100101
11111111111111111111110001101110
11111111111111111111011101101000
11111111111111111111000110110001
11111111111111111111000000100100
11111111111111111111000111010010
11111111111111111111000100010011
11111111111111111110111010101011
11111111111111111110001000000010
11111111111111111101100000011110
11111111111111111101010011011010
11111111111111111110000010000100
11111111111111111110010111010111
11111111111111111111100110111011
00000000000000000000010010011101
00000000000000000000101010010110
00000000000000000000001011010101
11111111111111111111111110010100
00000000000000000000000000111110
00000000000000000000001100001000
00000000000000000000010011110100
00000000000000000000010011111111
00000000000000000000001010011101
00000000000000000000010001011001
00000000000000000000000010101100
00000000000000000000001101011100
00000000000000000000001111011111
11111111111111111111110111101111
11111111111111111111110111001110
11111111111111111111110101010000
11111111111111111111101000010111
11111111111111111111011000000011
11111111111111111111110100100101
00000000000000000000010001001011
00000000000000000000001110000100
11111111111111111111100010101010
11111111111111111110110101000111
11111111111111111110101110110110
11111111111111111111001111110010
11111111111111111111010111011110
11111111111111111111001101010100
11111111111111111111101000011110
00000000000000000000000100000000
11111111111111111111110101100110
11111111111111111111010010001100
11111111111111111110111101000101
11111111111111111111010101011001
11111111111111111111111000111111
11111111111111111111111101110011
00000000000000000000010000010110
00000000000000000000000110101111
00000000000000000000000010001101
00000000000000000000001101010111
00000000000000000000001101010000
00000000000000000000001011110110
00000000000000000000001101111000
11111111111111111111111100110111
00000000000000000000001000000100
11111111111111111111010000000000
11111111111111111111010000111101
11111111111111111111010010110000
11111111111111111111111100100110
00000000000000000000001001000001
11111111111111111111100100110010
00000000000000000000000000101101
00000000000000000000101110111001
00000000000000000000001101011010
11111111111111111111110010010010
11111111111111111110111000011011
11111111111111111110101111100110
11111111111111111110111101111011
11111111111111111110101101110010
11111111111111111110010011010111
11111111111111111110101001011100
11111111111111111110110110101010
11111111111111111111001101001110
11111111111111111111110010000000
00000000000000000000001101111011
00000000000000000000000101110111
00000000000000000000001100010011
00000000000000000000000110110011
00000000000000000000001000111010
00000000000000000000010110101011
11111111111111111111110100110100
11111111111111111111111110100011
11111111111111111111010001010000
11111111111111111111011011110001
11111111111111111110111011001110
11111111111111111111010100110001
11111111111111111111111010111111
00000000000000000000100110010001
11111111111111111111110011011011
11111111111111111111010000001100
11111111111111111111011101010010
11111111111111111111011101011010
11111111111111111101111111011010
11111111111111111101010000010000
11111111111111111101001111110110
11111111111111111101100101100010
11111111111111111101111110101100
11111111111111111110000001101011
11111111111111111110010110010000
11111111111111111110100011111111
11111111111111111111000011001011
11111111111111111111101111111011
00000000000000000000000100110100
00000000000000000000001100010100
00000000000000000000000110001000
00000000000000000000000010111010
00000000000000000000001100110111
11111111111111111111110101111010
11111111111111111111110001101011
11111111111111111111111011100010
11111111111111111111100100101001
11111111111111111111010101011110
11111111111111111110110000100100
11111111111111111111001111001101
11111111111111111111110001111100
11111111111111111111101001011001
11111111111111111110011010111010
11111111111111111101101000111100
11111111111111111101010000100011
11111111111111111101001010110101
11111111111111111101001100011011
11111111111111111100011111011000
11111111111111111101001010110001
11111111111111111101110101001110
11111111111111111110000010001101
11111111111111111110001000010011
11111111111111111110110100110010
11111111111111111110101110111110
11111111111111111111001101100110
11111111111111111111110000001011
00000000000000000000000110111010
00000000000000000000001111011001
00000000000000000000000011110001
00000000000000000000001011011010
11111111111111111111111011000011
00000000000000000000001000111011
11111111111111111111110101010111
11111111111111111111110100010011
11111111111111111111100100111011
11111111111111111110110111000111
11111111111111111110011101101011
11111111111111111111001100011010
11111111111111111110110111101011
11111111111111111110001101001010
11111111111111111101000111001111
11111111111111111101100001001111
11111111111111111100101010101011
11111111111111111101110011010111
11111111111111111110011100001111
11111111111111111110001101110111
11111111111111111110000000100101
11111111111111111110010101001000
11111111111111111110010110110111
11111111111111111111001101010111
11111111111111111111111000001100
11111111111111111111001011111101
11111111111111111110110001110000
11111111111111111111110101101000
00000000000000000000000100010010
00000000000000000000001111010000
00000000000000000000000000101011
00000000000000000000001110011100
11111111111111111111111101101000
00000000000000000000010100011000
00000000000000000000011110110100
00000000000000000000001001011100
00000000000000000000001101110100
11111111111111111111001000011100
11111111111111111111000001101001
11111111111111111111001000000101
11111111111111111110100011101001
11111111111111111110010100110011
11111111111111111110011100000001
11111111111111111110101000010011
11111111111111111110010011001010
11111111111111111110100110100010
11111111111111111111001011001011
11111111111111111111011011111000
11111111111111111110101011111101
11111111111111111110111100100010
11111111111111111110111100110000
00000000000000000000011010100111
00000000000000000000110001101101
00000000000000000000000010101010
11111111111111111111001011000100
11111111111111111111110101011001
00000000000000000000000000001110
00000000000000000000000001100100
00000000000000000000001100011111
00000000000000000000000101010101
00000000000000000000010010001001
00000000000000000000111100011101
00000000000000000001000000100101
00000000000000000000100100101100
11111111111111111111100100011001
11111111111111111111001001011011
11111111111111111111000100011000
11111111111111111101101011110011
11111111111111111101111001100110
11111111111111111100111110010001
11111111111111111101110101101111
11111111111111111110011010010010
11111111111111111111010101100000
11111111111111111111001101100010
00000000000000000000011001110011
00000000000000000000011110101001
11111111111111111111111101001010
11111111111111111111111010010111
00000000000000000000000011100000
00000000000000000001011000101110
00000000000000000001110000111101
00000000000000000000100000111110
11111111111111111111100110100101
11111111111111111111110111111100
00000000000000000000010010000101
00000000000000000000000110001001
00000000000000000000001010100001
11111111111111111111111110000111
00000000000000000000001111111100
00000000000000000000100101000000
00000000000000000000101011100110
00000000000000000000001100010011
11111111111111111110110010111011
11111111111111111110110011100110
11111111111111111101111100000110
11111111111111111100101001100010
11111111111111111100110000110111
11111111111111111110000000000000
11111111111111111101111001110101
11111111111111111110001110000101
11111111111111111110101011011101
11111111111111111111011001101011
11111111111111111111011010100001
11111111111111111111110001000110
00000000000000000000000000111010
11111111111111111111110001010100
11111111111111111111101100000000
00000000000000000000111011000110
00000000000000000001110011000010
00000000000000000000100101110010
00000000000000000000000010111010
00000000000000000000000010011010
00000000000000000000000011010101
00000000000000000000000001010010
00000000000000000000000010100010
00000000000000000000000000011100
00000000000000000000001011011101
11111111111111111111111011010110
00000000000000000000000011111010
11111111111111111111110011001110
11111111111111111110000010100000
11111111111111111101111111111000
11111111111111111100011011000100
11111111111111111100100010100110
11111111111111111110000011001110
11111111111111111101111000100010
11111111111111111101111110110111
11111111111111111101100101010100
11111111111111111101100001111000
11111111111111111110000100111011
11111111111111111101110101101011
11111111111111111110010100011100
11111111111111111110111010101110
11111111111111111111001101111100
11111111111111111111110011001000
00000000000000000000011000110011
00000000000000000000101111110111
00000000000000000000100101000010
00000000000000000000000000101101
11111111111111111111111001100111
00000000000000000000000010110101
00000000000000000000000111010010
00000000000000000000000110100010
00000000000000000000000110100000
00000000000000000000000111110011
11111111111111111111011011000101
11111111111111111111011011011000
11111111111111111110101111000101
11111111111111111101111000101101
11111111111111111101111101011010
11111111111111111101001101010111
11111111111111111101110101100010
11111111111111111110100001000010
11111111111111111101011011000110
11111111111111111100111110111011
11111111111111111100111110101111
11111111111111111100011011100010
11111111111111111101010000100001
11111111111111111101000101101111
11111111111111111110000000111011
11111111111111111110001011011011
11111111111111111111001110101110
11111111111111111111100101100010
11111111111111111111111000101001
11111111111111111111110100010001
00000000000000000000000111000011
11111111111111111111101011001111
11111111111111111111100011000010
11111111111111111111111010011101
00000000000000000000001111101100
00000000000000000000010000101110
00000000000000000000001011111011
00000000000000000000001000101001
11111111111111111111011111010010
11111111111111111111000010111111
11111111111111111110001110000111
11111111111111111110000011111111
11111111111111111110101011111000
11111111111111111110101111000110
11111111111111111110101110011001
11111111111111111110101011000000
11111111111111111101001101011011
11111111111111111011111110000111
11111111111111111011100110011101
11111111111111111100000010100101
11111111111111111100010101001100
11111111111111111100110010010000
11111111111111111101100001111100
11111111111111111101100101000110
11111111111111111110001101001101
11111111111111111110000010100010
11111111111111111110101011110100
11111111111111111110111100100101
11111111111111111111100100010010
11111111111111111111011001100110
11111111111111111111101101110100
00000000000000000000001100010100
00000000000000000000001010111001
00000000000000000000010000001011
00000000000000000000010111111001
00000000000000000000001111010010
11111111111111111111011100100010
11111111111111111110101100001110
11111111111111111110001101010011
11111111111111111110110101011001
11111111111111111111111000110100
11111111111111111111101100011110
11111111111111111110110101101111
11111111111111111111001101101101
11111111111111111110100010001000
11111111111111111101001110100101
11111111111111111101000001011010
11111111111111111100111101010001
11111111111111111100111110110100
11111111111111111101001000000010
11111111111111111101000000011000
11111111111111111110011110111000
11111111111111111110111000100100
11111111111111111110001011101110
11111111111111111110011111000100
11111111111111111110110000010101
11111111111111111111100001101011
11111111111111111111011011001010
11111111111111111111111100010101
00000000000000000000001100011010
00000000000000000000001000110100
00000000000000000000010001110110
00000000000000000000001011000101
00000000000000000000000010000010
11111111111111111111100101111111
11111111111111111110110001110101
11111111111111111110011000100100
11111111111111111110101010001111
11111111111111111111111001110011
00000000000000000000010111000000
11111111111111111111111001100110
11111111111111111111011010011111
11111111111111111111011010111001
11111111111111111110011000111011
11111111111111111101111011100100
11111111111111111110001011110101
11111111111111111101010110101000
11111111111111111101101000011010
11111111111111111110001000011010
11111111111111111111000101101000
11111111111111111110101010001011
11111111111111111110010000110011
11111111111111111110011101101100
11111111111111111110111011011101
11111111111111111110111010110101
11111111111111111111101100000110
00000000000000000000001011011011
00000000000000000000001011011111
00000000000000000000001011011110
00000000000000000000000010000110
00000000000000000000001101000001
11111111111111111111111011010111
11111111111111111111010011111010
11111111111111111111001011011101
11111111111111111110101001001100
11111111111111111110111100100000
11111111111111111111101010000001
00000000000000000000000100010100
11111111111111111111001011010010
11111111111111111110110101111010
11111111111111111111010011010111
11111111111111111101111000110111
11111111111111111110000100010101
11111111111111111101000111001000
11111111111111111101011100011100
11111111111111111101111011110001
11111111111111111101111000010001
11111111111111111110111010001001
11111111111111111111000111111110
11111111111111111111000010111110
11111111111111111110111101101011
11111111111111111110110000011110
11111111111111111110110011101101
11111111111111111111101001011000
11111111111111111111111001101110
11111111111111111111111111100011
00000000000000000000000100110010
00000000000000000000000001101110
00000000000000000000001110111000
00000000000000000000000011000011
11111111111111111111011010100001
11111111111111111111001000111001
11111111111111111110111100111110
11111111111111111110100100111101
11111111111111111111110010100000
11111111111111111111111101101000
11111111111111111111100101101011
11111111111111111111100001110010
11111111111111111111011101011000
11111111111111111110111111000111
11111111111111111110110001111010
11111111111111111110111001001110
11111111111111111110110110010011
11111111111111111110110010101000
11111111111111111110100101010111
11111111111111111111100011110100
11111111111111111111111111101011
11111111111111111111101000111101
11111111111111111111011010000000
11111111111111111111010010011101
11111111111111111111010101011001
11111111111111111111110100110011
00000000000000000000000010101100
00000000000000000000000100111110
00000000000000000000000111000000
00000000000000000000010001010101
11111111111111111111111111111101
00000000000000000000000001100010
11111111111111111111010010111010
11111111111111111111101100111000
11111111111111111111110000111000
11111111111111111111011000001011
00000000000000000000010100100010
00000000000000000000111100111110
00000000000000000000101101010010
00000000000000000000000110011101
00000000000000000000100101010011
11111111111111111111110010101000
11111111111111111111011101011111
00000000000000000000001001111000
11111111111111111111110001101101
11111111111111111111110111011100
11111111111111111111110011110001
11111111111111111111110100101001
00000000000000000000000011001010
00000000000000000000000000001000
11111111111111111111110011101111
11111111111111111111101111001110
11111111111111111111101011011110
11111111111111111111110101100011
00000000000000000000001010001101
00000000000000000000001000110110
00000000000000000000001110000111
00000000000000000000000110100111
00000000000000000000001011101001
11111111111111111111110101010111
11111111111111111111100100010111
11111111111111111111111100001000
00000000000000000000100101101111
11111111111111111111111000111010
11111111111111111111010000101101
11111111111111111111101000100000
11111111111111111111110001011111
11111111111111111111111100111111
00000000000000000000000011001011
11111111111111111111000001101001
11111111111111111111101010101011
00000000000000000000001001000111
11111111111111111111110101100101
00000000000000000000000011000001
00000000000000000000011101000110
00000000000000000000001100111001
00000000000000000000100011100100
00000000000000000000010000100010
00000000000000000000000000011010
11111111111111111111110110010001
11111111111111111111101101111111
00000000000000000000001101000000
00000000000000000000001110101000
00000000000000000000000100001010
00000000000000000000000011000111
00000000000000000000001010000100
00000000000000000000001100111101
00000000000000000000001000110101
11111111111111111111111100010001
11111111111111111111111011001100
00000000000000000000001010111001
11111111111111111111111001001001
11111111111111111111100110001110
11111111111111111111001101111111
11111111111111111110111010111000
11111111111111111111011010010011
11111111111111111110011010000111
11111111111111111110011100011001
11111111111111111110011110111010
11111111111111111111011101111111
11111111111111111111010110010001
00000000000000000000011110101001
00000000000000000000110010010001
00000000000000000000011101101010
00000000000000000000011101000000
00000000000000000000011001011111
00000000000000000000000010101001
00000000000000000000001101111111
00000000000000000000001000110010
00000000000000000000000100111110
00000000000000000000001001010011
00000000000000000000000100101001
00000000000000000000000011110111
00000000000000000000000110000001
00000000000000000000001010111000
00000000000000000000001010010101
00000000000000000000010011011101
00000000000000000000000000011100
00000000000000000000010000001011
00000000000000000000101010110101
00000000000000000000011010110001
00000000000000000000000000101101
00000000000000000000001111111101
11111111111111111111111101000101
11111111111111111111001010101100
11111111111111111110110101100001
11111111111111111111001000010110
11111111111111111111011111110110
11111111111111111111111100000000
00000000000000000000000000110110
00000000000000000000010101000001
00000000000000000000001101110100
00000000000000000000100001000000
00000000000000000000001101110111
00000000000000000000001100110111
00000000000000000000001111101001
00000000000000000000000010110101
00000000000000000000000001001101
00000000000000000000000011011100
00000000000000000000001000110011
00000000000000000000000110100001
00000000000000000000001100111000
00000000000000000000001101011101
00000000000000000000001010111110
00000000000000000000000000100010
00000000000000000000000001100100
00000000000000000000001010010010
00000000000000000000011000000100
00000000000000000000010011111111
00000000000000000000011000111101
00000000000000000000101110011010
00000000000000000000000010100010
00000000000000000000010001111101
00000000000000000000101001000010
00000000000000000000101010011011
00000000000000000000010101100010
00000000000000000000011111011111
00000000000000000000101001100111
00000000000000000000111110010011
00000000000000000000101001010111
00000000000000000000011100101011
00000000000000000000010101101111
00000000000000000000010011001001
00000000000000000000000011101010
00000000000000000000001100101000
00000000000000000000000100010011
00000000000000000000001110111101
00000000000000000000000000001000
00000000000000000000000110111010
00000000000000000000000000010101
00000000000000000000001000111011
00000000000000000000001101011100
00000000000000000000001011100001
00000000000000000000000000111100
00000000000000000000000110001010
00000000000000000000010101011100
00000000000000000000001001000100
00000000000000000000000110001010
00000000000000000000000100010011
11111111111111111111110101000001
11111111111111111111111001111001
00000000000000000000001110111100
00000000000000000000011000110010
11111111111111111111111110000101
00000000000000000000001100000010
00000000000000000000100000001010
00000000000000000000110100110001
00000000000000000000011000111000
00000000000000000000001111010000
00000000000000000000010111110111
00000000000000000000010110110001
00000000000000000000001111011011
00000000000000000000000100100100
00000000000000000000001010011111
00000000000000000000010000010111
00000000000000000000000000010101
00000000000000000000001110110111
00000000000000000000001101001000
00000000000000000000000000011110
00000000000000000000000011100000
00000000000000000000001101011101
00000000000000000000001001010110
00000000000000000000010000100001
00000000000000000000001000111101
00000000000000000000001101110000
00000000000000000000000000011001
11111111111111111111111010001011
11111111111111111111111010011001
00000000000000000000000011100100
00000000000000000000001000010100
11111111111111111111111101011001
11111111111111111111111000100110
11111111111111111111111101100110
00000000000000000000001101010001
00000000000000000000000111111101
00000000000000000000000111011100
00000000000000000000000010101101
00000000000000000000001011011001
00000000000000000000010100011000
00000000000000000000001010011001
00000000000000000000000111101111
00000000000000000000010000101001
00000000000000000000000101000110
00000000000000000000001100010110
