00000000000000000000000100011001
00000000000000000000001110011000
00000000000000000000000000101100
00000000000000000000001101010101
00000000000000000000000100010011
00000000000000000000000100001110
00000000000000000000001001111111
00000000000000000000000010001000
00000000000000000000000010000110
00000000000000000000000101111011
00000000000000000000000001100001
00000000000000000000000001101011
00000000000000000000010110001010
00000000000000000000011101110011
00000000000000000000000000100111
00000000000000000000000001001000
00000000000000000000000010001101
00000000000000000000001100011100
00000000000000000000001011000011
00000000000000000000001111001100
00000000000000000000000100101100
00000000000000000000000010010011
00000000000000000000001001101011
00000000000000000000000011000001
00000000000000000000000001101000
00000000000000000000001001110100
00000000000000000000000011011010
00000000000000000000001011111001
00000000000000000000010000111100
00000000000000000000001111111111
00000000000000000000001011110101
00000000000000000000000011000011
00000000000000000000001100000111
00000000000000000000001100110000
00000000000000000000100000101100
00000000000000000000110001010001
00000000000000000000101110110000
00000000000000000000010110010010
11111111111111111111111111001100
00000000000000000000100001010010
00000000000000000001100011010010
00000000000000000001000111010101
11111111111111111110001111001110
11111111111111111111111101010010
00000000000000000000111000000010
00000000000000000000101011101011
00000000000000000000111100101111
00000000000000000000011110110100
00000000000000000000011000010110
00000000000000000000000101010110
00000000000000000000010110110101
00000000000000000000001011001011
00000000000000000000000111100001
00000000000000000000000111110100
00000000000000000000000101001000
00000000000000000000001001001010
00000000000000000000010001101000
00000000000000000000001000100011
00000000000000000000000010110101
00000000000000000000010000011001
00000000000000000000000100011010
00000000000000000000001110110101
00000000000000000000011011000010
00000000000000000001010001110100
00000000000000000010001000001101
00000000000000000011111000010000
00000000000000000100000111100101
00000000000000000011100101010100
00000000000000000011111000000001
11111111111111111110110111000010
00000000000000000001010011110000
00000000000000000100001110111001
00000000000000000110011011101111
00000000000000000111101000101001
00000000000000000111101001110100
00000000000000000101000011100010
00000000000000000011001011011001
00000000000000000011111010100110
00000000000000000001000100101010
00000000000000000000100100101011
00000000000000000000011100111001
00000000000000000000010111101000
00000000000000000000001100111011
00000000000000000000000010111011
00000000000000000000000110011001
00000000000000000000010010000100
00000000000000000000001100001101
00000000000000000000001001001110
00000000000000000000001001000101
00000000000000000000010101011001
00000000000000000000111000110001
00000000000000000011001011100110
00000000000000000111111001011100
00000000000000001001000111110101
00000000000000001100100111011001
00000000000000001011011010101011
00000000000000001011101000011011
00000000000000001101110110110000
00000000000000001101000110100010
00000000000000001011011000010010
00000000000000010001010110111000
00000000000000001110111000110100
00000000000000001011000011110010
00000000000000000011010100001101
00000000000000000001010010001111
11111111111111111111001110110010
00000000000000000000000010010110
00000000000000000010011110110110
00000000000000000001101011111111
00000000000000000000010100100011
00000000000000000000011011101001
00000000000000000000001110010000
00000000000000000000001001101000
00000000000000000000001001010110
00000000000000000000010000111110
00000000000000000000010001000001
11111111111111111111101000110100
11111111111111111111101100001111
00000000000000000000111000010010
00000000000000000100001110100010
00000000000000000111100110110110
00000000000000001110010100000110
00000000000000010001000101110110
00000000000000001000001001100000
00000000000000000110011010111010
00000000000000001000001101010001
00000000000000000010001101110001
00000000000000001000011111010000
00000000000000001101000010101010
00000000000000000100111000111011
00000000000000000100100101110110
11111111111111111000100101100101
11111111111111111011010111001010
11111111111111110111101111101110
11111111111111110111100111110011
11111111111111111011111000111111
11111111111111111110010110101001
00000000000000000011011110111000
00000000000000000001000010111100
00000000000000000000010101010101
00000000000000000000001100011001
00000000000000000000000000110000
00000000000000000000001001101111
00000000000000000000001010000111
00000000000000000000000101011110
11111111111111111111011100011100
11111111111111111111000110011000
00000000000000000001001111100111
00000000000000000101100011000001
00000000000000001010011110110010
00000000000000001010101110100010
00000000000000000100010111111110
11111111111111111000100001111001
00000000000000000010101010011111
11111111111111110100101101001010
11111111111111111110010001110101
00000000000000000111100011111000
00000000000000000101100111000100
11111111111111110101110010011101
00000000000000000010001101001100
00000000000000000111001001101011
00000000000000000011100100010001
11111111111111111100001100011101
11111111111111110111000001110100
11111111111111111011011101001111
00000000000000000100110101101101
00000000000000000000011110110111
00000000000000000000010100010110
00000000000000000000000000000010
00000000000000000000000011010101
11111111111111111111011111101110
00000000000000000000110101110010
11111111111111111111111001011100
11111111111111111111100000100110
11111111111111111000011011100000
11111111111111111010011111101001
00000000000000000100110110101000
00000000000000000010011010111100
11111111111111111111011001010100
11111111111111111011011101101001
00000000000000000000100111101101
00000000000000000000001000000001
11111111111111111100011010001000
11111111111111111101000110111101
11111111111111110101011101011100
00000000000000000001010111000000
00000000000000001010101000100100
00000000000000000010011011011101
11111111111111111001111010101111
11111111111111111110001001100101
00000000000000000011000111001110
11111111111111111100010111100111
11111111111111111011100110111111
00000000000000000110101100101011
11111111111111111110110001111110
00000000000000000000001000100101
00000000000000000000001111100100
00000000000000000000000011111100
11111111111111111110000011010100
11111111111111111101011110101010
11111111111111111111000101110110
11111111111111111111011011000110
11111111111111111100010111101101
11111111111111111100100100010111
00000000000000000011101110110111
00000000000000000111001000000000
00000000000000000000010001101100
00000000000000000111000010011111
11111111111111111001011111101100
11111111111111111010010110000101
11111111111111111100011110011011
00000000000000001101011001011111
11111111111111111100011110101101
11111111111111111011010000000111
00000000000000000011000101111111
11111111111111111001001000011100
00000000000000000001001111110111
11111111111111111100111000011001
00000000000000001000011111011000
00000000000000000000100111011011
11111111111111111100100110110010
00000000000000000001010100001111
11111111111111111101000001111010
11111111111111111111110110010111
00000000000000000000000110110001
11111111111111111111111010000011
11111111111111111101101000011011
11111111111111111100000101001010
11111111111111111111011011001000
11111111111111111111010010001010
11111111111111111111011111100110
00000000000000000100101000100011
00000000000000000000000100100110
11111111111111111100011001000111
00000000000000000101010000100010
11111111111111111111100011001110
00000000000000000011100111101111
00000000000000000001011110100011
11111111111111111011110100000010
11111111111111111001111010011101
00000000000000001000010001111010
11111111111111111100011100000011
11111111111111111001000000111101
11111111111111111111000110010010
00000000000000000000101000110001
00000000000000000010000100011000
00000000000000000101011110111111
00000000000000000000101011001101
11111111111111111110010111001001
11111111111111111110100101110110
00000000000000000000011111000001
00000000000000000000101011010111
00000000000000000000001111111111
11111111111111111111110111110101
11111111111111111111011100111010
11111111111111111011101000110111
11111111111111111101110101001001
00000000000000000010101001000100
00000000000000000001111000110110
11111111111111111000110100110000
00000000000000000111000010110101
11111111111111111100100001010001
00000000000000000001100001001011
11111111111111111101111100010000
11111111111111110111010101111011
11111111111111111110101000010110
11111111111111111101001000110000
11111111111111111000011011000110
11111111111111111100000010100110
00000000000000000000110001001111
11111111111111111100100001101101
11111111111111111100111011011010
00000000000000000000101111000010
00000000000000000001000100100000
11111111111111111111100101100011
00000000000000000111010111101001
00000000000000001000111110110011
00000000000000000111100101000101
11111111111111111111011100011001
11111111111111111011101001010100
00000000000000000000010000111111
00000000000000000000000010100001
11111111111111111111010101010000
11111111111111111100100110101001
11111111111111111110010000001111
00000000000000000100011111101100
00000000000000000000010100101101
11111111111111110101011110111000
00000000000000000000110001100110
11111111111111111001100010100110
00000000000000000100110001000010
00000000000000000011000010001110
11111111111111111100100100101001
11111111111111111110100111101011
00000000000000000000010110001000
11111111111111110010010101001100
11111111111111111001111111011100
11111111111111110011111000100011
11111111111111111001011110011001
11111111111111111110111101111011
11111111111111111101001100010001
11111111111111110111101111000001
00000000000000000000000010011000
00000000000000001011111100111110
00000000000000000110010001101100
00000000000000000001011110101101
00000000000000000000101101100111
11111111111111111111001011111011
00000000000000000000000000000010
11111111111111111111111010011110
11111111111111111111001100000011
11111111111111111100011011111100
11111111111111111100101000011000
11111111111111111111101000101101
11111111111111111100101001000110
00000000000000000000011110111011
00000000000000000000101000101011
11111111111111110111011110101001
00000000000000000001011111110011
11111111111111111111100000001100
00000000000000001100111011001001
11111111111111111111101000101010
00000000000000000000000010000000
11111111111111110101000010010110
11111111111111110111010111101000
11111111111111111001100110110000
11111111111111111000001001010001
00000000000000000110111111010010
11111111111111110110001110111111
11111111111111111001110111001101
11111111111111111111011100010100
00000000000000001010011000001011
00000000000000001001101001110000
00000000000000000001101111010101
00000000000000000001010101111011
11111111111111111111011011101011
00000000000000000000010000011010
00000000000000000000001011000111
11111111111111111111110111001100
11111111111111111111110110111010
11111111111111111011100010011100
00000000000000000100000010101111
00000000000000000001100101111001
11111111111111111110111010100111
11111111111111111110100101110011
00000000000000000100001000110000
11111111111111111110011100000011
11111111111111111101110111110110
00000000000000000110100101011100
11111111111111111111011101101011
11111111111111111101001100111110
11111111111111101111100011010110
11111111111111110111101000010010
11111111111111111101111010000011
11111111111111110000100000000110
11111111111111110111011011011010
11111111111111110111011100001101
11111111111111111101010111011100
00000000000000000000001111010011
00000000000000001010011100010011
00000000000000001100000110010010
00000000000000000000011011011011
00000000000000000000111010001010
11111111111111111111001101110011
00000000000000000000001010110100
00000000000000000000001011001101
00000000000000000000000111000000
11111111111111111111110111101000
11111111111111110110011010000100
11111111111111111101000010111010
00000000000000000001000000010101
11111111111111111010110011100010
11111111111111111010101011011010
00000000000000000110111011011011
11111111111111111000011010100011
00000000000000000001011111011110
00000000000000000001111011000010
00000000000000000011001011000001
11111111111111110011001000011101
11111111111111110011101010010110
11111111111111111000000001101111
11111111111111110101101000000010
11111111111111111000111000001010
11111111111111111101111100110010
00000000000000000000100100010010
11111111111111110111101010111001
11111111111111111011011110011010
00000000000000000110101101111000
00000000000000000100000110111100
11111111111111111110110101101000
00000000000000000000101001010110
00000000000000000000010011111010
00000000000000000000000100000000
00000000000000000000001101111011
11111111111111111111111101111100
11111111111111111111000111101101
11111111111111110101100101010011
11111111111111111011011100101011
11111111111111111111010101110100
11111111111111111110101011010000
11111111111111111100011110101111
11111111111111111111000111111000
11111111111111111111101110001000
00000000000000001100000011100100
11111111111111111110001011010100
11111111111111111011100011111001
11111111111111111011111011011001
00000000000000000000011110101000
00000000000000000001000010010110
11111111111111111000001001000111
11111111111111111110010100110000
11111111111111110011100001011100
11111111111111110111111111000000
11111111111111111111011110111000
11111111111111111110101011010010
00000000000000000011011110001011
00000000000000000100010000110110
00000000000000000000101010001011
11111111111111111111110110110110
00000000000000000000001110001110
00000000000000000000001110011011
00000000000000000000000010111011
11111111111111111111111100010011
11111111111111111100101101010110
11111111111111111001100001111011
11111111111111111010100110010100
11111111111111110111111001010100
11111111111111111100000010011000
11111111111111111011001111110101
11111111111111111101100010101100
00000000000000000010011101000100
00000000000000000111111111010101
11111111111111111010101001001101
11111111111111111000111110010011
11111111111111111100111111100100
11111111111111111000011010111011
11111111111111111011010010100100
11111111111111111101001110101110
11111111111111110111000111011000
11111111111111111011101110011101
00000000000000000110010101000110
00000000000000000010010000100010
00000000000000000011101011111011
00000000000000000010001111101011
00000000000000000110100101001111
00000000000000000010111010110010
11111111111111111111011100011000
00000000000000000000000101110000
00000000000000000000000000110101
00000000000000000000000010010101
11111111111111111111010011100100
11111111111111111101100001010100
11111111111111111101101101111111
11111111111111111001101100001100
11111111111111110111010011000010
11111111111111111001101100000101
11111111111111111110110101010100
00000000000000000000110101010011
00000000000000000111001100010110
00000000000000000001000000010101
11111111111111111011010010001101
00000000000000000000111111000111
11111111111111111100100110011010
11111111111111111011101111001111
11111111111111111110110100101110
11111111111111110100010110010001
11111111111111111010111010101000
11111111111111111111010101011101
11111111111111110101101111100101
00000000000000000001101000111100
11111111111111111111011100001101
00000000000000000101101000011111
00000000000000000110011001000111
00000000000000000000101111101001
11111111111111111111100100110101
00000000000000000000000011001111
00000000000000000000000000011100
00000000000000000000001101010010
11111111111111111111011000000111
11111111111111111101001011100111
00000000000000000010111001110101
11111111111111111101000111000110
11111111111111111111010000011111
00000000000000000001001011011100
00000000000000000001011011010000
11111111111111111100011100001001
00000000000000000111010101110110
00000000000000001001011100100110
00000000000000000000101110001101
11111111111111111001110110001111
11111111111111110111010110100100
11111111111111111000011101000000
11111111111111110111101111110110
11111111111111111010010100101110
11111111111111111000101011011010
00000000000000000100110110011100
11111111111111111110001100001101
11111111111111111000101011110001
11111111111111111011000110100001
11111111111111111101101110110001
00000000000000000000001010111110
11111111111111111110110100101000
11111111111111111110110110100111
00000000000000000000000001000000
11111111111111111111111111100101
00000000000000000000000001110111
11111111111111111111111100100000
11111111111111111110101001111011
00000000000000000100101000000101
00000000000000000101000010101100
00000000000000000111000010000111
00000000000000000110100000010011
11111111111111111010000100110100
11111111111111111011110110001110
00000000000000000010010000111110
11111111111111111110010011111001
11111111111111111111001110011001
11111111111111111001110001111011
11111111111111110100111110100011
00000000000000000010000000001010
11111111111111111001011111110101
11111111111111111110101010110111
11111111111111110101101101110110
11111111111111111110111000111011
00000000000000000111011001111001
00000000000000000111111011000001
00000000000000000011111101001111
00000000000000000100010101000001
00000000000000000111011101010101
00000000000000000000111111011100
00000000000000000000001001000101
00000000000000000000010000001111
00000000000000000000001000001010
00000000000000000000010010010001
00000000000000000000100100110110
00000000000000000000011100101111
00000000000000001000000100100101
00000000000000001000101010100110
00000000000000001000011000111010
00000000000000000111010011010111
00000000000000000101010111011111
00000000000000000011000110110011
00000000000000000110011011001000
00000000000000000001101111110110
11111111111111110111101001010001
11111111111111110110111110100001
11111111111111111010111100101100
11111111111111111101110010100000
00000000000000000000111110100011
00000000000000000110110111100010
00000000000000001000010011011111
11111111111111111100011000110011
00000000000000000111000001011101
00000000000000001110101011100110
00000000000000001011110000000001
00000000000000001101001101110100
00000000000000000111010011101010
00000000000000000000010001001111
00000000000000000000000100110010
00000000000000000000010001000101
00000000000000000000000010011100
00000000000000000000000101010101
00000000000000000000110011111001
00000000000000000100000000101011
00000000000000001110110011001110
00000000000000001010101100010011
00000000000000001010001011111011
00000000000000010011010111111000
00000000000000011000010100001110
00000000000000010001011100001100
00000000000000010101100011100101
00000000000000100000001110111100
00000000000000010101101010110100
00000000000000001001101101110011
00000000000000001010010000101011
00000000000000001101000011110001
00000000000000001000111110001100
00000000000000001111111000111100
00000000000000010000011101110000
00000000000000000000101011010011
00000000000000000101111111001111
00000000000000001110100011111100
00000000000000010101001110111001
00000000000000001101101011101100
00000000000000000000011100011110
00000000000000000000100110100111
00000000000000000000000110101000
00000000000000000000010001010010
00000000000000000000000111011011
00000000000000000000001000010011
00000000000000000001010110000010
00000000000000000011010010111011
00000000000000001000111011000011
00000000000000001001011011100011
00000000000000001110100110000001
00000000000000001110100100011111
00000000000000000110011010110011
00000000000000010001011011110001
00000000000000001111001000000001
00000000000000010101101111100011
00000000000000010110011010111000
00000000000000001011100011010010
00000000000000001011111110101000
00000000000000001000010111111011
00000000000000000100001001001000
00000000000000001111000001011111
00000000000000001000100100101011
00000000000000000010010111001100
11111111111111111111010101010010
00000000000000000110010000101001
00000000000000010011011101000100
00000000000000001000011001101000
11111111111111111111000010011111
00000000000000000000101101010100
00000000000000000000010101010101
00000000000000000000001000111100
00000000000000000000010000000101
00000000000000000000010000111111
00000000000000000001001000111001
00000000000000000010010011010101
00000000000000000000110101100111
11111111111111111110101110110111
00000000000000000111110100011101
11111111111111111110101000101110
11111111111111111110111110101011
11111111111111111010100111100000
11111111111111111101000111101011
11111111111111111111101011001011
00000000000000001101110010011011
00000000000000000101010000101001
00000000000000000010111010101110
00000000000000000011110000100011
11111111111111111100011001101011
00000000000000000001010001110100
00000000000000000011011110101011
00000000000000000001111110100001
11111111111111111110111101010111
00000000000000000000101100100011
00000000000000001000000011001001
00000000000000000100100101011110
11111111111111111101110011000001
11111111111111111111111110001011
00000000000000000000000110110011
00000000000000000000001110101011
00000000000000000000001111000111
00000000000000000000001111110010
00000000000000000000100010100011
00000000000000000001010111001100
00000000000000000000000101011100
11111111111111111010010001000100
11111111111111111000000011000110
00000000000000000000011010110101
00000000000000001000010100100100
00000000000000000110010101001110
00000000000000000001110001101000
00000000000000000101001101111000
00000000000000000011100101101000
00000000000000000001100100100011
00000000000000000111101000001000
00000000000000000100010101011111
00000000000000000001010001011011
11111111111111111101111111100111
00000000000000000011111001010110
00000000000000000111011101011100
11111111111111111110011001011101
11111111111111111111011001100100
00000000000000000011011000001111
00000000000000000110011011001110
11111111111111111111001100110011
11111111111111111111111011010000
00000000000000000000000000100101
00000000000000000000001110011101
00000000000000000000001101110111
00000000000000000000001101011010
00000000000000000000010110001100
00000000000000000000001011011111
11111111111111111011111101100011
11111111111111110101110001111101
11111111111111110110010111001110
11111111111111111001000001101011
11111111111111111110111000111101
00000000000000001001011001011101
11111111111111111110010010000101
00000000000000001010010001011110
00000000000000001011111001010111
00000000000000010001111111111110
00000000000000001011000100011110
00000000000000001000111101011100
00000000000000010100000000110010
11111111111111111111010110101000
00000000000000001011010010010101
00000000000000000110111111100110
11111111111111111001011001010100
11111111111111111010011011110110
11111111111111111100010101000101
11111111111111111110101100011000
00000000000000000001111110101100
11111111111111111110111011001001
11111111111111111111111001101111
00000000000000000000010001110111
00000000000000000000000110101000
00000000000000000000000001111111
00000000000000000000010001001100
11111111111111111111101111101010
11111111111111111011100001000111
11111111111111111001011011000011
11111111111111111001111001111111
11111111111111111000001100000011
11111111111111111000000010000010
11111111111111110100100001101011
11111111111111111110110011111100
00000000000000000001010101101010
00000000000000000000000101110001
11111111111111111111110110100100
11111111111111111101101100100100
00000000000000000110111111011001
00000000000000001000010101010111
00000000000000000100110011110011
00000000000000001001110100110110
00000000000000000110010111011001
11111111111111111101101100010010
11111111111111111100100110010001
11111111111111111111001100100001
11111111111111111011110111100000
00000000000000000000010010110111
00000000000000000000001100100100
00000000000000000000001101110101
00000000000000000000010000101000
00000000000000000000001101001100
00000000000000000000000010010110
00000000000000000000010000001110
00000000000000000000000001010110
00000000000000000000000000011100
11111111111111111111001101101100
11111111111111111110101000110010
11111111111111111110011101011001
11111111111111111100101000000101
11111111111111110110010101111011
11111111111111111001100101110100
11111111111111111011110001101100
11111111111111111110001101100100
11111111111111111101010110100001
11111111111111110111111110100101
11111111111111111001011100010111
11111111111111111100001011100010
11111111111111111101111011110001
11111111111111111101100101101000
11111111111111111111010001010010
00000000000000000000110001100110
00000000000000000000011110000100
00000000000000000000010001111000
00000000000000000000001101100110
00000000000000000000000011100011
00000000000000000000010000011011
00000000000000000000001000111001
00000000000000000000000111101000
00000000000000000000001010101101
00000000000000000000000100011101
00000000000000000000000101111110
00000000000000000000000101100111
00000000000000000000000110101101
00000000000000000000000011110000
00000000000000000000000111001111
00000000000000000000001011000011
00000000000000000000001001111001
11111111111111111111110101010101
00000000000000000000001010101100
00000000000000000000100001110111
00000000000000000000010101111001
11111111111111111111111110110000
11111111111111111111110011110000
00000000000000000000000010001110
00000000000000000000001100110100
00000000000000000000000010111110
00000000000000000000001001111000
00000000000000000000001101101110
00000000000000000000000000000010
11111111111111111111111000101101
00000000000000000000000001001111
00000000000000000000010000001100
00000000000000000000001111000101
00000000000000000000001001011010
00000000000000000000000110100010
00000000000000000000000000010101
