00000000000000000000000110001100
00000000000000000000000100101101
00000000000000000000000000011010
00000000000000000000001001110101
00000000000000000000000111011110
00000000000000000000000100111010
00000000000000000000001011101010
00000000000000000000000111011101
00000000000000000000010000010110
00000000000000000000000111001010
00000000000000000000000001001011
00000000000000000000001010111001
00000000000000000000001010011001
00000000000000000000001111011110
00000000000000000000001010010010
00000000000000000000010001100000
00000000000000000000001101110001
00000000000000000000000100101011
00000000000000000000001000101110
00000000000000000000000000000100
00000000000000000000001111010011
00000000000000000000001000110010
00000000000000000000000101110011
00000000000000000000000101000100
00000000000000000000001100100010
00000000000000000000001110001101
00000000000000000000010000010100
00000000000000000000000000101011
00000000000000000000001101010011
00000000000000000000001001111010
00000000000000000000001010000100
00000000000000000000000001001101
00000000000000000000001110101000
00000000000000000000001010011111
00000000000000000000001011000011
00000000000000000000000011101001
00000000000000000000001111000001
00000000000000000000000100000011
00000000000000000000001010011111
00000000000000000000001010010000
00000000000000000000001010001000
00000000000000000000001100011100
00000000000000000000000110010000
00000000000000000000000011100001
00000000000000000000001010010001
00000000000000000000010000100110
00000000000000000000000010101101
00000000000000000000000101000011
00000000000000000000000010110000
00000000000000000000001011101010
00000000000000000000000101001100
00000000000000000000010010000011
00000000000000000000000010001010
00000000000000000000001011000000
00000000000000000000000100110101
00000000000000000000001110101100
00000000000000000000000110111011
00000000000000000000000010110111
00000000000000000000001111011000
00000000000000000000000001111100
00000000000000000000001100110010
00000000000000000000000111001001
00000000000000000000000011001001
00000000000000000000001000111110
00000000000000000000010001000110
00000000000000000000001011001000
11111111111111111111101001111000
11111111111111111111011100111100
11111111111111111111100011110000
00000000000000000000000010101010
11111111111111111111111010101110
11111111111111111111101100001011
11111111111111111111101010100010
11111111111111111111111111010001
11111111111111111111110111110110
11111111111111111111101101111100
00000000000000000000001000000110
11111111111111111111111111100111
00000000000000000000001110110111
00000000000000000000010000110110
00000000000000000000001011111101
00000000000000000000000001110001
00000000000000000000010000100111
00000000000000000000001110001000
00000000000000000000001100110010
00000000000000000000000011001010
00000000000000000000001010100010
00000000000000000000000001011011
00000000000000000000000101101111
00000000000000000000000001100111
00000000000000000000000111000010
11111111111111111111111110111001
11111111111111111111111001000100
11111111111111111111110011011111
00000000000000000000000010011111
11111111111111111111001001001110
11111111111111111110011101110100
11111111111111111110111101100000
11111111111111111100111011011000
11111111111111111010100100101000
11111111111111111001110010000110
11111111111111111101111111001011
11111111111111111111011101110101
11111111111111111110100010000111
11111111111111111110010101000111
11111111111111111101011101101010
11111111111111111110111000010111
00000000000000000000001010101100
00000000000000000000001100100010
00000000000000000000010000101000
00000000000000000000001100101011
00000000000000000000000110001011
00000000000000000000000000001000
00000000000000000000001011000000
00000000000000000000000110001100
00000000000000000000010111110001
00000000000000000000101101000101
00000000000000000001110001000011
00000000000000000001010101001000
00000000000000000000100110110100
11111111111111111111110000100110
11111111111111111101010010001101
00000000000000000000001001001101
11111111111111111100000001101101
11111111111111111001010000110001
11111111111111111000111101100110
00000000000000000001001110101011
11111111111111111101111110000000
11111111111111111010110010001100
11111111111111111010010010111101
11111111111111111111111001010110
11111111111111111101110110100110
11111111111111111101111111010110
11111111111111111101000010110011
11111111111111111110001110010001
11111111111111111101010011010111
11111111111111111111101111010100
00000000000000000000000001101001
00000000000000000000000011000001
00000000000000000000001110010011
00000000000000000000000000011111
00000000000000000000001111110110
11111111111111111111111111111001
11111111111111111111010110001100
11111111111111111111011000011001
00000000000000000001101110110111
00000000000000000010001100011001
11111111111111111110101000110000
11111111111111111110101000010000
11111111111111111111100000011000
00000000000000000010111010001100
00000000000000000000011011000100
11111111111111111111101110001011
00000000000000000001111000001100
11111111111111111111010011100101
11111111111111111101001111100011
00000000000000000001100001010101
11111111111111111010100111100101
11111111111111111111001101011110
00000000000000000001100010100011
00000000000000000000100110000100
11111111111111111111101001011100
11111111111111111101001001011011
11111111111111111100111101010100
11111111111111111110101101101100
00000000000000000000001010110111
00000000000000000000001011111101
00000000000000000000001000000001
00000000000000000000001011100101
00000000000000000000010000101000
00000000000000000000010011000001
11111111111111111111011000110000
00000000000000000001011010011100
00000000000000000010110101011010
00000000000000000001011001011101
00000000000000000000001100001001
00000000000000000100000011010110
11111111111111111101000110100010
11111111111111111110110100100000
00000000000000000010000010001011
00000000000000000000010110000101
00000000000000000010110111101000
11111111111111111111001010111100
00000000000000000110101001100101
00000000000000000100111111101001
00000000000000000100001001111111
00000000000000000010111110001111
11111111111111111010101011100011
11111111111111111110000110001101
00000000000000000011101110110011
11111111111111111010100111011011
11111111111111111001100111011001
11111111111111111110000101100111
00000000000000000000001110000110
00000000000000000000001011001000
00000000000000000000001111000000
00000000000000000000001000110011
00000000000000000000011111100001
00000000000000000000001001101011
11111111111111111111101010001101
00000000000000000011110011110010
00000000000000000001111010110010
00000000000000000100001110110101
00000000000000000010110101001000
00000000000000000011001000001000
11111111111111111100010011110011
11111111111111110101100011110000
11111111111111111100101100011011
00000000000000000110011011110110
00000000000000000100000010000000
00000000000000000000001001001101
00000000000000000100010111110001
11111111111111111011001001000001
11111111111111111101100110011001
00000000000000000010111111010011
00000000000000000101110101100001
00000000000000000000111010100100
11111111111111111111000011111100
11111111111111111011000110100110
11111111111111110101011010010111
11111111111111111001010001010010
11111111111111111110111000000111
00000000000000000000011011100010
00000000000000000000001011101011
00000000000000000000000011111100
11111111111111111111111111100000
00000000000000000000100100100101
00000000000000000001101100001010
00000000000000000010100011100111
11111111111111111101001000110101
11111111111111111111011110111011
11111111111111111111110001011101
00000000000000000001110100101001
00000000000000000010001011010100
00000000000000000100001111001100
00000000000000000001110100011001
00000000000000000011001000110000
00000000000000000101001110111101
00000000000000000011110100101100
00000000000000000001101001100100
00000000000000000000111000101011
11111111111111111011010110001000
00000000000000000111100101011110
00000000000000001000111100000101
00000000000000000001000111100111
00000000000000000011010101101111
11111111111111111100001100110110
11111111111111110000000010111000
11111111111111110101100001100011
11111111111111111101010110111100
00000000000000000000010101000001
00000000000000000000010000001011
00000000000000000000000100001101
00000000000000000000000011110001
00000000000000000000010100010110
00000000000000000010100011001000
11111111111111111111011110010000
11111111111111111010100111001000
11111111111111111101111010001000
00000000000000000000111001010100
00000000000000000011001101100001
00000000000000000001101101111000
00000000000000000101111110111101
00000000000000000001101110000110
11111111111111111010000000010100
11111111111111110110011010001010
11111111111111101110011110011101
11111111111111110101100001000000
11111111111111111111110100001001
00000000000000000001010001000001
00000000000000000100000100101111
00000000000000000001011000001101
00000000000000000101011010010001
00000000000000000010100001101101
11111111111111111011101111100011
11111111111111110101110100000011
11111111111111110111000011010001
11111111111111111110111111100111
00000000000000000000000111110100
00000000000000000000001000001011
00000000000000000000010010000110
00000000000000000000001001000011
00000000000000000000001110110010
00000000000000000010100101011011
11111111111111111111000001001100
11111111111111111110111101000011
00000000000000000000010001011111
11111111111111111011000111000110
11111111111111111001110001100011
11111111111111110100110110011100
11111111111111101011001110100111
11111111111111101000010000110000
11111111111111011110010100111011
11111111111111101000011001111000
11111111111111110101011100000011
11111111111111111011111010100010
00000000000000000110111101110111
11111111111111111111100011100000
00000000000000001000001101001000
00000000000000000011110111110001
00000000000000001011010000110011
00000000000000000110010000011001
11111111111111111011000010010100
11111111111111111011001100101000
11111111111111111100100101011101
11111111111111111111110111101111
00000000000000000000001010001000
00000000000000000000001000001010
00000000000000000000001001110010
00000000000000000000000101001011
11111111111111111110110011111101
11111111111111111110111111011110
11111111111111111011000100011010
11111111111111111001010111101110
11111111111111111010110011000010
11111111111111110000000010011000
11111111111111101011000100011000
11111111111111100011101101000111
11111111111111011111001011110100
11111111111111101011101000000110
11111111111111110011001111010110
11111111111111111111100100011000
00000000000000001011000110011100
00000000000000001011000111110011
00000000000000000010100100001101
00000000000000000001111001010111
00000000000000001000100101001001
00000000000000000110000000100101
00000000000000001001011001100110
11111111111111111111011011111100
11111111111111111100000100011000
11111111111111111101000111110100
11111111111111111110001110011000
00000000000000000000000110011110
00000000000000000000001001100110
00000000000000000000001001111100
00000000000000000000000011101010
11111111111111111111001110011000
11111111111111111110001110111000
11111111111111111011100101000110
11111111111111111000010111001100
11111111111111110110001001001111
11111111111111110010111101110001
11111111111111110000101001011011
11111111111111110001100110100001
11111111111111110010111100001101
11111111111111111101000001011111
11111111111111111110011101011011
00000000000000000101110110000000
00000000000000000100101101111001
00000000000000001011101110101000
00000000000000000100010101000000
11111111111111111110111011011011
11111111111111111100001011111010
00000000000000000110010100110011
11111111111111110110101100111101
11111111111111111000100011100001
11111111111111110100101100111100
11111111111111110111000111001100
11111111111111111101001001111111
11111111111111111111000101100111
00000000000000000000001101010100
00000000000000000000000011111100
00000000000000000000010000011011
00000000000000000000001000100101
11111111111111111110010000011111
11111111111111111110001100010110
11111111111111111101010110011100
11111111111111111000111111011011
11111111111111110110010111101001
11111111111111110100110001011100
11111111111111110001110111101010
11111111111111110111110101010010
11111111111111111100101110011100
00000000000000000010011111100010
11111111111111111110101010101011
00000000000000000101000101100101
00000000000000000111100011011111
00000000000000000000111100010111
11111111111111111100010001011111
00000000000000000000110101110111
11111111111111111100110110100100
11111111111111111100110111010000
11111111111111110001011000101101
11111111111111110011000010110010
11111111111111110011001000000100
11111111111111110010001000101100
11111111111111111100011001001010
11111111111111111110101100111001
11111111111111111111110100101010
00000000000000000000000101011001
00000000000000000000001011110011
00000000000000000000000010010101
11111111111111111111101011011100
11111111111111111110011001101011
11111111111111111101111001010100
11111111111111111010011010000001
11111111111111111000100010100101
11111111111111111000000111001000
11111111111111111000011101111110
00000000000000000000101001100011
11111111111111111101101100110001
11111111111111111101110100001111
11111111111111111101011111101000
11111111111111111111111100010010
00000000000000001010100000101001
00000000000000001000100011111100
00000000000000000111100001010110
00000000000000000010100011010010
00000000000000000011101000100111
11111111111111111100000010000001
11111111111111111000101001101010
11111111111111110110100011101101
11111111111111111110101000011010
11111111111111110111010101111001
11111111111111111100101110101100
11111111111111111110001100110010
11111111111111111111110010101111
00000000000000000000000110011110
00000000000000000000010001010101
00000000000000000000000000000111
00000000000000000000010111000111
00000000000000000000001010000011
11111111111111111110011111110010
11111111111111111101000001101001
11111111111111111100100111011110
11111111111111111001001101101000
00000000000000000000110010110100
11111111111111111111011111001100
11111111111111111111101100111001
11111111111111111110111101011001
00000000000000000010111000100000
00000000000000000011111100100001
11111111111111111101101101010011
00000000000000001010101101100111
00000000000000000000010110010000
11111111111111111011011000011111
11111111111111111000101000010010
11111111111111111110011110000101
00000000000000000000001101000111
11111111111111111110000000000110
00000000000000000110001010011001
11111111111111111111110000101111
00000000000000000000100010011111
11111111111111111111011110011100
00000000000000000000000001100101
00000000000000000000111101111110
00000000000000000000000001010111
00000000000000000000001001111111
00000000000000000000010000001011
00000000000000000001111110100100
00000000000000000000110110010101
11111111111111111111110100101000
11111111111111111011101101001010
11111111111111110111010001001100
11111111111111110111111000101110
11111111111111111011011000101001
00000000000000000011011111000110
11111111111111111101001010110110
00000000000000000101000000100110
00000000000000001000011010100011
00000000000000001001001001100001
11111111111111111111111010100011
11111111111111111001110111000110
11111111111111111101101101100100
11111111111111111001010100001001
11111111111111111111111001000010
00000000000000000000010111000001
11111111111111111111011011010110
00000000000000000100010110110000
00000000000000000000000101100010
00000000000000000000100001101101
11111111111111111111000010000000
11111111111111111111100010111101
00000000000000000000001010111111
00000000000000000000001110010111
00000000000000000000001111111010
00000000000000000000001110011011
00000000000000000010000010110001
00000000000000000010010011000010
00000000000000000010010111100000
11111111111111111010110101011010
11111111111111110011100011111000
11111111111111101110110001001001
11111111111111101101010100101100
11111111111111101000110000111110
11111111111111100100011100010001
11111111111111110101011000011011
11111111111111111001100110011000
11111111111111111100100011101001
11111111111111111001001011010101
11111111111111110101100100001010
00000000000000000000100101101001
11111111111111111101101100000110
00000000000000000100100010111111
00000000000000000010010110010100
11111111111111111001100111110100
11111111111111111111001000010111
00000000000000000010110111000011
11111111111111111111001000001011
11111111111111111011100110110001
11111111111111111101011011011100
00000000000000000000000011110010
00000000000000000000000010010001
00000000000000000000000010101101
00000000000000000000000100010000
00000000000000000010001011101100
00000000000000000110010000000011
00000000000000000010001000000100
00000000000000000000010011010110
11111111111111110101100101111111
11111111111111110011010001010100
11111111111111110000111100110010
11111111111111100010110111001000
11111111111111011101100101111001
11111111111111011111111001111111
11111111111111011100010111111111
11111111111111100010010111001100
11111111111111110010110100000011
11111111111111111010111010000011
00000000000000000001011110010110
00000000000000000101110110100010
00000000000000000110000100001100
00000000000000000011110111001000
00000000000000000110001000110110
00000000000000001010100000111100
00000000000000000111001100001010
11111111111111111100000001010100
11111111111111111011101101100101
11111111111111111110011011010101
00000000000000000000010000010011
00000000000000000000001011101100
00000000000000000000000011110110
00000000000000000000000001101111
11111111111111111111100010100101
00000000000000000101100111001110
00000000000000000101111111001100
11111111111111111110110011110111
11111111111111110111111101011011
11111111111111111111010010110111
11111111111111111111101100110101
11111111111111110111111011100011
11111111111111110000100001001010
11111111111111110001110001011100
11111111111111101010010111010101
11111111111111110000110000101001
11111111111111110011111101100010
11111111111111111010011101000110
00000000000000000000010000001000
00000000000000000100000000111010
00000000000000000011011000011011
00000000000000000100010001101100
00000000000000001101111001100111
00000000000000001000110100000110
00000000000000000010101001010111
11111111111111111100110101001000
11111111111111111011011010100100
11111111111111111110111110000110
00000000000000000000001100100111
00000000000000000000000101111010
00000000000000000000001100110010
00000000000000000000001011000110
11111111111111111111010011010001
00000000000000000111110000011111
00000000000000000110111011001111
00000000000000000010111000011000
11111111111111111100000001000110
00000000000000000110100010000010
00000000000000000010011000010010
00000000000000000000111101100011
11111111111111111001111100001011
00000000000000000010010100011011
11111111111111111111111111011111
11111111111111111100000001110111
11111111111111110101010100110101
11111111111111110111101101111100
11111111111111111011100001111110
11111111111111111111110011010101
11111111111111111110001000001100
00000000000000000011100010101001
00000000000000000111111000100101
00000000000000000000011110111001
11111111111111111011001001001010
11111111111111111000010011001110
11111111111111111011110100011001
11111111111111111111100111100101
00000000000000000000001011110101
00000000000000000000001111000011
00000000000000000000000111100001
00000000000000000000000101100110
00000000000000000001110000010001
00000000000000000110111000000000
00000000000000001000110000101010
00000000000000000100000000000101
00000000000000000111011110001101
00000000000000000011100000000100
11111111111111111111001111010110
11111111111111111101111111001101
00000000000000000110000000011001
00000000000000000110011100011100
00000000000000000110110000011110
11111111111111111111101110010010
00000000000000000011010111111001
11111111111111111110101110010011
11111111111111110111000000110000
11111111111111111000111010000100
11111111111111111101101100110010
11111111111111111111100111101010
11111111111111111110101011111010
11111111111111111101110100000110
11111111111111111000010001011010
11111111111111110111001010111110
11111111111111111011111100111101
11111111111111111110110110111100
00000000000000000000010000011010
00000000000000000000000000100000
00000000000000000000001011010011
00000000000000000000001000010111
00000000000000000001101010111011
00000000000000000101101100010101
00000000000000000111101010111011
00000000000000000110100001001000
00000000000000000011110000010000
00000000000000000011001010111100
00000000000000000100010110100011
11111111111111111011111011001011
00000000000000000001000000101111
00000000000000000010100000001010
11111111111111110111011001011100
00000000000000000010111111111000
11111111111111111011101010010110
00000000000000000010101010101000
00000000000000000011100111011100
00000000000000000111000101110101
11111111111111111100101001001101
00000000000000000011010110001101
11111111111111111101011110010000
11111111111111111101100011010001
11111111111111111010100000000100
11111111111111111101000111010000
11111111111111111101010101000000
11111111111111111110011010110000
00000000000000000000001101111100
00000000000000000000010000011101
00000000000000000000000101010010
00000000000000000000001011101001
00000000000000000010000001101100
00000000000000000100110001000101
00000000000000000111100100001111
00000000000000001001100110111101
00000000000000000010100100111110
00000000000000000000111100101000
11111111111111111111001101111001
11111111111111111110111001100001
11111111111111111110110111100000
11111111111111111101010111010010
11111111111111111101011010100111
00000000000000000101100100010011
11111111111111111110000001111001
00000000000000000010010100000011
11111111111111111100010001000101
00000000000000000001000110100111
00000000000000000000011101010000
11111111111111111101011001000011
11111111111111111010110110110101
11111111111111111100011101111110
11111111111111111011001111011001
11111111111111111110011001111001
11111111111111111111111011001110
11111111111111111111111000110101
00000000000000000000001010111001
00000000000000000000000100000100
00000000000000000000001100100011
00000000000000000000000110110110
00000000000000000000110100011000
00000000000000000011101100111010
00000000000000000100011100010101
00000000000000000100100011101000
00000000000000000101011000110010
00000000000000000100011101000000
00000000000000000001011011111001
00000000000000000101111001110000
00000000000000000110001110110000
11111111111111111111111100011001
00000000000000000110000010111011
00000000000000000010001111111000
11111111111111111001110101011101
11111111111111111010000011011000
11111111111111111101011111111010
00000000000000000001011101011101
11111111111111111101101101010001
11111111111111111010100011110001
11111111111111111011110110000111
11111111111111111101011101001001
11111111111111111101010111110100
11111111111111111110100010010100
00000000000000000000001000001010
00000000000000000000000100010110
00000000000000000000010000101000
00000000000000000000001011101110
00000000000000000000001000010101
00000000000000000000001001100000
00000000000000000000010001111000
11111111111111111111110010001101
11111111111111111111001011111101
00000000000000000000111101011111
00000000000000000001010110001100
11111111111111111100100111100110
00000000000000000010111000110000
00000000000000000011101001001111
00000000000000000100001111010111
11111111111111111111110100000010
11111111111111111100000001111100
11111111111111111000110100100011
11111111111111110110100100101001
11111111111111111010101110010101
11111111111111111011011000010101
11111111111111111000011100011111
11111111111111111100110110101101
11111111111111111110000111011000
11111111111111111110010010100010
11111111111111111101101101100110
11111111111111111110110000110111
11111111111111111111101001010000
00000000000000000000001010101010
00000000000000000000000010110010
00000000000000000000010001011010
00000000000000000000000010011001
00000000000000000000000111001000
00000000000000000000001111110000
00000000000000000000001110000111
00000000000000000000001111011111
00000000000000000000001011011111
00000000000000000000011010101011
00000000000000000000011000010000
11111111111111111011001110000101
11111111111111111100000110100000
11111111111111111100000101100111
11111111111111111011110110100100
11111111111111111001101000101010
11111111111111111010100010011100
11111111111111111110000010011100
11111111111111111011110001100101
11111111111111111011011010101000
11111111111111111110000011010101
11111111111111111101000010001001
11111111111111111110011110110101
11111111111111111101001101101001
11111111111111111101100110100010
11111111111111111111100011111111
00000000000000000000000001101011
00000000000000000000001000110000
00000000000000000000000101001000
00000000000000000000000000000111
00000000000000000000000111100000
00000000000000000000010000001110
00000000000000000000000010111001
00000000000000000000000110101000
00000000000000000000000000010101
00000000000000000000001010000010
00000000000000000000000100000111
00000000000000000000001110100011
00000000000000000000000111100010
00000000000000000000001011100000
00000000000000000000000111111111
00000000000000000000000111000100
00000000000000000000000011011011
11111111111111111111101000110010
11111111111111111111110111111101
11111111111111111111100001010111
11111111111111111111000100101000
11111111111111111111111011100001
00000000000000000000000001101000
00000000000000000000000011011110
00000000000000000000000111100011
00000000000000000000000101000110
11111111111111111111111100001001
11111111111111111111111100001111
00000000000000000000001000001101
00000000000000000000000101101001
00000000000000000000001101100110
00000000000000000000000101010001
00000000000000000000001110000101
00000000000000000000000000011100
