00000000000000000000000111010100
00000000000000000000001111111011
00000000000000000000001110111101
00000000000000000000000000101011
00000000000000000000000011101111
00000000000000000000010001111011
00000000000000000000000101101000
00000000000000000000010000110011
00000000000000000000010000010001
00000000000000000000000011011011
00000000000000000000001001010010
00000000000000000000001011110001
00000000000000000000001000101100
00000000000000000000000111010111
00000000000000000000010010000101
00000000000000000000010001000010
00000000000000000000000111100110
00000000000000000000000111100010
00000000000000000000000001000010
00000000000000000000000101000110
00000000000000000000000110110111
00000000000000000000001101001000
00000000000000000000000111001011
00000000000000000000000110011011
00000000000000000000001010111000
00000000000000000000000000011111
00000000000000000000000010111100
00000000000000000000001101001100
00000000000000000000000011010100
00000000000000000000000000011001
00000000000000000000001110101100
00000000000000000000001010101001
00000000000000000000010000010101
00000000000000000000001011010111
00000000000000000000001011010011
00000000000000000000000001101100
00000000000000000000001011100001
00000000000000000000010001010111
11111111111111111111111111110011
00000000000000000000001000100100
00000000000000000000000001000011
00000000000000000000001000011101
00000000000000000000000101110001
00000000000000000000010001100110
00000000000000000000010000001000
00000000000000000000000001011110
00000000000000000000001000111101
00000000000000000000000101100100
00000000000000000000001001011101
00000000000000000000001010100000
00000000000000000000001011010100
00000000000000000000010000101011
00000000000000000000000101011101
00000000000000000000000000010001
00000000000000000000000100110101
00000000000000000000010000010110
00000000000000000000000000110000
00000000000000000000000111110010
00000000000000000000001011010000
00000000000000000000000100000101
00000000000000000000001000001010
00000000000000000000000111101000
00000000000000000000001110100101
00000000000000000000000110000001
00000000000000000000000001001011
00000000000000000000001000101010
00000000000000000000001000000001
00000000000000000000001001010111
00000000000000000000000011101101
00000000000000000000000111101110
11111111111111111111111111001111
00000000000000000000001001100000
00000000000000000000001110000010
00000000000000000000000001011011
11111111111111111111111011110100
00000000000000000000001000011000
00000000000000000000000101111100
00000000000000000000001001000110
00000000000000000000000011110110
00000000000000000000010000110010
00000000000000000000000010110110
00000000000000000000001111111101
00000000000000000000001111100001
00000000000000000000001000011011
00000000000000000000010000001111
00000000000000000000000010000100
00000000000000000000000111000001
00000000000000000000010001000110
00000000000000000000001001110110
00000000000000000000010001001011
00000000000000000000000001111111
00000000000000000000001110000011
00000000000000000000000000110000
00000000000000000000010000001000
11111111111111111111111110001101
11111111111111111111110100001010
11111111111111111111111110100000
00000000000000000000000110110101
11111111111111111111110010110011
00000000000000000000010111110100
00000000000000000000001001010011
00000000000000000000000001111100
11111111111111111111111111101010
00000000000000000000001000101000
00000000000000000000011001101101
00000000000000000000010001001011
00000000000000000000000111101011
00000000000000000000010011100011
00000000000000000000010001110101
00000000000000000000000110111111
00000000000000000000001110111000
00000000000000000000000000001010
00000000000000000000000100010100
00000000000000000000001100000111
00000000000000000000001010011100
00000000000000000000000010101101
00000000000000000000001110001010
00000000000000000000001101001001
11111111111111111111111011001000
11111111111111111111110101100100
11111111111111111111111111101100
11111111111111111111111011100001
11111111111111111111110100010110
11111111111111111111101101000000
11111111111111111111101001010101
11111111111111111111100001111011
11111111111111111111100101010101
11111111111111111111110101100110
11111111111111111111000100000001
11111111111111111110110001000110
11111111111111111111001000011000
11111111111111111111110101110000
00000000000000000000001000110001
00000000000000000000000101100101
00000000000000000000010000011011
00000000000000000000001110110100
00000000000000000000010001001010
00000000000000000000010000010000
00000000000000000000000100001111
00000000000000000000001010011000
00000000000000000000000101100010
00000000000000000000000001011010
00000000000000000000001011001111
00000000000000000000001000101110
00000000000000000000000111100100
11111111111111111111111011000110
00000000000000000000000011011001
00000000000000000000000001000101
00000000000000000000001110111001
00000000000000000000000101011111
11111111111111111111110100100100
11111111111111111111100000101101
11111111111111111111101000101110
11111111111111111111001011110101
11111111111111111111011001010111
11111111111111111110110101011100
11111111111111111110101111001110
11111111111111111110010100110001
11111111111111111110100110010111
11111111111111111111000101110001
11111111111111111111011011111001
11111111111111111111110001000010
11111111111111111111110110001111
11111111111111111111110010000110
00000000000000000000000011100101
00000000000000000000000111001010
00000000000000000000000111110011
00000000000000000000000010000101
00000000000000000000001010001101
00000000000000000000001101101011
00000000000000000000001011011111
00000000000000000000001010010010
00000000000000000000000011000100
11111111111111111111110110100000
11111111111111111111101111110100
11111111111111111111100101001101
11111111111111111111110001100110
11111111111111111111110000111110
11111111111111111111011000110000
11111111111111111111011100010010
11111111111111111111100010011010
11111111111111111110110000111011
11111111111111111110011010001000
11111111111111111110101111001101
11111111111111111110101101011111
11111111111111111110110001100101
11111111111111111111001010010001
11111111111111111110110111000000
11111111111111111111010001110111
11111111111111111111111001010000
00000000000000000000000011101100
00000000000000000000000011100110
00000000000000000000000110110101
00000000000000000000010111111000
00000000000000000000010000101001
00000000000000000000001100101110
00000000000000000000000111001011
00000000000000000000000011001100
00000000000000000000001101000000
00000000000000000000001010001001
00000000000000000000000100110111
11111111111111111111111000101100
11111111111111111111101111011110
11111111111111111111011110011100
11111111111111111111011100110100
11111111111111111111011111011110
11111111111111111111000011000111
11111111111111111111000100110011
11111111111111111110111011101000
11111111111111111110100001010011
11111111111111111110110000100110
11111111111111111110011000001111
11111111111111111110110100101000
11111111111111111110011010111010
11111111111111111110110100000011
11111111111111111110100110110100
11111111111111111111001001111110
11111111111111111111111110101000
11111111111111111111111111011011
00000000000000000000001001001111
00000000000000000000100001111010
00000000000000000000001110100101
00000000000000000000001111000010
00000000000000000000000101000110
00000000000000000000010001000001
00000000000000000000000110011100
11111111111111111111111101100000
11111111111111111111111110101101
11111111111111111111111100110011
00000000000000000000000111001011
11111111111111111111101001000100
11111111111111111111100111101000
11111111111111111111010000101101
11111111111111111110111010100100
11111111111111111110111100010110
11111111111111111111001001001111
11111111111111111110100100100101
11111111111111111110001000000101
11111111111111111110101101011010
11111111111111111110011001111011
11111111111111111110001110111010
11111111111111111110100101000101
11111111111111111110110101011110
11111111111111111110100110010100
11111111111111111111010001100110
11111111111111111111110100101100
00000000000000000000001010001001
00000000000000000000101100100110
00000000000000000000100110110110
00000000000000000000010110110001
00000000000000000000000010100111
00000000000000000000010000011111
00000000000000000000000001100111
00000000000000000000001100110000
11111111111111111111111111011110
00000000000000000000000111110110
11111111111111111111110010010001
11111111111111111111101101100000
11111111111111111111100010010000
11111111111111111111011001110000
11111111111111111110100000000110
11111111111111111110100010010111
11111111111111111110110000001110
11111111111111111111000010111011
11111111111111111110010110111110
11111111111111111110001001101111
11111111111111111110000101000010
11111111111111111110000101000011
11111111111111111101111000000111
11111111111111111110101111100101
11111111111111111111010100110000
11111111111111111110101010100011
11111111111111111110111101011010
11111111111111111111011100101111
11111111111111111111101000110111
00000000000000000000001100111000
00000000000000000000011000100011
00000000000000000000001111110011
00000000000000000000010011101111
00000000000000000000001010110001
00000000000000000000001100100101
00000000000000000000010001001100
00000000000000000000000111100101
00000000000000000000000100010101
11111111111111111111111100000111
11111111111111111111101011111111
11111111111111111111100101111110
11111111111111111111010011111001
11111111111111111110111000110100
11111111111111111111001100111100
11111111111111111111001000000110
11111111111111111111011011001101
11111111111111111110110110110011
11111111111111111110101010001001
11111111111111111101100011100000
11111111111111111101010111111010
11111111111111111101101100101101
11111111111111111110101001010110
11111111111111111110011100110001
11111111111111111110010011001100
11111111111111111110111001100001
11111111111111111111101100101111
11111111111111111111100110010000
11111111111111111111110111000101
11111111111111111111111101111010
00000000000000000000001011000110
00000000000000000000000011110110
00000000000000000000001101111101
00000000000000000000000001110010
00000000000000000000000000001010
00000000000000000000000100100011
00000000000000000000001001000011
11111111111111111111110111001010
11111111111111111111110011101011
11111111111111111111011111011101
11111111111111111111011110100110
11111111111111111111011001110001
11111111111111111111010011011001
11111111111111111111011100010011
11111111111111111111011110101101
11111111111111111111100011111100
11111111111111111111001100110000
11111111111111111101101111101110
11111111111111111101111110001001
11111111111111111110011110110111
11111111111111111110111011011101
11111111111111111110010101111010
11111111111111111110010110001111
11111111111111111111000101111001
11111111111111111111100010001010
11111111111111111111100010101111
11111111111111111111111001111011
11111111111111111111111100100110
00000000000000000000000100100101
00000000000000000000001111101010
00000000000000000000000010110010
00000000000000000000001010111000
00000000000000000000000000101100
00000000000000000000001101011111
00000000000000000000001010100001
11111111111111111111111101111000
11111111111111111111101001000111
11111111111111111111100101111100
11111111111111111111110000010111
00000000000000000000001100010110
11111111111111111111110110100010
11111111111111111111101100010111
11111111111111111111101010001100
11111111111111111111110111001001
11111111111111111110110001110001
11111111111111111110010110011101
11111111111111111110100100111011
11111111111111111101111011111001
11111111111111111110001000011000
11111111111111111101110111100000
11111111111111111110001100011010
11111111111111111111000011101100
11111111111111111111010110000010
11111111111111111111101101101111
11111111111111111111101011001110
11111111111111111111110001000110
00000000000000000000011010011000
00000000000000000000001000100000
00000000000000000000000111101010
00000000000000000000000001101011
11111111111111111111111111101110
00000000000000000000000110010101
00000000000000000000001100110111
00000000000000000000000010001001
11111111111111111111110001111010
11111111111111111111101111001000
11111111111111111111110010110000
11111111111111111111101101011010
11111111111111111111101110000100
11111111111111111111011100000110
11111111111111111111100100101110
11111111111111111111111000100101
11111111111111111110100001111110
11111111111111111110100010001001
11111111111111111101100010100010
11111111111111111101110010011110
11111111111111111101110011011111
11111111111111111110010000000111
11111111111111111110110011000001
11111111111111111111010101000101
11111111111111111111100100110010
11111111111111111111011000111001
11111111111111111111011000110000
00000000000000000000000010111000
00000000000000000000000111001001
00000000000000000000001010000100
00000000000000000000000010100001
00000000000000000000001111101011
00000000000000000000001000001110
00000000000000000000000111001101
00000000000000000000010000110010
00000000000000000000000111100101
11111111111111111111110101010011
11111111111111111111101000101111
11111111111111111111100011101111
11111111111111111111011010110100
11111111111111111111001111100001
11111111111111111111100011000010
11111111111111111111011110000011
11111111111111111111101000110010
11111111111111111110000000101000
11111111111111111110000100110000
11111111111111111101001010000010
11111111111111111101110000110111
11111111111111111110100010110010
11111111111111111110110111110000
11111111111111111110111001010010
11111111111111111111001101111011
11111111111111111111010110001111
11111111111111111111001011101001
11111111111111111111010011011100
11111111111111111111110111111100
00000000000000000000000101101100
00000000000000000000000010010110
00000000000000000000001011100001
00000000000000000000000110111010
00000000000000000000001000000100
00000000000000000000001110001011
11111111111111111111111110110111
00000000000000000000001011000111
11111111111111111111100110110000
11111111111111111111011010011110
11111111111111111111011101000010
11111111111111111111110000001000
11111111111111111111101000101111
11111111111111111111000011100000
11111111111111111110111101011011
11111111111111111110100111101010
11111111111111111101101111100111
11111111111111111101011001101001
11111111111111111101001011100110
11111111111111111101111011100111
11111111111111111110001011001011
11111111111111111110110010110000
11111111111111111110110101111010
11111111111111111111001100000000
11111111111111111111011101011101
11111111111111111111001111111010
11111111111111111111011011100100
11111111111111111111110010000011
00000000000000000000001101101100
00000000000000000000000010100101
00000000000000000000010001000110
00000000000000000000000001011111
00000000000000000000000001101111
00000000000000000000001001010001
00000000000000000000000011010110
00000000000000000000000111101101
11111111111111111111101011011010
11111111111111111111100110011010
11111111111111111111100001010111
11111111111111111111101111011100
11111111111111111111100111000111
11111111111111111111011110011110
11111111111111111110111110111010
11111111111111111110100111110100
11111111111111111110010011101101
11111111111111111110000111000000
11111111111111111101111101100110
11111111111111111101111011010001
11111111111111111110101011001000
11111111111111111110111010010011
11111111111111111110110000100100
11111111111111111110111111100100
11111111111111111111001011100100
11111111111111111111010110111101
11111111111111111111110100000011
00000000000000000000000100010111
00000000000000000000010100000101
00000000000000000000010001001000
00000000000000000000001001111110
00000000000000000000001011011111
00000000000000000000001101000111
00000000000000000000000101110011
00000000000000000000001001001101
00000000000000000000001110101010
11111111111111111111110000101110
11111111111111111111101001100010
11111111111111111111011011101100
11111111111111111111001100010101
11111111111111111111010100110010
11111111111111111111000110000111
11111111111111111110111001010111
11111111111111111110010010010010
11111111111111111101111010000001
11111111111111111110010011110101
11111111111111111110101000011101
11111111111111111110011100000011
11111111111111111111000100100100
11111111111111111111000111100010
11111111111111111110111110010011
11111111111111111110111111001100
11111111111111111111011000000100
11111111111111111111110010011001
11111111111111111111111011111111
00000000000000000000010000100110
00000000000000000000001110110011
00000000000000000000010001010110
00000000000000000000000001110000
00000000000000000000001001010100
00000000000000000000001000111001
00000000000000000000001010001100
11111111111111111111111111010000
11111111111111111111111111011011
11111111111111111111110101001010
11111111111111111111111110011100
11111111111111111111010101000100
11111111111111111111000110110100
11111111111111111111000000001100
11111111111111111110100011100110
11111111111111111101111111110011
11111111111111111101111101110011
11111111111111111101110110101100
11111111111111111110000001110101
11111111111111111110010100011010
11111111111111111110011110111010
11111111111111111111101001010110
11111111111111111111000110000000
11111111111111111111000010100110
11111111111111111111010101111001
11111111111111111111101110000011
11111111111111111111111111111001
00000000000000000000010111101010
00000000000000000000010100001101
00000000000000000000001110011010
00000000000000000000010001011100
00000000000000000000000100101100
00000000000000000000000101100111
00000000000000000000001100110000
00000000000000000000001101000110
00000000000000000000010100011101
11111111111111111111111001110111
11111111111111111111111101110100
00000000000000000000000101100110
11111111111111111111111000001101
11111111111111111111100001001000
11111111111111111111010001110111
11111111111111111110001111011100
11111111111111111101101001011100
11111111111111111110010110001001
11111111111111111110001011110001
11111111111111111101100010111111
11111111111111111110010000001001
11111111111111111111001010011111
11111111111111111111011111011000
11111111111111111111010111011110
11111111111111111111011110111001
11111111111111111111101101110100
11111111111111111111100100001000
11111111111111111111111001010111
00000000000000000000001101011001
00000000000000000000010001110000
00000000000000000000001110100110
00000000000000000000000100000100
00000000000000000000000011100011
00000000000000000000001001100110
00000000000000000000000010000011
00000000000000000000001100110110
00000000000000000000010011010100
00000000000000000000001100010100
11111111111111111111111001100100
11111111111111111111110011110000
11111111111111111111011111100001
11111111111111111111011111100011
11111111111111111110100110010001
11111111111111111110010011010010
11111111111111111110101101101110
11111111111111111111001111001110
11111111111111111110001101011111
11111111111111111101100110100100
11111111111111111110000100001101
11111111111111111111000010010101
11111111111111111111100100100100
11111111111111111111100100100101
11111111111111111111101000011110
11111111111111111111100100101010
11111111111111111111101000001100
00000000000000000000000001100010
00000000000000000000000101101110
00000000000000000000001110000000
00000000000000000000001111110010
00000000000000000000010000100101
00000000000000000000000111010111
00000000000000000000001110111100
00000000000000000000000010010000
00000000000000000000001001011010
00000000000000000000000011000001
11111111111111111111111110110100
11111111111111111111110011000101
11111111111111111111100111111011
11111111111111111111101111101101
11111111111111111111000011100110
11111111111111111110101100000001
11111111111111111110100011100011
11111111111111111110110110110000
11111111111111111110111000011111
11111111111111111110001110100110
11111111111111111110001001011011
11111111111111111110110011011010
11111111111111111110110101101001
11111111111111111111010101100000
11111111111111111111100000100010
11111111111111111111110011100000
11111111111111111111111011000001
00000000000000000000001010111111
11111111111111111111111101001000
00000000000000000000001010101110
00000000000000000000000010000001
11111111111111111111111111101100
00000000000000000000000100110011
00000000000000000000001111110101
00000000000000000000010010001010
00000000000000000000000010110111
00000000000000000000000011100101
00000000000000000000001010110110
11111111111111111111111101100110
00000000000000000000000110110100
11111111111111111111110000001110
11111111111111111111111100101001
11111111111111111111010101001111
11111111111111111110011101110101
11111111111111111110011000101101
11111111111111111110111010011110
11111111111111111111001001100101
11111111111111111111010101100010
11111111111111111110110110010100
11111111111111111110101100100111
11111111111111111110010100101010
11111111111111111110110000000101
11111111111111111111100010101010
11111111111111111111111111000011
11111111111111111111111111100110
00000000000000000000000101100011
11111111111111111111111010011101
00000000000000000000000101011010
00000000000000000000000101111000
00000000000000000000001111110010
00000000000000000000000100111110
00000000000000000000000111101010
00000000000000000000001111000011
00000000000000000000001001110101
00000000000000000000000100110100
00000000000000000000001010000011
00000000000000000000000110100001
00000000000000000000001001011000
00000000000000000000010100010010
11111111111111111111111101011010
11111111111111111110111101100011
11111111111111111110101110100000
11111111111111111110010011100101
11111111111111111110101001010110
11111111111111111111000111100001
11111111111111111111001011101001
11111111111111111110111111011010
11111111111111111110011100101111
11111111111111111110100000001101
11111111111111111111010100111100
11111111111111111111111000010100
00000000000000000000001001100110
11111111111111111111111010010001
00000000000000000000000001010100
00000000000000000000000000110101
11111111111111111111111110101011
00000000000000000000001011110011
00000000000000000000001101001001
00000000000000000000001011111000
00000000000000000000010001010000
00000000000000000000001000110100
00000000000000000000010000100111
00000000000000000000000110011001
00000000000000000000000011000010
00000000000000000000001010001001
00000000000000000000011000110001
00000000000000000000001001100010
11111111111111111111111011100100
11111111111111111111110011100101
11111111111111111111111010011001
11111111111111111111110010101111
00000000000000000000000001111110
11111111111111111111110111101001
11111111111111111111010001111000
11111111111111111111010100110110
11111111111111111111010110101011
11111111111111111111001011111000
11111111111111111111111101000110
00000000000000000000001011101100
00000000000000000000010000010110
00000000000000000000001110110011
00000000000000000000010101100100
00000000000000000000000110010110
00000000000000000000001110011110
00000000000000000000000001001100
00000000000000000000001110110100
00000000000000000000000001110111
00000000000000000000001110100000
00000000000000000000001001001100
00000000000000000000001101011100
00000000000000000000001101011011
00000000000000000000010011001011
00000000000000000000010001110010
00000000000000000000000101100010
00000000000000000000001110001011
00000000000000000000010000001100
00000000000000000000001101110100
00000000000000000000000001001011
11111111111111111111110110110101
00000000000000000000010101101000
00000000000000000000000001001101
11111111111111111111101100110101
11111111111111111111110011011100
11111111111111111111110000010111
11111111111111111111100000100010
11111111111111111111110001111011
11111111111111111111110110001000
00000000000000000000001001110011
00000000000000000000001011011111
00000000000000000000001110010010
00000000000000000000001000100100
00000000000000000000000011100111
00000000000000000000000100011110
00000000000000000000001111011010
00000000000000000000000010001101
00000000000000000000000110110011
00000000000000000000001100011110
00000000000000000000000100000100
00000000000000000000000011000001
00000000000000000000000011011010
00000000000000000000010000001001
00000000000000000000001111011111
00000000000000000000000011010001
00000000000000000000001100010000
11111111111111111111111011000111
11111111111111111111111110011110
00000000000000000000000100010111
00000000000000000000000111110110
00000000000000000000000010010011
00000000000000000000000100001100
11111111111111111111111011111011
11111111111111111111101110011011
11111111111111111111110000111011
11111111111111111111110110001011
00000000000000000000001000111100
00000000000000000000001000100011
00000000000000000000010100111111
00000000000000000000001010001100
00000000000000000000000101100011
00000000000000000000000100010100
00000000000000000000001010010111
00000000000000000000001000010000
00000000000000000000000111001100
00000000000000000000001110110001
00000000000000000000000101011001
00000000000000000000001001011001
00000000000000000000000011010010
00000000000000000000010001110111
00000000000000000000001101011110
00000000000000000000000110011010
00000000000000000000000011000000
00000000000000000000001100011100
00000000000000000000000011110111
00000000000000000000000100111000
00000000000000000000000100000101
00000000000000000000000011100001
00000000000000000000001100001101
00000000000000000000010000000110
11111111111111111111111100110001
00000000000000000000001000010100
00000000000000000000001101111001
00000000000000000000001010000010
00000000000000000000001100001011
00000000000000000000000011100010
00000000000000000000000001110000
00000000000000000000001010101110
00000000000000000000001011110000
00000000000000000000001111010101
00000000000000000000001100101110
00000000000000000000001011101111
00000000000000000000000000001111
00000000000000000000000100110010
