00000000000000000000001010100111
00000000000000000000000100101111
00000000000000000000001010100100
00000000000000000000000010100010
00000000000000000000000011110100
00000000000000000000010001110000
00000000000000000000000110010101
00000000000000000000001010100000
00000000000000000000001010000100
00000000000000000000001000110101
00000000000000000000001000100110
00000000000000000000010000001110
00000000000000000000001010010110
00000000000000000000001000011011
00000000000000000000001011110001
00000000000000000000000010111111
00000000000000000000000101111011
00000000000000000000001110110110
00000000000000000000010000001011
00000000000000000000001001111001
00000000000000000000001110011001
00000000000000000000000011111001
00000000000000000000001100101000
00000000000000000000000001010001
00000000000000000000000000111001
00000000000000000000001100010010
00000000000000000000001001000011
00000000000000000000000011101000
00000000000000000000001111011010
00000000000000000000000110110111
00000000000000000000010000011011
00000000000000000000000111110000
00000000000000000000001011100110
00000000000000000000001000101010
00000000000000000000001010000011
00000000000000000000001111000101
00000000000000000000001000010011
00000000000000000000010000000011
00000000000000000000000110110001
00000000000000000000010001011000
00000000000000000000000101100100
00000000000000000000001101110110
00000000000000000000010011010011
00000000000000000000011010000001
00000000000000000000000101111111
00000000000000000000001000000011
00000000000000000000000000101100
00000000000000000000001010000111
00000000000000000000000101100000
00000000000000000000000000000110
00000000000000000000000011111111
00000000000000000000000010010110
00000000000000000000000100000101
00000000000000000000010000101100
00000000000000000000000011101010
00000000000000000000000100111111
00000000000000000000001010101100
00000000000000000000001100101101
00000000000000000000001000101000
00000000000000000000000111110011
00000000000000000000000001000010
00000000000000000000000110100100
00000000000000000000001101011011
00000000000000000000001001011011
00000000000000000000001011100110
00000000000000000000000001010101
00000000000000000000000000011111
11111111111111111111111101110001
11111111111111111111111110001100
00000000000000000000001010010101
11111111111111111111110100000000
00000000000000000000000011111110
00000000000000000000001011000000
00000000000000000000000001111001
00000000000000000000000111101100
11111111111111111111111110110010
00000000000000000000001010000101
00000000000000000000001010100001
00000000000000000000001101010100
00000000000000000000000001001110
00000000000000000000010000001001
00000000000000000000000010101000
00000000000000000000000011011001
00000000000000000000000000101100
00000000000000000000000000100101
00000000000000000000000111000011
00000000000000000000000101111111
00000000000000000000001011010000
00000000000000000000000001001000
00000000000000000000001101100010
11111111111111111111111101111110
11111111111111111111111001110100
11111111111111111111110101011000
00000000000000000000000001101001
11111111111111111111111100111100
11111111111111111111100010010000
11111111111111111111110001001110
11111111111111111111101010111011
11111111111111111111011101110101
00000000000000000000001011101111
00000000000000000000001001100010
00000000000000000000000111110001
00000000000000000000000111011110
00000000000000000000000110011110
00000000000000000000010010001010
00000000000000000000000010011110
00000000000000000000000110100000
00000000000000000000001010110011
00000000000000000000010010111100
00000000000000000000000111101100
00000000000000000000001001001010
00000000000000000000001011110011
00000000000000000000001000100000
00000000000000000000001101001010
00000000000000000000001101100100
00000000000000000000001001001111
00000000000000000000000001000001
00000000000000000000001110111111
11111111111111111111111101010100
11111111111111111111110101100011
00000000000000000000000001000001
11111111111111111111111100001101
11111111111111111111110010111111
11111111111111111111111100100111
11111111111111111111011100110001
11111111111111111111000110010111
11111111111111111111000111111110
11111111111111111111010000001000
11111111111111111111001000100111
11111111111111111110110110110000
11111111111111111111000100011000
11111111111111111111110000110010
11111111111111111111111011111100
11111111111111111111111100001111
00000000000000000000000010010010
00000000000000000000010100101111
00000000000000000000000101110101
00000000000000000000001010010010
00000000000000000000000001100110
00000000000000000000000010110001
00000000000000000000000000010000
00000000000000000000001010111110
00000000000000000000001111101101
00000000000000000000000111110100
00000000000000000000000000010001
00000000000000000000000110001101
00000000000000000000000111110100
11111111111111111111101110111010
11111111111111111111111000000001
11111111111111111111101110011010
11111111111111111111100101111011
11111111111111111111010110111001
11111111111111111111000010100010
11111111111111111111000101000100
11111111111111111111000101100001
11111111111111111111001100111001
11111111111111111110101001011111
11111111111111111101110110011111
11111111111111111110010100101100
11111111111111111111000111000101
11111111111111111111011110001011
11111111111111111111110110100010
00000000000000000000000000101010
11111111111111111111110101100111
11111111111111111111110110010110
00000000000000000000001010000000
00000000000000000000001011010010
00000000000000000000000101111000
00000000000000000000001011011000
00000000000000000000001111111000
00000000000000000000001000110111
00000000000000000000000110111111
11111111111111111111111100010010
11111111111111111111111011101001
11111111111111111111101100010111
11111111111111111111101001010000
11111111111111111111101111101000
11111111111111111111100110101001
11111111111111111111100111100001
11111111111111111111101011000111
11111111111111111111101011000010
11111111111111111111001001001000
11111111111111111111001011110110
11111111111111111111100011111101
11111111111111111111011101110110
11111111111111111110101101110101
11111111111111111111001100110001
11111111111111111110111010101001
11111111111111111111001111101111
11111111111111111111101101110000
11111111111111111111111111111101
11111111111111111111111001110000
11111111111111111111110100001100
00000000000000000000000101110101
00000000000000000000010110101100
00000000000000000000000010001000
00000000000000000000000111000000
00000000000000000000001101101001
00000000000000000000000110100001
11111111111111111111111011100110
00000000000000000000000011001001
11111111111111111111110010101100
11111111111111111111101010000111
11111111111111111111010001101111
11111111111111111111011000101101
11111111111111111111100100111101
11111111111111111111110011010010
11111111111111111111101100011100
11111111111111111111110101110010
11111111111111111110101011101110
11111111111111111110111001100001
11111111111111111110110101010110
11111111111111111111101100010100
11111111111111111110110101110001
11111111111111111111000011111110
11111111111111111110110001100101
11111111111111111110101110011010
11111111111111111111011001100100
11111111111111111111110011101001
00000000000000000000001010101011
00000000000000000000001100010101
00000000000000000000001101001011
00000000000000000000001000111110
00000000000000000000001101100011
00000000000000000000001101001011
00000000000000000000000010111011
00000000000000000000001011101100
11111111111111111111111101011101
00000000000000000000001000000000
11111111111111111111110111000001
11111111111111111111100101011100
11111111111111111111010010101111
11111111111111111110101000111110
11111111111111111110100111001100
11111111111111111111011001010110
11111111111111111111001011010101
11111111111111111110111110101010
11111111111111111101111011111010
11111111111111111110101010011110
11111111111111111110100011000110
11111111111111111110001011010010
11111111111111111110110001111000
11111111111111111110101100101000
11111111111111111110011010011101
11111111111111111110101100010100
11111111111111111111100011111110
00000000000000000000000110000111
00000000000000000000010111110000
00000000000000000000011000110100
00000000000000000000011010101001
00000000000000000000011000100110
00000000000000000000001101011010
00000000000000000000010000011001
00000000000000000000000011000101
00000000000000000000000010000100
00000000000000000000000011100001
11111111111111111111110101100000
11111111111111111111110001101001
11111111111111111111011111100010
11111111111111111110110110011111
11111111111111111110001010110000
11111111111111111110100011011111
11111111111111111110111111110010
11111111111111111110101111111001
11111111111111111110011101110011
11111111111111111110010001001101
11111111111111111110010010111001
11111111111111111101111000010001
11111111111111111110001100001110
11111111111111111111010000111111
11111111111111111111010100010000
11111111111111111110101010110110
11111111111111111110101000100110
11111111111111111111101000001001
11111111111111111111110101110001
11111111111111111111111101011101
00000000000000000000100000101010
00000000000000000000010001000000
00000000000000000000010111010110
00000000000000000000010010010010
00000000000000000000001111110010
00000000000000000000001110010100
00000000000000000000000111011000
00000000000000000000000010001100
11111111111111111111101111111101
11111111111111111111100110010010
11111111111111111111011100000010
11111111111111111110110101000100
11111111111111111110011011010101
11111111111111111110101110100001
11111111111111111111001001010011
11111111111111111110111000000010
11111111111111111111010010011110
11111111111111111110111010000001
11111111111111111101110111000100
11111111111111111101101010111101
11111111111111111110011111011111
11111111111111111111010001000010
11111111111111111110110000101101
11111111111111111110101001111011
11111111111111111110111011110001
11111111111111111111001110001111
11111111111111111111101000101000
11111111111111111111100000100111
00000000000000000000001101011001
00000000000000000000001111110100
00000000000000000000001111000101
00000000000000000000001101001011
00000000000000000000001001000001
00000000000000000000000110110100
00000000000000000000000111100100
00000000000000000000000000100010
00000000000000000000000101111110
11111111111111111111110110001011
11111111111111111111010101011010
11111111111111111111000100101011
11111111111111111110101010001101
11111111111111111110110111010001
11111111111111111111001110111101
11111111111111111111011100011101
11111111111111111111110100000100
11111111111111111111010101011100
11111111111111111110100000111111
11111111111111111110010000000010
11111111111111111110111011100110
11111111111111111111011000100010
11111111111111111110110010100000
11111111111111111110101010000011
11111111111111111110101100001001
11111111111111111110111100000100
11111111111111111111001111101100
11111111111111111111010010001100
11111111111111111111101101001111
00000000000000000000001100111100
11111111111111111111111110101011
00000000000000000000000111110111
00000000000000000000000010101010
00000000000000000000001100111111
11111111111111111111111111100010
00000000000000000000001100000001
00000000000000000000000010110100
00000000000000000000000010000100
11111111111111111111101010010111
11111111111111111111100010100101
11111111111111111111101011111001
11111111111111111111100100110110
11111111111111111111101000010100
11111111111111111111110011011001
00000000000000000000001110010010
11111111111111111111011000000000
11111111111111111110111110000101
11111111111111111110001110001011
11111111111111111110100010000110
11111111111111111110010111001111
11111111111111111110000101111111
11111111111111111110010101011010
11111111111111111110100111111000
11111111111111111110110000110011
11111111111111111111001010011101
11111111111111111111010100101001
11111111111111111111110001110100
00000000000000000000001110011101
00000000000000000000001010100001
00000000000000000000000100010011
00000000000000000000000101100001
00000000000000000000001010011000
00000000000000000000001001111010
00000000000000000000001010100001
00000000000000000000001010000010
00000000000000000000000110101111
11111111111111111111110100000101
11111111111111111111111101001111
11111111111111111111100111101011
11111111111111111111100100001100
11111111111111111111001110011101
11111111111111111111100000111000
11111111111111111111110010011101
11111111111111111110011101111111
11111111111111111110010110100110
11111111111111111101100101001100
11111111111111111110001011101111
11111111111111111101111010111111
11111111111111111101111110110111
11111111111111111110000101000000
11111111111111111110110100001001
11111111111111111111000111100100
11111111111111111111011010100100
11111111111111111111100100101010
00000000000000000000000001011101
00000000000000000000001011010000
00000000000000000000001010110100
00000000000000000000000000001100
00000000000000000000001100011101
00000000000000000000001110101010
00000000000000000000000011011111
00000000000000000000010000011000
00000000000000000000001000100011
11111111111111111111110101111010
11111111111111111111110011001111
00000000000000000000000100000001
11111111111111111111110010110111
11111111111111111111011011110011
11111111111111111111001100100100
11111111111111111110111111011011
11111111111111111110110111110101
11111111111111111100111010100111
11111111111111111101011001100110
11111111111111111101011101110010
11111111111111111110100100011000
11111111111111111110101100110011
11111111111111111110101101011010
11111111111111111111000000100101
11111111111111111111010110001001
11111111111111111111011010110110
11111111111111111111101000111111
11111111111111111111110100110100
11111111111111111111110100100111
11111111111111111111111100011011
00000000000000000000000000111111
00000000000000000000001010000011
00000000000000000000001000011001
00000000000000000000000111111101
00000000000000000000001011001001
11111111111111111111111101111110
11111111111111111111111000100110
11111111111111111111101100000111
11111111111111111111011011010011
11111111111111111111101111100100
00000000000000000000000000010011
11111111111111111111010111000011
11111111111111111110100111101001
11111111111111111110110010001111
11111111111111111110010100111110
11111111111111111101010111011110
11111111111111111100101111000010
11111111111111111101011010100000
11111111111111111110110111111101
11111111111111111110110111011100
11111111111111111111000011001010
11111111111111111111001101011101
11111111111111111111001111010100
11111111111111111111010111011111
11111111111111111111011011011001
11111111111111111111101110000100
11111111111111111111110110100000
00000000000000000000000110011011
00000000000000000000001010011111
00000000000000000000000101101100
00000000000000000000001110010110
00000000000000000000001001000001
00000000000000000000001111001100
11111111111111111111111111111001
00000000000000000000000111110000
11111111111111111111101100111111
11111111111111111111010000111100
11111111111111111111010001011100
11111111111111111111010100110001
11111111111111111111010011011100
11111111111111111110111001101001
11111111111111111111001000000110
11111111111111111110011001000100
11111111111111111101101000011010
11111111111111111101110111011110
11111111111111111110011001001010
11111111111111111111000101001111
11111111111111111110110010111101
11111111111111111111001000000110
11111111111111111111011111001101
11111111111111111111000001100000
11111111111111111111000010111111
11111111111111111111011100100110
00000000000000000000000000111011
11111111111111111111111000010000
00000000000000000000001010101001
00000000000000000000001110010110
00000000000000000000000101110011
00000000000000000000000101011010
00000000000000000000000000110110
00000000000000000000001010010101
11111111111111111111111101100001
00000000000000000000000001010100
00000000000000000000000110110100
11111111111111111111010110000110
11111111111111111111001110110000
11111111111111111111011011100111
11111111111111111111001111101000
11111111111111111110101100110001
11111111111111111110011111001100
11111111111111111110000000010011
11111111111111111101001100111010
11111111111111111110011010000011
11111111111111111110111110001111
11111111111111111110101101110111
11111111111111111110110001010111
11111111111111111111000111000100
11111111111111111111011111000010
11111111111111111111010010011100
11111111111111111111010010001110
11111111111111111111110000010010
11111111111111111111111101010000
00000000000000000000000010011101
00000000000000000000001100111101
00000000000000000000000111010101
00000000000000000000001011110101
00000000000000000000001000000000
00000000000000000000010001000100
00000000000000000000010000111110
00000000000000000000010001111001
00000000000000000000001101001010
11111111111111111111111111111101
11111111111111111111110100111010
11111111111111111111100011111010
11111111111111111111011010101110
11111111111111111110111101110110
11111111111111111110001111011010
11111111111111111110001001100000
11111111111111111101101110111000
11111111111111111101101011010000
11111111111111111110011001011101
11111111111111111110110111100001
11111111111111111110001100011110
11111111111111111110111110100101
11111111111111111111000111111101
11111111111111111111010101000000
11111111111111111111100111111110
11111111111111111111110111100110
11111111111111111111100111101111
11111111111111111111111110000100
00000000000000000000000101001001
00000000000000000000001001000011
00000000000000000000000011111011
00000000000000000000000010111111
00000000000000000000000011100001
00000000000000000000001000100101
00000000000000000000010001100011
00000000000000000000010010110101
00000000000000000000000110001000
00000000000000000000000000101010
11111111111111111111110111100111
00000000000000000000000101111000
11111111111111111111101101010001
11111111111111111110111010110011
11111111111111111110010111110001
11111111111111111101110001101011
11111111111111111110000000010011
11111111111111111110011111110011
11111111111111111110010000010100
11111111111111111110001000000000
11111111111111111110011011010111
11111111111111111110100000011011
11111111111111111110101011110010
11111111111111111111000100011110
11111111111111111111010011100111
11111111111111111111100001100100
11111111111111111111011010101010
11111111111111111111110101010110
11111111111111111111111010010010
00000000000000000000000110010010
00000000000000000000000110000010
00000000000000000000001101101101
00000000000000000000001101111010
00000000000000000000000111001010
00000000000000000000010010001101
00000000000000000000010110000001
00000000000000000000001111110101
00000000000000000000001001011101
00000000000000000000001110001000
11111111111111111111111101010000
11111111111111111111100110010011
11111111111111111110110100011110
11111111111111111110100000100100
11111111111111111110100000011100
11111111111111111110110000101110
11111111111111111110001011100101
11111111111111111101110010001010
11111111111111111101101010010111
11111111111111111110011001110110
11111111111111111110101101100011
11111111111111111110111001110111
11111111111111111111010010000010
11111111111111111111100101011111
11111111111111111111101001100011
11111111111111111111011011110000
11111111111111111111110000011000
11111111111111111111111010100110
00000000000000000000000010111111
00000000000000000000000111001001
00000000000000000000000100100110
00000000000000000000001101000100
00000000000000000000001011101100
11111111111111111111111100001011
00000000000000000000000011101000
11111111111111111111110111111001
00000000000000000000000101100110
11111111111111111111110111101100
11111111111111111111110101010101
11111111111111111111100000111000
11111111111111111110101000001100
11111111111111111110110001001001
11111111111111111110100001101111
11111111111111111111001101011110
11111111111111111101110010000110
11111111111111111101100110110000
11111111111111111110000010101000
11111111111111111110101000011101
11111111111111111111000010101011
11111111111111111111011100111101
11111111111111111111101010000110
00000000000000000000001011011011
11111111111111111111110110011010
11111111111111111111101110110011
11111111111111111111111101001000
00000000000000000000001101110000
00000000000000000000001011010010
00000000000000000000000101010000
00000000000000000000000011101110
00000000000000000000000001001011
00000000000000000000001010100101
00000000000000000000000101110011
00000000000000000000000110010100
11111111111111111111111000100111
11111111111111111111111100010101
11111111111111111111101000100100
11111111111111111111101111000101
11111111111111111111011010101001
11111111111111111110110010011000
11111111111111111110011101010001
11111111111111111110111011001010
11111111111111111110111011010101
11111111111111111110011100110111
11111111111111111110011111010110
11111111111111111110110101111101
11111111111111111110110111101010
11111111111111111111001110000111
11111111111111111111111011101110
00000000000000000000001000010011
00000000000000000000000111011010
11111111111111111111111110010110
00000000000000000000000010000101
00000000000000000000000001001111
00000000000000000000001011100010
00000000000000000000000101000010
00000000000000000000001110111110
00000000000000000000001001011110
00000000000000000000010000000001
00000000000000000000000001010101
00000000000000000000001100101101
00000000000000000000001010111100
00000000000000000000001010000010
11111111111111111111111110000111
11111111111111111111111111100101
11111111111111111111111101100010
11111111111111111111001000010101
11111111111111111111010010001111
11111111111111111110101100000110
11111111111111111110100010011011
11111111111111111110110001011101
11111111111111111110011110000000
11111111111111111110011000101111
11111111111111111110011100001011
11111111111111111110110010111001
11111111111111111111000110000101
11111111111111111111100010100011
11111111111111111111111100101010
00000000000000000000010001001110
00000000000000000000001110101001
00000000000000000000000111111100
00000000000000000000000000111011
00000000000000000000000101111001
00000000000000000000000111101011
00000000000000000000000111100000
00000000000000000000001110001110
00000000000000000000001000000110
00000000000000000000000011010111
00000000000000000000000101100110
00000000000000000000000011111110
00000000000000000000001000100100
00000000000000000000001111101111
00000000000000000000010000111110
00000000000000000000001010111100
11111111111111111111110010101010
00000000000000000000000110001101
11111111111111111111111011000000
11111111111111111111110010010100
11111111111111111111100111010000
11111111111111111111000111100110
11111111111111111111001100101011
11111111111111111111001111101001
11111111111111111111010101000101
11111111111111111111111000010111
11111111111111111111110101010101
00000000000000000000000111001000
00000000000000000000010000010001
00000000000000000000001011110000
00000000000000000000001111101100
00000000000000000000001110101100
00000000000000000000010001011001
00000000000000000000000001010011
00000000000000000000001100001011
00000000000000000000000100000000
00000000000000000000000101000101
00000000000000000000000000101001
00000000000000000000010010001011
00000000000000000000001110101010
00000000000000000000001101001000
00000000000000000000010000110111
00000000000000000000001111100100
00000000000000000000011011111101
00000000000000000000010011110111
00000000000000000000001000011111
11111111111111111111110101001001
11111111111111111111111111001111
11111111111111111111111100010111
11111111111111111111100110111010
11111111111111111111110000011101
11111111111111111111011001100110
11111111111111111111011001101101
11111111111111111111100110001010
11111111111111111111111111010001
11111111111111111111110001101110
11111111111111111111111011010100
00000000000000000000010010110100
00000000000000000000001100101110
00000000000000000000000001100110
00000000000000000000000001110010
00000000000000000000010001010101
00000000000000000000001011001000
00000000000000000000000000110000
00000000000000000000010001110000
00000000000000000000000101000011
00000000000000000000000100110000
00000000000000000000000100101010
00000000000000000000000101110011
00000000000000000000000111001001
00000000000000000000010001111100
00000000000000000000000111101001
11111111111111111111111111010001
11111111111111111111101110011100
11111111111111111111101000101101
11111111111111111111111011111100
11111111111111111111110001001000
11111111111111111111110011011100
11111111111111111111101100000011
11111111111111111111110111010010
11111111111111111111101110100011
11111111111111111111110110100010
00000000000000000000000011001101
00000000000000000000001001000111
00000000000000000000010001111100
00000000000000000000001111111100
00000000000000000000010001010110
00000000000000000000000000101010
00000000000000000000001101000011
00000000000000000000000110110110
00000000000000000000000001010011
00000000000000000000001110000110
00000000000000000000000101100111
00000000000000000000001100011101
00000000000000000000001110110110
00000000000000000000000101000101
00000000000000000000010001011101
00000000000000000000000001010010
00000000000000000000001001100000
00000000000000000000000011111111
00000000000000000000000100111011
00000000000000000000001001001101
00000000000000000000001111010011
00000000000000000000001100110001
00000000000000000000000011000100
00000000000000000000001010110011
00000000000000000000001000010100
00000000000000000000000111111000
11111111111111111111111100111111
11111111111111111111111101101001
00000000000000000000000100010010
00000000000000000000001100111100
00000000000000000000001111110111
00000000000000000000000101101011
00000000000000000000001101001110
00000000000000000000001111000001
00000000000000000000000001000011
00000000000000000000001010011000
00000000000000000000001111110000
00000000000000000000001110000111
