00000000000000000000000011101000
00000000000000000000000000110101
00000000000000000000001001010100
00000000000000000000000111000000
00000000000000000000001001000110
00000000000000000000001001101111
00000000000000000000000110001001
00000000000000000000010001110010
00000000000000000000000011100111
00000000000000000000001000011001
00000000000000000000000000101000
00000000000000000000010001010101
00000000000000000000001001111111
00000000000000000000000011000000
00000000000000000000001111111000
00000000000000000000001010110110
00000000000000000000001011100100
00000000000000000000001111000111
00000000000000000000001010001001
00000000000000000000001111111111
00000000000000000000010000111010
00000000000000000000001101101001
00000000000000000000010000010011
00000000000000000000001111101100
00000000000000000000001010101000
00000000000000000000001110110111
00000000000000000000001100111111
00000000000000000000000101001010
00000000000000000000001101001000
00000000000000000000000000001111
00000000000000000000000011010100
00000000000000000000010000110000
00000000000000000000000001000011
00000000000000000000001100100110
00000000000000000000000101011000
00000000000000000000001001110101
00000000000000000000000110000000
00000000000000000000001011011101
00000000000000000000001000001010
00000000000000000000000101110000
00000000000000000000000000000100
00000000000000000000001000001111
00000000000000000000001001010010
00000000000000000000010000010001
00000000000000000000001100111100
00000000000000000000000010011100
00000000000000000000000010100110
00000000000000000000000101101010
00000000000000000000000001011001
00000000000000000000001111000110
00000000000000000000000101010110
00000000000000000000010010000101
00000000000000000000001010010100
00000000000000000000000011010110
00000000000000000000001111100010
00000000000000000000000010101010
00000000000000000000010010001101
00000000000000000000001010010000
00000000000000000000000111110101
00000000000000000000001101000110
00000000000000000000001010011110
00000000000000000000001011000000
00000000000000000000001010111000
00000000000000000000001000110101
00000000000000000000000010110100
00000000000000000000001111110001
00000000000000000000000001101011
11111111111111111111111111001110
11111111111111111111111101001100
00000000000000000000000010000001
00000000000000000000000011100010
11111111111111111111111111001110
11111111111111111111110100010101
11111111111111111111101101101100
11111111111111111111101110000100
11111111111111111111110001101111
11111111111111111111111100100101
00000000000000000000000010100000
00000000000000000000000110001110
00000000000000000000001011000101
00000000000000000000000111101001
00000000000000000000001110001110
00000000000000000000001011010011
00000000000000000000010001110100
00000000000000000000010001011111
00000000000000000000001000100011
00000000000000000000000010010101
00000000000000000000010001011111
00000000000000000000000000101011
00000000000000000000001001101010
00000000000000000000001011010000
00000000000000000000000101011011
11111111111111111111111101001000
11111111111111111111111110010100
11111111111111111111110101111000
11111111111111111111110000011101
11111111111111111111101101011110
11111111111111111111110111101000
00000000000000000000000011111101
00000000000000000000000100110110
11111111111111111111100111100111
11111111111111111111101000101001
11111111111111111111101000101000
11111111111111111111110001110011
11111111111111111111111010011110
00000000000000000000001100100001
00000000000000000000001101010101
00000000000000000000010010101000
00000000000000000000001000010111
00000000000000000000010001111001
00000000000000000000001000000000
00000000000000000000001110011010
00000000000000000000001101101000
00000000000000000000000000111101
00000000000000000000001110011011
00000000000000000000001100101011
00000000000000000000001000000100
00000000000000000000001011110000
00000000000000000000000011110000
11111111111111111111111011011110
11111111111111111111111000001010
11111111111111111111110111000111
11111111111111111111101100010010
11111111111111111111100011101001
11111111111111111111010010010011
11111111111111111110110110110111
11111111111111111110110110000000
11111111111111111111001011000100
11111111111111111110110011110000
11111111111111111110001111111101
11111111111111111110110011011100
11111111111111111111001110001111
11111111111111111111110011011011
00000000000000000000000010010010
00000000000000000000010011010111
00000000000000000000001110110011
00000000000000000000011000001000
00000000000000000000010100001110
00000000000000000000000000101011
00000000000000000000000100100101
00000000000000000000001111010111
00000000000000000000001000100001
00000000000000000000000000101111
00000000000000000000001010001111
00000000000000000000000101010001
00000000000000000000000100110110
11111111111111111111110101100001
11111111111111111111110101001101
11111111111111111111111000101111
11111111111111111111101111000001
11111111111111111111011100100011
11111111111111111111000011010011
11111111111111111110111110010100
11111111111111111111000000110101
11111111111111111110101000100000
11111111111111111110001101000111
11111111111111111101101110011011
11111111111111111101111010011111
11111111111111111110000110100000
11111111111111111110011111101110
11111111111111111110111111010111
11111111111111111111010011111110
00000000000000000000000000101110
00000000000000000000001011011101
00000000000000000000000100111010
00000000000000000000000110101000
00000000000000000000010010010001
00000000000000000000000110000101
00000000000000000000000010101110
00000000000000000000000000011101
00000000000000000000001010100101
00000000000000000000001110111000
11111111111111111111111110001101
11111111111111111111111110100100
11111111111111111111111111010101
11111111111111111111110010001010
11111111111111111111101101011111
11111111111111111111110110011101
11111111111111111111100111001000
11111111111111111111011110101111
11111111111111111111110111110001
11111111111111111111100011100110
11111111111111111110111100011010
11111111111111111111000001001101
11111111111111111110111110100001
11111111111111111111000011000001
11111111111111111110110111001010
11111111111111111110110001101010
11111111111111111111000100101111
11111111111111111111000110100011
11111111111111111111011001100101
11111111111111111111111011100011
11111111111111111111111101100111
00000000000000000000000111010001
00000000000000000000000110100101
00000000000000000000001001100110
00000000000000000000001100000010
00000000000000000000000101101010
00000000000000000000001101100010
00000000000000000000000110000001
11111111111111111111110101010100
11111111111111111111110001100100
11111111111111111111110101001111
11111111111111111111101110101101
11111111111111111111011101000111
11111111111111111111011110010010
11111111111111111111011111011010
11111111111111111111100010011001
11111111111111111111010110000000
11111111111111111111001000110000
11111111111111111111000011111010
11111111111111111110110101000110
11111111111111111110111100110000
11111111111111111110001111111000
11111111111111111110010011011101
11111111111111111110010011010110
11111111111111111110010010000000
11111111111111111110101011011100
11111111111111111111011000001100
00000000000000000000000001011111
00000000000000000000000110100001
00000000000000000000010011100010
00000000000000000000000110010001
00000000000000000000001110111111
00000000000000000000000110100000
00000000000000000000001011101100
00000000000000000000000000011100
11111111111111111111101101011110
11111111111111111111011110011111
11111111111111111111100000001101
11111111111111111111101100011001
11111111111111111111011110111001
11111111111111111111011100011000
11111111111111111110111110110011
11111111111111111110111010111101
11111111111111111111011011001101
11111111111111111111000000100001
11111111111111111110101001100001
11111111111111111110001111101101
11111111111111111110000011101100
11111111111111111110001000010110
11111111111111111110000111111000
11111111111111111101110001111010
11111111111111111101110101000000
11111111111111111101111100010001
11111111111111111110011110001110
11111111111111111111010010001000
11111111111111111111111100001111
00000000000000000000001110000001
00000000000000000000001000001000
00000000000000000000010011011110
00000000000000000000000110000100
00000000000000000000000001111000
00000000000000000000000100010011
11111111111111111111111100000010
11111111111111111111110101100001
11111111111111111111110000110111
11111111111111111111101001001001
11111111111111111111110001000111
11111111111111111111010101110001
11111111111111111110110111111000
11111111111111111110010111011110
11111111111111111110101111010111
11111111111111111111001011010100
11111111111111111111011001010000
11111111111111111110100101100001
11111111111111111110000001100100
11111111111111111110000001101001
11111111111111111110001010110000
11111111111111111110100101110101
11111111111111111110000100000001
11111111111111111110000000110111
11111111111111111101111101001000
11111111111111111110110101010101
11111111111111111111010101100111
11111111111111111111111001010010
00000000000000000000011010011000
00000000000000000000000110110000
00000000000000000000001100001010
00000000000000000000001001001011
00000000000000000000000100010010
00000000000000000000000111001100
00000000000000000000001000000111
11111111111111111111110111010010
11111111111111111111111000010100
11111111111111111111111100110010
00000000000000000000000101010101
11111111111111111111100010001010
11111111111111111110101110101000
11111111111111111110011101100111
11111111111111111110110100100010
11111111111111111111101100011100
11111111111111111111111011010000
11111111111111111111001000010010
11111111111111111110100100000111
11111111111111111110011000001111
11111111111111111110110010001101
11111111111111111110011011111001
11111111111111111110011011101011
11111111111111111110011001010100
11111111111111111110100001001100
11111111111111111111001000000011
11111111111111111111100000011100
11111111111111111111111000111100
00000000000000000000010001101001
00000000000000000000001101101101
00000000000000000000001110110011
00000000000000000000000011011110
00000000000000000000000011001001
00000000000000000000000001100110
00000000000000000000000110100011
11111111111111111111111101010110
00000000000000000000001011011100
00000000000000000000000001011011
11111111111111111111111111011111
11111111111111111111011110110000
11111111111111111110111001101100
11111111111111111110100100101111
11111111111111111110111110100010
00000000000000000000000010111000
00000000000000000000001011111101
11111111111111111111010101111100
11111111111111111110011110110110
11111111111111111111001001111101
11111111111111111111000100001110
11111111111111111110111110000011
11111111111111111110011100100111
11111111111111111110101010000101
11111111111111111110100111011010
11111111111111111111000100010000
11111111111111111111011000000011
11111111111111111111110001101010
00000000000000000000001001101001
00000000000000000000010111101101
00000000000000000000010111011101
00000000000000000000001010011001
00000000000000000000001011110000
00000000000000000000001010001111
00000000000000000000001001101001
00000000000000000000001101100101
00000000000000000000011100000000
00000000000000000000000110000000
11111111111111111111110011100011
11111111111111111111101100010001
11111111111111111111001000000101
11111111111111111110101010001100
11111111111111111111000110010101
11111111111111111111110001010001
11111111111111111111011110111111
11111111111111111110100110100111
11111111111111111110110001010000
11111111111111111110111110101000
11111111111111111110110010000111
11111111111111111110111101000000
11111111111111111111000000010101
11111111111111111111010100101110
11111111111111111111010011111101
11111111111111111111000011010101
11111111111111111111010101110100
11111111111111111111101111110000
00000000000000000000000010101111
00000000000000000000001110111110
00000000000000000000001101000110
00000000000000000000010001100010
00000000000000000000001100010110
00000000000000000000000110100110
00000000000000000000000110111101
00000000000000000000001010001100
00000000000000000000011111110000
00000000000000000000000001010011
11111111111111111111101001011111
11111111111111111111100111011000
11111111111111111110111100101001
11111111111111111110100010000101
11111111111111111110110100000100
11111111111111111111101010000011
11111111111111111111010110111010
11111111111111111101111010001101
11111111111111111110011010010001
11111111111111111110010111011001
11111111111111111110111011101001
11111111111111111111001111011100
11111111111111111111001111111101
11111111111111111111100110100101
11111111111111111111100111101011
11111111111111111111010000100110
11111111111111111111001111110111
11111111111111111111100000111010
00000000000000000000001000100001
00000000000000000000010001100110
00000000000000000000000101111111
00000000000000000000000001101010
00000000000000000000001010010000
00000000000000000000001011000110
00000000000000000000010001101111
00000000000000000000000111101000
00000000000000000000010000010011
11111111111111111111110000100001
11111111111111111111011001100001
11111111111111111111001100001010
11111111111111111110110001010111
11111111111111111110101111010010
11111111111111111111000010100110
11111111111111111111100101010001
11111111111111111110111001110001
11111111111111111101110000000110
11111111111111111101011111100001
11111111111111111101110001010111
11111111111111111111011110100001
11111111111111111110111110110001
11111111111111111111010000101100
11111111111111111111010011101111
11111111111111111111011100001110
11111111111111111111010001100001
11111111111111111111010011000011
11111111111111111111101011101000
00000000000000000000000000001100
00000000000000000000000110001101
00000000000000000000000101001100
00000000000000000000001111011001
00000000000000000000001010010001
00000000000000000000000101111001
00000000000000000000010000100110
00000000000000000000000010100010
00000000000000000000000101000001
11111111111111111111110110011000
11111111111111111111011000001010
11111111111111111111000000000111
11111111111111111110110110111001
11111111111111111111001101100100
11111111111111111111100011000001
11111111111111111111100011110010
11111111111111111110010010010110
11111111111111111100111100100111
11111111111111111100111010110101
11111111111111111101100100101101
11111111111111111110111101000010
11111111111111111111000000000110
11111111111111111110111011100111
11111111111111111111010110101111
11111111111111111111000111001010
11111111111111111110111000011010
11111111111111111110101010110101
11111111111111111111010010101111
00000000000000000000000101100110
00000000000000000000010010001100
00000000000000000000000101011110
00000000000000000000000001011000
00000000000000000000001111100111
00000000000000000000000100100011
00000000000000000000010000100111
00000000000000000000001000100101
11111111111111111111111100110001
11111111111111111111101011001010
11111111111111111111010111001010
11111111111111111110110101110101
11111111111111111110110111100000
11111111111111111111010000011001
11111111111111111111011011000000
11111111111111111111001011011000
11111111111111111110001011101111
11111111111111111101001111010101
11111111111111111101000010010111
11111111111111111101111111110010
11111111111111111110111001010110
11111111111111111110100100000110
11111111111111111110101011111101
11111111111111111111001101111000
11111111111111111111000001001000
11111111111111111110100101000110
11111111111111111110111000001101
11111111111111111111100101001010
00000000000000000000000000111011
00000000000000000000001101101110
00000000000000000000001011000001
00000000000000000000001101111011
00000000000000000000000110010001
00000000000000000000001000011001
00000000000000000000001110111010
00000000000000000000000100011010
11111111111111111111111111110111
11111111111111111111100011100000
11111111111111111111010100100101
11111111111111111111010000100111
11111111111111111111011010010100
11111111111111111111010010111010
11111111111111111111010110111110
11111111111111111110111110001000
11111111111111111110000101111011
11111111111111111101011010000111
11111111111111111101100010010011
11111111111111111111000000010111
11111111111111111110111100100011
11111111111111111110111000111010
11111111111111111111000011110000
11111111111111111110111011010011
11111111111111111110111100001000
11111111111111111110110111101110
11111111111111111111010100110011
11111111111111111111101101001011
00000000000000000000010000001101
00000000000000000000000001100101
00000000000000000000000101100000
00000000000000000000001100101001
00000000000000000000001111110101
00000000000000000000001100000011
00000000000000000000000110110111
11111111111111111111111110101011
11111111111111111111110001010111
11111111111111111111010011001110
11111111111111111111010101011101
11111111111111111111011101011110
11111111111111111111101111101011
11111111111111111111100111100011
11111111111111111111101111011011
11111111111111111111100110001001
11111111111111111110100010010111
11111111111111111110000000001010
11111111111111111110011010011101
11111111111111111110100110000000
11111111111111111110100101101000
11111111111111111110111011001000
11111111111111111110010111101110
11111111111111111110011110101111
11111111111111111110111111111011
11111111111111111110111110101000
11111111111111111111011001010001
00000000000000000000001000100111
00000000000000000000001100101101
11111111111111111111111101001010
00000000000000000000010000011100
00000000000000000000000010111010
00000000000000000000000111011001
00000000000000000000000011010011
00000000000000000000010001111100
11111111111111111111111110000011
11111111111111111111110011111011
11111111111111111111000111111101
11111111111111111111001101110011
11111111111111111111010011001111
11111111111111111111011100001001
11111111111111111111100111000000
11111111111111111111100100111110
11111111111111111111001001000100
11111111111111111110110110100010
11111111111111111110011000001010
11111111111111111110001001010100
11111111111111111101100111010101
11111111111111111101111110101111
11111111111111111110010100111010
11111111111111111101111101000101
11111111111111111110100011101000
11111111111111111110110001110100
11111111111111111111000110011110
11111111111111111111111000110100
00000000000000000000000110101010
00000000000000000000000001100011
00000000000000000000000000101011
00000000000000000000001011111011
11111111111111111111111111111001
00000000000000000000001001000110
00000000000000000000001001011110
00000000000000000000000001001011
00000000000000000000000101001000
11111111111111111111101101101000
11111111111111111111011100001010
11111111111111111111000000011011
11111111111111111110110000100000
11111111111111111110110000110001
11111111111111111110110011100011
11111111111111111110101100101110
11111111111111111110111010000110
11111111111111111110101011000110
11111111111111111101111101111101
11111111111111111101100011111000
11111111111111111101010100000101
11111111111111111101111111010001
11111111111111111110011111100101
11111111111111111110011010110000
11111111111111111110110110110011
11111111111111111111001011001011
11111111111111111111100110010001
11111111111111111111111101101111
11111111111111111111111111110001
11111111111111111111111000001000
00000000000000000000000000011001
00000000000000000000000010001111
00000000000000000000001010011101
00000000000000000000001101000010
00000000000000000000001111101011
00000000000000000000000101011010
11111111111111111111110101000110
11111111111111111111100010110011
11111111111111111111010111010110
11111111111111111111000000111100
11111111111111111110110000001011
11111111111111111110101010101101
11111111111111111110001111101000
11111111111111111110011011011001
11111111111111111110110100111100
11111111111111111110101100001100
11111111111111111101110001000000
11111111111111111101101110000000
11111111111111111110000000000000
11111111111111111110101000100001
11111111111111111110111001011110
11111111111111111111001001111001
11111111111111111111011101000101
00000000000000000000000000100101
11111111111111111111111111010110
11111111111111111111111110001110
11111111111111111111111111101100
00000000000000000000000010000011
00000000000000000000000111100101
00000000000000000000000101100010
00000000000000000000000110000001
00000000000000000000010000111110
00000000000000000000001010100010
00000000000000000000001101001001
00000000000000000000000000011100
11111111111111111111101101100001
11111111111111111111011000100001
11111111111111111111001101101111
11111111111111111111001100011010
11111111111111111110100100000000
11111111111111111110010101101011
11111111111111111110010110011111
11111111111111111111001001011111
11111111111111111110110110000010
11111111111111111110011101011001
11111111111111111110101011100101
11111111111111111110101001011100
11111111111111111111010100011001
11111111111111111111001101001010
11111111111111111111110010001101
11111111111111111111111011100001
00000000000000000000001011011001
00000000000000000000001111110001
00000000000000000000000110111111
00000000000000000000001101001111
00000000000000000000000010100110
00000000000000000000000110010110
00000000000000000000000110010001
00000000000000000000000101110011
00000000000000000000010000011111
00000000000000000000001100100100
00000000000000000000001011000110
00000000000000000000001001110011
11111111111111111111111100111010
11111111111111111111111010101111
11111111111111111111110000100101
11111111111111111111100000111011
11111111111111111110101110100010
11111111111111111110010110100000
11111111111111111110000101101001
11111111111111111101110100010100
11111111111111111101110000011101
11111111111111111101111000111110
11111111111111111110001000011001
11111111111111111110101010001001
11111111111111111110110111000001
11111111111111111111110000000110
00000000000000000000000100001001
00000000000000000000000101101010
00000000000000000000011111101010
00000000000000000000010001001100
00000000000000000000001110111100
00000000000000000000000110010000
00000000000000000000000101000100
00000000000000000000001010101000
00000000000000000000000111010010
00000000000000000000000011001111
00000000000000000000001111101111
00000000000000000000001101000010
00000000000000000000001001100000
00000000000000000000001100101100
00000000000000000000001010011111
00000000000000000000001101100100
00000000000000000000011010010101
00000000000000000000010011010000
11111111111111111111110100010000
11111111111111111111100011100001
11111111111111111111010101010110
11111111111111111110110111111100
11111111111111111110110101111101
11111111111111111111011101001010
11111111111111111111011100111111
11111111111111111111011011111011
11111111111111111111100101011110
11111111111111111111111101101000
00000000000000000000000101110110
00000000000000000000001110100100
00000000000000000000011011111110
00000000000000000000001110100010
00000000000000000000010101110100
00000000000000000000001100111101
00000000000000000000001010010011
00000000000000000000000101110011
00000000000000000000001100000001
00000000000000000000001100001100
00000000000000000000001111110000
00000000000000000000000000110000
00000000000000000000001111011110
00000000000000000000001101100010
00000000000000000000010101000011
00000000000000000000010010100000
00000000000000000000010101000110
00000000000000000000010000101010
00000000000000000000001011111111
00000000000000000000001101010000
00000000000000000000010000101111
11111111111111111111100101011011
11111111111111111111101010111010
11111111111111111111111101000001
00000000000000000000001001110010
00000000000000000000000000110001
11111111111111111111111001000000
00000000000000000000001101000100
00000000000000000000000011111100
00000000000000000000001110000011
00000000000000000000010101110100
00000000000000000000010011101100
00000000000000000000001111010110
00000000000000000000001110000010
00000000000000000000001011111101
00000000000000000000000111011000
00000000000000000000000101101111
00000000000000000000000011110100
00000000000000000000001101001000
00000000000000000000010001110111
00000000000000000000010000000001
00000000000000000000001010111011
00000000000000000000000001011100
00000000000000000000001101100111
00000000000000000000000101101010
00000000000000000000001010101011
11111111111111111111110101110111
11111111111111111111111111000100
11111111111111111111111000000001
11111111111111111111100000010010
11111111111111111111100010100010
11111111111111111111101110110000
11111111111111111111110011100001
11111111111111111111100110011010
11111111111111111111110111101111
11111111111111111111111011011101
00000000000000000000000100110110
00000000000000000000000000110001
00000000000000000000001010100011
00000000000000000000010010011110
00000000000000000000010010001001
00000000000000000000001001010100
00000000000000000000000111111000
00000000000000000000001001010100
00000000000000000000000101010110
00000000000000000000000001011101
00000000000000000000010000101100
00000000000000000000001011001000
00000000000000000000000101010010
00000000000000000000001011100010
00000000000000000000001010101001
00000000000000000000000010111110
00000000000000000000000100011011
00000000000000000000001011110000
00000000000000000000001111101101
00000000000000000000000110110000
00000000000000000000000001011110
00000000000000000000001100000011
00000000000000000000000000111001
11111111111111111111111110001010
00000000000000000000000001110011
11111111111111111111111010000010
11111111111111111111111001010101
11111111111111111111111111001000
00000000000000000000000001110110
11111111111111111111111111001011
00000000000000000000010010001000
00000000000000000000001111111101
00000000000000000000000101001011
00000000000000000000001001011010
00000000000000000000001011110110
00000000000000000000000011001010
00000000000000000000000000110000
00000000000000000000000001011101
