11111111111111011101111010111110
11111111111111100111000100100010
11111111111111101101111100110010
11111111111111011011111010011111
11111111111111011001101111100110
11111111111111010101100101100001
11111111111111010011111101000000
11111111111111100000001110010000
11111111111111101100001101111110
11111111111111101100111000001000
11111111111111100011100000001001
11111111111111111100000100000011
11111111111111001111010010101110
11111111111111100100010100001000
00000000000000010100101110111111
11111111111111011101011011111111
11111111111111101100010100000110
11111111111111100101000001110010
00000000000000000001010011001001
11111111111111010010101000010111
11111111111110010000000001111000
00000000000000010001010101001110
11111111111111100101101101100100
11111111111111101100000000111000
00000000000000110110000001011010
11111111111111100000110111010010
11111111111111101101101100100001
11111111111111101111011011100100
11111111111111011100011111011011
11111111111111111101011011111101
11111111111111100000011110100100
11111111111111100111000110011110
11111111111111101000001100001000
11111111111111100000011110010100
11111111111111100110110100101110
00000000000000111010111110110111
00000000000000001110000100010011
11111111111110001100010001100001
11111111111111100101111010010010
11111111111111010110000011001101
11111111111111101000000110111001
11111111111111010000111011011110
11111111111111101010110110111011
11111111111111001000110111010000
11111111111111110110001111111110
11111111111111101110001001011000
11111111111101110010110111001110
00000000000000011101011001101100
11111111111111111101111100101100
11111111111111100010010100111001
11111111111111011110011010000110
11111111111111101100101110111100
11111111111111100100101001011001
11111111111111100110000101101001
11111111111111001110100101011100
11111111111111100010111010101000
11111111111111101101000010000001
11111111111111110000011110110001
11111111111111100011110010101010
11111111111111010111010010010101
11111111111111111100011011100101
11111111111111100010101010111110
11111111111111100000010100001011
11111111111110110101111011010111
11111111111111011111000010100001
11111111111110101101100001010000
00000000000000000011000100001001
11111111111111010110101110111010
11111111111111101000000010110001
00000000000000001010110000001000
11111111111111011111000100010110
11111111111111100011101101011000
11111111111111100000100111100010
11111111111111001010010110001111
11111111111111100011010001101010
11111111111111101010110011101100
11111111111110111100010100100010
11111111111111101001000000010010
11111111111111101001010001110110
11111111111111100000010010010101
11111111111111011110011001001100
11111111111111011100010110000011
11111111111111011010100100101011
00000000000010101001111101011111
11111111111111011101111111001101
00000000000000110111011001110110
11111111111111011011110100010011
11111111111111111001101111101111
11111111111111100001010110000101
00000000000000010000000101101000
00000000000000010001011001001111
11111111111111011110000100000011
11111111111111110000100101101100
11111111111111110111001001100010
11111111111111100000001010110100
11111111111111011100101000101101
00000000000000001110101011111101
11111111111111100111111011011010
00000000000000101100111101101010
11111111111111101101101100011001
11111111111111011001001010000101
11111111111111100111110001001001
11111111111111000001110010010001
11111111111111101010000100010001
11111111111111101000001111000001
11111111111111011111000011010110
11111111111111100011011001101010
11111111111111101100111011001110
11111111111111100001000110111001
11111111111111100110111110111101
11111111111111110010100111101011
11111111111110100010101010100110
00000000000000001000010110111010
11111111111110111101100001110000
11111111111111100011000101101010
11111111111111100000111000110000
11111111111111011111111111101000
11111111111111010111010100100011
11111111111111100001001101011100
11111111111110111111101010011100
11111111111111101001001001111001
11111111111111011111100010010000
11111111111111100010111101000010
11111111111111100000000110011111
11111111111111111010101111000110
11111111111111001111101001010001
11111111111111110100110010111110
11111111111111100110111001100101
