00000000000000000000001001111101
00000000000000000000000110111110
00000000000000000000001010011100
00000000000000000000000001100001
00000000000000000000001110101110
00000000000000000000000100010000
00000000000000000000000010010010
00000000000000000000010000001001
00000000000000000000001011110000
00000000000000000000001000010000
00000000000000000000000001011111
00000000000000000000000110100011
00000000000000000000001101001000
00000000000000000000000001011111
00000000000000000000000101000101
00000000000000000000001111101110
00000000000000000000001011100010
00000000000000000000010001101001
00000000000000000000010001010111
00000000000000000000010001100000
00000000000000000000001010110110
00000000000000000000001101000101
00000000000000000000001000111010
00000000000000000000001001110010
00000000000000000000000111000100
00000000000000000000001111101000
00000000000000000000001100110010
00000000000000000000000001001010
00000000000000000000010001010101
00000000000000000000000101011000
00000000000000000000000110001101
00000000000000000000001001000001
00000000000000000000001100010111
00000000000000000000010000101010
00000000000000000000001010011110
00000000000000000000001000101101
00000000000000000000000010101010
00000000000000000000001100000110
00000000000000000000000101010110
00000000000000000000010000011000
00000000000000000000000100000101
00000000000000000000001000100001
11111111111111111111111101111011
00000000000000000000001001000010
00000000000000000000000111001001
00000000000000000000000111100100
00000000000000000000001101110111
00000000000000000000000010101000
00000000000000000000000111101101
00000000000000000000001111011100
00000000000000000000000010011001
00000000000000000000010001110100
00000000000000000000000111010010
00000000000000000000001011000110
00000000000000000000001001011100
00000000000000000000001110010111
00000000000000000000001000011100
00000000000000000000000011111100
00000000000000000000001111100010
00000000000000000000000101100110
00000000000000000000001001010011
00000000000000000000000011011010
00000000000000000000000100111001
11111111111111111111110101010110
11111111111111111111111001111101
11111111111111111111111110100010
11111111111111111111110010010101
11111111111111111111101101001000
11111111111111111111110000000010
11111111111111111111101111100011
11111111111111111111101100011010
11111111111111111110111111111001
11111111111111111110110111111001
11111111111111111111100010101001
11111111111111111111110100110110
11111111111111111111111110110111
00000000000000000000000110001011
00000000000000000000001010110010
00000000000000000000000100001101
00000000000000000000001100110100
00000000000000000000001011001010
00000000000000000000000101011001
00000000000000000000010001101010
00000000000000000000000000011100
00000000000000000000010000011011
00000000000000000000001000110100
00000000000000000000001110110010
11111111111111111111111001011110
00000000000000000000000001010001
00000000000000000000010010001111
11111111111111111111111110100011
11111111111111111111101110110000
00000000000000000000001000111100
11111111111111111111110010101010
11111111111111111111011001101010
11111111111111111111010110100111
11111111111111111111001010101011
11111111111111111111100001011101
00000000000000000000001011111010
11111111111111111111011000100000
11111111111111111111001011110101
11111111111111111111101111101000
11111111111111111111101111110100
11111111111111111111110101000011
00000000000000000000001001101100
11111111111111111111111100100111
11111111111111111111111001010010
00000000000000000000001110101100
00000000000000000000011000011000
00000000000000000000010000110000
00000000000000000000010001111111
00000000000000000000001000000111
00000000000000000000000000111001
00000000000000000000010001010010
00000000000000000000001000010000
00000000000000000000010011011000
00000000000000000000010110101000
00000000000000000000011000011111
00000000000000000000000100101000
11111111111111111111101101010100
00000000000000000000010111000100
11111111111111111111001010100000
11111111111111111101110000011001
11111111111111111101101111101010
11111111111111111101110011111011
11111111111111111110000010101011
11111111111111111110011011000110
11111111111111111110000101001110
11111111111111111110101100000101
11111111111111111111100110101011
00000000000000000000000101011001
00000000000000000000010110100011
11111111111111111111011110101000
00000000000000000000000000010000
11111111111111111111101101101011
11111111111111111111100011110100
00000000000000000000001010000101
00000000000000000000000000101100
00000000000000000000001001101011
00000000000000000000001011000011
00000000000000000000001110110011
00000000000000000000001001110110
00000000000000000000000000110010
00000000000000000000001011001000
00000000000000000000000101111111
00000000000000000000101100001010
00000000000000000000101111100001
00000000000000000001101010101111
00000000000000000010010111101010
00000000000000000000110100011100
11111111111111111101111000110010
11111111111111111011111101000111
11111111111111111011000111010101
11111111111111111010110110110000
11111111111111111011110011000111
11111111111111111100110011011000
11111111111111111011000001000100
11111111111111111100001011101001
11111111111111111100100110001110
11111111111111111100111011001100
11111111111111111101000001101100
11111111111111111101000010111000
11111111111111111101010011100010
11111111111111111110000000100011
11111111111111111111011011111011
11111111111111111111111111001101
00000000000000000000001110011110
00000000000000000000001101001000
00000000000000000000000101111010
00000000000000000000001000100100
00000000000000000000001010011001
11111111111111111111110001111001
11111111111111111111110011000111
00000000000000000000010100010011
00000000000000000000001011001011
11111111111111111111100011111100
11111111111111111111011001101010
11111111111111111110011001010000
00000000000000000001001101110001
00000000000000000110010100011001
00000000000000000000011101010111
11111111111111111101010100010101
00000000000000000000000100101100
00000000000000000000010001111111
11111111111111111111010110001010
11111111111111111110010111001111
11111111111111111111000110000100
00000000000000000000010010110010
11111111111111111111001110011011
11111111111111111110010100010110
11111111111111111101100101010101
11111111111111111110001001110110
11111111111111111101111000001100
11111111111111111111001001000100
11111111111111111111001010110010
11111111111111111111100010110011
00000000000000000000010001001011
00000000000000000000001101011010
00000000000000000000001000000101
11111111111111111111011110011110
00000000000000000000000001111101
11111111111111111110100000111101
11111111111111111110111111100001
11111111111111111111100000000011
11111111111111111110111110000110
11111111111111111110010010111010
00000000000000000001000000100011
00000000000000000001110000011100
11111111111111111110101101010001
00000000000000000000111001110100
11111111111111111110110111001001
11111111111111111110100110001100
11111111111111111110111001111110
00000000000000000000011111111011
11111111111111111111100111000100
00000000000000000000000001010100
11111111111111111101111110100011
11111111111111111101110100110000
11111111111111111011100101100100
11111111111111111101100010111111
11111111111111111110001001001001
11111111111111111110110001000000
11111111111111111111110010010110
00000000000000000000000010010011
00000000000000000000010010011101
00000000000000000000001101100011
11111111111111111111110110100111
11111111111111111111010000000101
11111111111111111111100001100110
11111111111111111110010100100110
11111111111111111110101111001110
11111111111111111101101100100001
11111111111111111100101100001001
11111111111111111100110101101001
00000000000000000001100110000000
11111111111111111011110110000111
00000000000000000001010111001011
00000000000000000001100010100001
11111111111111111101011111110011
00000000000000000000000101101101
00000000000000000000111111110101
11111111111111111111101111010111
11111111111111111110000010010011
00000000000000000001100100111011
00000000000000000001001010001100
11111111111111111110100000010111
11111111111111111101001111000110
11111111111111111101111001000101
11111111111111111101011011111100
11111111111111111111000010011011
11111111111111111111111011101111
00000000000000000000001110111101
00000000000000000000001101101010
00000000000000000000001000100110
11111111111111111111100010010000
11111111111111111111011100011000
11111111111111111111100001011110
11111111111111111110000110011100
11111111111111111110001000001100
11111111111111111100100010010011
11111111111111111010001110111101
11111111111111111111001000011011
11111111111111111100101001001110
11111111111111111101101010111101
00000000000000000000000011000111
11111111111111111101100100110010
00000000000000000000000110000000
11111111111111111101111010111010
11111111111111111111100000110001
00000000000000000000100111101000
11111111111111111110110011000100
00000000000000000011101000110001
00000000000000000000001101100101
00000000000000000000000011001100
00000000000000000001010101110001
00000000000000000001110110010100
11111111111111111110101000001001
00000000000000000000000011101011
11111111111111111111110110010111
00000000000000000000000010100111
00000000000000000000000111010000
00000000000000000000000011101101
00000000000000000000001011001101
11111111111111111110101101100011
11111111111111111110011100000101
11111111111111111100111100011101
11111111111111111100001011000001
11111111111111111010000111111010
11111111111111111001100000101011
11111111111111111011110001101010
00000000000000000000000011000110
00000000000000000001100111011101
00000000000000000011010101011100
11111111111111111110010101000100
11111111111111111101011000000000
11111111111111111111111100111000
00000000000000000001000100001010
11111111111111111011101101111010
11111111111111111110101100101011
00000000000000000101001111111100
00000000000000000011111000010011
00000000000000000000001011110111
00000000000000000010001100100101
00000000000000000011110001101100
11111111111111111111010011100001
00000000000000000000000111100010
00000000000000000000000101000010
00000000000000000000010001100110
00000000000000000000001001110100
11111111111111111111111011001010
11111111111111111111101110101111
11111111111111111111000000010000
11111111111111111101101011001101
11111111111111111101111000110010
11111111111111111100001100000010
11111111111111111010000010011001
11111111111111111011101111111111
11111111111111111110000000101100
11111111111111111110110001110100
00000000000000000000100101101100
00000000000000000101001100011100
00000000000000000001011001001100
11111111111111111110111100001011
11111111111111111110000111111101
11111111111111111110110010110111
00000000000000000001000101101100
00000000000000000001001110100001
00000000000000000100000010101000
00000000000000000001011100101110
11111111111111111110100001110001
00000000000000000001011100101111
00000000000000000000100000110100
00000000000000000000000101111010
00000000000000000000000011000100
00000000000000000000000101011110
00000000000000000000001101000011
00000000000000000000000111010011
00000000000000000000001001000100
11111111111111111111100111010000
11111111111111111110011110001101
11111111111111111101011010000000
11111111111111111111001001100111
11111111111111111111000010000101
00000000000000000000100110100010
11111111111111111110101011011000
11111111111111111101101001010011
00000000000000000010101011111101
00000000000000000001100001110011
00000000000000000011100000100101
11111111111111111111000111010110
11111111111111110011111100001111
11111111111111111001001100010011
00000000000000000000101100001111
00000000000000000001000000111100
11111111111111111111101101110010
00000000000000000000110001110010
11111111111111111110010011010011
11111111111111111110100111011011
00000000000000000010000101001101
00000000000000000000010110111100
00000000000000000000000000000010
11111111111111111111111101110101
11111111111111111111111111101010
00000000000000000000000111001000
00000000000000000000000010110101
00000000000000000000001111001001
11111111111111111111101100010001
11111111111111111110100100010000
11111111111111111110001111111100
00000000000000000010100110111001
00000000000000000011111100100000
00000000000000000011010100000000
11111111111111111111011110100011
00000000000000000001100010000100
00000000000000000011101001110001
00000000000000001001000010110110
00000000000000000111110111101010
11111111111111110110110001110110
11111111111111110010110001010000
11111111111111110111101100010101
11111111111111111111100110110111
11111111111111111111111011011101
11111111111111111011010000000001
00000000000000000010000100000111
00000000000000000010110000001101
00000000000000000000010010110111
00000000000000000001011111000101
11111111111111111111101100100100
00000000000000000000000001110011
00000000000000000000000110100111
00000000000000000000000101001100
00000000000000000000000011100100
00000000000000000000001110001111
00000000000000000000010001000110
00000000000000000000000110101111
11111111111111111110011100111101
00000000000000000000100000010110
00000000000000000011000001011011
00000000000000000100010110100010
00000000000000000010110011001110
00000000000000000000010111011000
00000000000000000001001110000101
00000000000000001000010111100101
00000000000000001011110010000111
11111111111111111101010111011000
11111111111111101111010110100011
11111111111111110100001100001000
11111111111111111010010000001100
11111111111111111101111011100111
11111111111111111110011111011011
11111111111111111100100111110111
00000000000000000011000010111010
11111111111111111111111101100011
00000000000000000000011001011001
11111111111111111111000101000001
00000000000000000000100000010010
00000000000000000000010001110001
11111111111111111111110100101110
11111111111111111111111111010010
00000000000000000000000000001011
00000000000000000000000111111101
00000000000000000000010000011010
00000000000000000000000010000000
11111111111111111110110111011010
00000000000000000010010011100010
00000000000000000000011000000101
00000000000000000010111101011100
00000000000000000101011101100111
00000000000000000001001010001011
00000000000000000010001000110110
00000000000000000100111000011001
11111111111111111110000000101000
11111111111111110010101010011101
11111111111111110000110111001111
11111111111111110100100100101101
11111111111111111101101001111101
11111111111111111111011110101001
00000000000000000000110111111100
11111111111111111101110101111100
00000000000000000011110010000011
00000000000000000000010101000101
11111111111111111111000010011000
11111111111111111110011110001011
11111111111111111111100001110100
11111111111111111111101111110001
11111111111111111111001001111101
11111111111111111111111110101100
00000000000000000000001000101101
00000000000000000000000001000100
00000000000000000000001100000001
00000000000000000000001111110111
11111111111111111111001110010011
00000000000000000010000110000101
00000000000000000000101011101111
00000000000000000010011101100011
00000000000000000011011000100101
00000000000000000001011101111111
00000000000000000001101100001101
00000000000000000010110010010011
11111111111111111110011011101011
11111111111111110100010101001110
11111111111111110011010000101111
11111111111111111001010101100101
11111111111111111111100100001000
11111111111111111110100010011101
00000000000000000011111010011011
11111111111111111010111111110001
00000000000000000010001010011000
11111111111111111110001111000000
11111111111111111101010110111001
11111111111111111110001011000101
11111111111111111110010011001001
11111111111111111110010100011000
11111111111111111101101111000000
11111111111111111110111110100110
11111111111111111111111010000001
00000000000000000000001110011101
00000000000000000000001100000010
00000000000000000000010100010111
11111111111111111111100010001001
00000000000000000000110000100110
11111111111111111111011010110101
11111111111111111101010101110100
11111111111111111110000011010010
11111111111111111100101010110110
11111111111111111100100100001010
11111111111111111101101110011001
11111111111111111000111101100011
11111111111111110101100011010001
11111111111111111000101100010101
00000000000000000000101011010001
11111111111111111101111001100011
00000000000000000000000101011101
00000000000000000010000000111001
11111111111111111100101010011010
11111111111111111101111000001100
11111111111111111100110001010100
11111111111111111100001001101101
11111111111111111110101001101010
11111111111111111110101100110011
11111111111111111110011000101011
11111111111111111110010000111110
11111111111111111111011111110101
11111111111111111111111100011010
00000000000000000000000101000101
00000000000000000000000110111110
00000000000000000000010100001010
11111111111111111111001101001000
11111111111111111111101111000010
11111111111111111110100101001100
11111111111111111100010011001001
11111111111111111010110001011010
11111111111111111000110111010110
11111111111111111010111101011010
11111111111111111000111000100101
11111111111111110101111000101101
11111111111111111000001101000111
11111111111111111110010100100011
00000000000000000000100011101000
11111111111111111011101101011010
11111111111111111110111001110000
00000000000000000001010110100010
11111111111111111100011111110101
11111111111111111101101011011011
11111111111111111110000001101111
11111111111111111110011000110100
11111111111111111110000111111101
11111111111111111110100101100101
11111111111111111110001010010100
11111111111111111111100001111110
00000000000000000000001001101001
00000000000000000000001100100010
00000000000000000000000111001000
00000000000000000000101011101001
00000000000000000000001011101100
11111111111111111111111000010101
11111111111111111111001011011110
11111111111111111101111111100011
11111111111111111101000000010000
11111111111111111011001000110010
11111111111111111000101001100000
11111111111111111000000001110100
11111111111111110111111100010101
11111111111111111011010001011010
00000000000000000001101101001010
00000000000000000000000110011001
00000000000000000000010111100100
11111111111111111100000001011101
11111111111111111110111011001101
00000000000000000000010101010100
11111111111111111111111110010010
11111111111111111101110110011011
11111111111111111100100100000000
11111111111111111110011101101001
11111111111111111101110000001100
11111111111111111101110010110101
11111111111111111101111001011111
11111111111111111111100011110001
00000000000000000000000111111111
00000000000000000000001110111010
00000000000000000000001101000010
11111111111111111111111111111100
00000000000000000000001110001001
11111111111111111111010010010010
11111111111111111110111110101010
11111111111111111110111101001111
11111111111111111101011011001000
11111111111111111011011110101111
11111111111111111000110001101100
11111111111111110111110000001111
11111111111111111001110100111100
00000000000000000000111000111010
00000000000000000001001001110100
11111111111111111101100010100100
00000000000000000010001110111110
11111111111111111011001101011110
00000000000000000001011110011001
11111111111111111011111011110111
11111111111111111111010100010110
11111111111111111011101110110001
11111111111111111011100101100101
11111111111111111101000000111111
11111111111111111101011010010110
11111111111111111101011000111001
11111111111111111110001100100110
11111111111111111111111110001001
00000000000000000000000111011011
11111111111111111111111111111101
00000000000000000000001101100001
00000000000000000000001000011100
00000000000000000000011011000110
11111111111111111111001001010101
11111111111111111111001111011001
11111111111111111110010011011111
11111111111111111101011000000101
11111111111111111100011000111000
11111111111111111010010100101011
11111111111111111010001100000110
00000000000000000000000101111110
00000000000000000001001001100010
11111111111111111111011001101100
11111111111111111110101101110010
11111111111111111101001011100100
11111111111111111101011001011101
00000000000000000000001010101111
11111111111111111011110011011001
11111111111111111100100011100111
11111111111111111011010001011001
11111111111111111010001100100010
11111111111111111101010110011001
11111111111111111110000000011100
11111111111111111101111001101011
11111111111111111111001101110011
11111111111111111111100101100100
00000000000000000000001100111001
00000000000000000000000110101110
00000000000000000000010000110000
00000000000000000000001010000001
00000000000000000000001111000011
11111111111111111111011001111000
11111111111111111101110000100101
11111111111111111101010110010110
11111111111111111101000110000010
11111111111111111100010010010110
11111111111111111011110011100110
11111111111111111110110101100000
00000000000000000001111101111010
11111111111111111110011010011011
11111111111111111101101000110000
00000000000000000001110000011000
11111111111111111011101000011011
00000000000000000000001111011010
11111111111111111101111111010000
11111111111111111110011000100011
11111111111111111101111110010000
11111111111111111100110000111011
11111111111111111100000110001100
11111111111111111101011101100000
11111111111111111110001100110010
11111111111111111110111111101001
11111111111111111111010000101111
11111111111111111111101101111101
00000000000000000000001011100000
00000000000000000000000100111100
00000000000000000000000010100010
00000000000000000000000111011101
00000000000000000000001110011110
00000000000000000000001011110101
00000000000000000000001000110110
11111111111111111111010000000000
11111111111111111101101000001010
11111111111111111101111111000100
00000000000000000000011100000000
00000000000000000000011001110100
00000000000000000000011010010010
11111111111111111101011000110001
00000000000000000001010100001100
11111111111111111110110110100010
00000000000000000000011110001000
11111111111111111110110001001001
00000000000000000000000111101001
00000000000000000000100110011010
11111111111111111111000000000010
11111111111111111101010101001110
11111111111111111100101100011001
11111111111111111101110011000100
11111111111111111110111100100000
11111111111111111111100101000100
11111111111111111111101010001010
00000000000000000000000001010110
00000000000000000000000100110000
00000000000000000000001101010100
00000000000000000000001011010100
00000000000000000000000001100010
00000000000000000000001111101100
00000000000000000000010011100111
00000000000000000000101001101000
00000000000000000000110011110001
11111111111111111111111111000100
00000000000000000000011001110100
00000000000000000001001010001111
11111111111111111101001011100011
11111111111111111111101100111100
00000000000000000011000101001010
11111111111111111110100101010111
00000000000000000001110010100000
00000000000000000011010010110111
00000000000000000001010001001110
00000000000000000001000111001001
00000000000000000001000010001001
11111111111111111110110100010111
11111111111111111110010001001110
11111111111111111101110110101100
11111111111111111110100111101100
11111111111111111111100111000111
11111111111111111111100010011011
11111111111111111111100100111011
00000000000000000000000010010001
00000000000000000000001100010111
00000000000000000000001000111110
00000000000000000000000110110110
00000000000000000000000010011101
00000000000000000000000011001000
00000000000000000000010001011101
00000000000000000000011001111001
00000000000000000000010011111110
00000000000000000001011000011110
00000000000000000001110010001100
11111111111111111111101000011101
00000000000000000000110100011100
00000000000000000010011111010001
00000000000000000011101011101000
11111111111111111111001110100001
00000000000000000100111011100001
00000000000000000001110011001011
00000000000000000010010100000000
00000000000000000011111010101110
00000000000000000000101111000000
11111111111111111111110101101110
00000000000000000000011000110101
11111111111111111111001110000000
11111111111111111111001011000100
11111111111111111111100010010011
11111111111111111111111100000000
11111111111111111111111110011101
00000000000000000000000101011001
00000000000000000000010001010000
00000000000000000000001101111111
00000000000000000000000011001111
00000000000000000000001011011001
00000000000000000000000100101011
00000000000000000000001010000100
00000000000000000000001111111110
11111111111111111111011100101110
00000000000000000000010001011111
00000000000000000001110110100101
11111111111111111111101110000110
11111111111111111101000100000010
11111111111111111111000111001011
00000000000000000000100100111000
11111111111111111110110000000011
11111111111111111101101010100100
11111111111111111101100110000110
11111111111111111100000101001101
11111111111111111111001111001011
11111111111111111111110001001010
00000000000000000000001111010001
00000000000000000000011100100001
11111111111111111111100001111001
11111111111111111111001010001001
00000000000000000000000011010000
00000000000000000000010000000110
00000000000000000000000110010010
00000000000000000000001000100001
00000000000000000000001101001001
00000000000000000000001101111111
00000000000000000000001101111100
00000000000000000000001100001001
00000000000000000000001001101100
00000000000000000000010001001011
00000000000000000000000101001101
00000000000000000000001101000000
00000000000000000000000000001111
11111111111111111111011101101000
11111111111111111111100011000100
11111111111111111111110000111001
00000000000000000000010001010001
00000000000000000000101100101101
00000000000000000000011101010001
00000000000000000000001100111010
11111111111111111111100010010010
11111111111111111111001011101100
11111111111111111111011110100111
11111111111111111111101110100011
11111111111111111111101110011101
11111111111111111111110011101111
00000000000000000000001001000110
00000000000000000000000111000000
11111111111111111111111010111110
00000000000000000000000001000001
00000000000000000000000101000101
00000000000000000000010010001100
00000000000000000000000000011011
00000000000000000000001011010101
