00000000000000000000000101111000
00000000000000000000001001101001
00000000000000000000001100000010
00000000000000000000001001110111
00000000000000000000001101010011
00000000000000000000000111110001
00000000000000000000000100111011
00000000000000000000000011001111
00000000000000000000000100001000
00000000000000000000000101110100
00000000000000000000001011110001
00000000000000000000001100100010
00000000000000000000000010111010
00000000000000000000010001011111
00000000000000000000001001000111
00000000000000000000000111010010
00000000000000000000001010101101
00000000000000000000001011011011
00000000000000000000001111101001
00000000000000000000001101000111
00000000000000000000000001110110
00000000000000000000000100101111
00000000000000000000001111110010
00000000000000000000001010100001
00000000000000000000001000010101
00000000000000000000001110100001
00000000000000000000000111111110
00000000000000000000000000001000
00000000000000000000000101010000
00000000000000000000010000011011
00000000000000000000001011000101
00000000000000000000001011001000
00000000000000000000000111110010
00000000000000000000000100110100
00000000000000000000000010101010
00000000000000000000000010101000
00000000000000000000001110101101
00000000000000000000000111110000
00000000000000000000000100110100
00000000000000000000001111010101
00000000000000000000001100110001
00000000000000000000010000011100
00000000000000000000001100011011
00000000000000000000010011110010
00000000000000000000010000010001
11111111111111111111111111100010
00000000000000000000000010111111
00000000000000000000000111100100
00000000000000000000001100100110
00000000000000000000000010011110
00000000000000000000000100110000
00000000000000000000001111001010
00000000000000000000000111110100
00000000000000000000000010011010
00000000000000000000000111011011
00000000000000000000010000001001
00000000000000000000010000111011
00000000000000000000001111011001
00000000000000000000010000010001
00000000000000000000000011111010
00000000000000000000001101101010
00000000000000000000001001000001
00000000000000000000001110100010
00000000000000000000000001011000
00000000000000000000001101011011
00000000000000000000010011010111
00000000000000000000000100011110
00000000000000000000000000000110
11111111111111111111111011100111
00000000000000000000000001110011
11111111111111111111110111001111
11111111111111111111110010010011
11111111111111111111110111011100
11111111111111111111110111110101
11111111111111111111100101110110
11111111111111111111110110011100
11111111111111111111101101110100
11111111111111111111111001100000
11111111111111111111111101101000
00000000000000000000001101111110
00000000000000000000001001100111
00000000000000000000000111101010
00000000000000000000001011100101
00000000000000000000010001010101
00000000000000000000001010000000
00000000000000000000000000101110
00000000000000000000001111010010
00000000000000000000001000010001
00000000000000000000010000000110
00000000000000000000001100110010
00000000000000000000001011011110
00000000000000000000000101110000
11111111111111111111111111111110
00000000000000000000001000100101
00000000000000000000000111011000
11111111111111111111111111100100
11111111111111111111101111001010
11111111111111111111101010111101
11111111111111111111101101111101
11111111111111111111111101000110
11111111111111111111100111110111
11111111111111111111011000111001
11111111111111111111010010011010
11111111111111111111101000110010
11111111111111111111111011111111
11111111111111111111111000100010
00000000000000000000010010011000
00000000000000000000010001110101
00000000000000000000001000011101
00000000000000000000000010111100
00000000000000000000001100000000
00000000000000000000010000101110
00000000000000000000001010001010
00000000000000000000000101000100
00000000000000000000010000000100
00000000000000000000000001001011
00000000000000000000000011111001
00000000000000000000000111111101
00000000000000000000000001110000
11111111111111111111110011101100
11111111111111111111110011001111
11111111111111111111110001010101
11111111111111111111110001110011
11111111111111111111011111010000
11111111111111111111001110110101
11111111111111111110100100000100
11111111111111111110100010010110
11111111111111111110100010111000
11111111111111111110011011111111
11111111111111111110000010111000
11111111111111111110101011001001
11111111111111111111010000111000
11111111111111111111111100000110
00000000000000000000000011101010
00000000000000000000011110000000
00000000000000000000011011001111
00000000000000000000001101101100
00000000000000000000010101001100
00000000000000000000001000001100
00000000000000000000001010000111
00000000000000000000000000100111
00000000000000000000000001110100
00000000000000000000001000100110
00000000000000000000001001011011
00000000000000000000000001100101
11111111111111111111111011000001
11111111111111111111111010101100
11111111111111111111111110011100
11111111111111111111100111010001
11111111111111111111010111000101
11111111111111111111011010111000
11111111111111111111001111010111
11111111111111111111000110010000
11111111111111111110110010100101
11111111111111111110010011001010
11111111111111111101110111101111
11111111111111111101011011111010
11111111111111111101011001001100
11111111111111111101111001000000
11111111111111111110011010101110
11111111111111111111010101011010
11111111111111111111101001000010
00000000000000000000000001000101
00000000000000000000001110111010
00000000000000000000010001010010
00000000000000000000001001111101
00000000000000000000000011111101
00000000000000000000010010000010
00000000000000000000000110011101
00000000000000000000001100001010
00000000000000000000001000111100
00000000000000000000000001010101
11111111111111111111111111011011
11111111111111111111101011011100
11111111111111111111111110101110
11111111111111111111101110101010
11111111111111111111100111100101
11111111111111111111110010100000
11111111111111111111111110011000
11111111111111111111110100100000
00000000000000000000000001101010
11111111111111111111100011101010
11111111111111111111010101001010
11111111111111111110111100111111
11111111111111111110011001101011
11111111111111111110100001110110
11111111111111111110100101000111
11111111111111111110110010111000
11111111111111111111001001100101
11111111111111111111011101001100
11111111111111111111111000111000
00000000000000000000000011001100
00000000000000000000000011001111
00000000000000000000000111111000
00000000000000000000000001101000
00000000000000000000001111111101
00000000000000000000001111111100
00000000000000000000000100000110
00000000000000000000001101110000
11111111111111111111111010000001
11111111111111111111111001101111
11111111111111111111100111000100
11111111111111111111101001111100
11111111111111111111101000000111
11111111111111111111101111000110
11111111111111111111110000011011
11111111111111111111111101110111
00000000000000000000001010000111
11111111111111111111101100100100
11111111111111111111010001101110
11111111111111111111000010000010
11111111111111111110011011111101
11111111111111111110010111000100
11111111111111111101110101001011
11111111111111111110000101001100
11111111111111111110000111010101
11111111111111111110100001111000
11111111111111111111010000010000
11111111111111111111110110101100
00000000000000000000001100101010
00000000000000000000010011110101
00000000000000000000001100011110
00000000000000000000001000010000
00000000000000000000001111001101
00000000000000000000010000011011
00000000000000000000000101010001
00000000000000000000000111110101
11111111111111111111111100010010
11111111111111111111100110000001
11111111111111111111100011011000
11111111111111111111101110001000
11111111111111111111100011101011
11111111111111111111011000100011
11111111111111111111010001110110
11111111111111111111010100000110
11111111111111111111110000110011
11111111111111111111010011101001
11111111111111111111000110000011
11111111111111111110010010111100
11111111111111111101101011111010
11111111111111111101011110000111
11111111111111111101100111001101
11111111111111111101100101001001
11111111111111111101101001011010
11111111111111111110011100101001
11111111111111111110110110111011
11111111111111111111110001110000
00000000000000000000010110001000
00000000000000000000101000001110
00000000000000000000010111000010
00000000000000000000010011000011
00000000000000000000001011110100
00000000000000000000000000000111
00000000000000000000000001011010
00000000000000000000000001001100
11111111111111111111111100101110
11111111111111111111100100110111
11111111111111111111100111011101
11111111111111111111111100010111
11111111111111111111010110100011
11111111111111111111000100000111
11111111111111111110110010011010
11111111111111111111000101100100
11111111111111111111101111011100
11111111111111111111110010010010
11111111111111111110111010100000
11111111111111111101101111101001
11111111111111111101001010100111
11111111111111111101010001001010
11111111111111111101111001111100
11111111111111111110001001111101
11111111111111111110000110101001
11111111111111111110011000100101
11111111111111111111001011111101
11111111111111111111100101010111
00000000000000000000001000101101
00000000000000000000011011011111
00000000000000000000010010110001
00000000000000000000001000101101
00000000000000000000010000101010
00000000000000000000001100110011
00000000000000000000010000010000
00000000000000000000000001101101
11111111111111111111111011001000
11111111111111111111101000100111
00000000000000000000000100011101
00000000000000000000001110000100
11111111111111111111100010010010
11111111111111111110111000110101
11111111111111111110111001100110
11111111111111111111010001001100
00000000000000000000011010111111
00000000000000000000011110001101
11111111111111111111001111110000
11111111111111111110000100000001
11111111111111111101101001100011
11111111111111111110001010101100
11111111111111111110100010100100
11111111111111111110101011001110
11111111111111111110011101111100
11111111111111111110111111100101
11111111111111111111010100111000
11111111111111111111100100001010
00000000000000000000001011000100
00000000000000000000100010001101
00000000000000000000100110011101
00000000000000000000010110001000
00000000000000000000001000111000
00000000000000000000000000101101
00000000000000000000010000110100
00000000000000000000000000011100
00000000000000000000000001010010
00000000000000000000001111000111
00000000000000000000010001110010
11111111111111111111111111000011
11111111111111111111011010010111
11111111111111111111001001011010
11111111111111111110111011110111
11111111111111111111100011011101
00000000000000000000010001011010
11111111111111111111111100000100
11111111111111111110111100001101
11111111111111111101110111101010
11111111111111111110010110110110
11111111111111111110110000001000
11111111111111111110110010110011
11111111111111111110101101011011
11111111111111111110111100000100
11111111111111111110110100111101
11111111111111111111000011110000
11111111111111111111010101110101
11111111111111111111110001100111
00000000000000000000000111100001
00000000000000000000011110101100
00000000000000000000001010110000
00000000000000000000001010110000
00000000000000000000001011110001
00000000000000000000000010000000
00000000000000000000001111110111
00000000000000000000001100001010
00000000000000000000001101011011
00000000000000000000001010010101
11111111111111111111110111110001
11111111111111111111101101001100
11111111111111111111011011011001
11111111111111111111000101010011
11111111111111111111000001011101
11111111111111111111100100110011
11111111111111111111101000011000
11111111111111111110011110101110
11111111111111111110000111111111
11111111111111111110100111000100
11111111111111111110101110000110
11111111111111111110100100111111
11111111111111111110101001100100
11111111111111111111001000110001
11111111111111111111001111011010
11111111111111111111000100101001
11111111111111111111001110010101
11111111111111111111101100010001
00000000000000000000000010110010
00000000000000000000010101101101
00000000000000000000001110010000
00000000000000000000010000101010
00000000000000000000000000110011
00000000000000000000001011001110
00000000000000000000000111010010
00000000000000000000010011000001
00000000000000000000011011111011
00000000000000000000001000110101
11111111111111111111101011001011
11111111111111111111101000011011
11111111111111111110111001111111
11111111111111111110101100111010
11111111111111111110111111011000
11111111111111111111100101011101
11111111111111111111101001000111
11111111111111111110000011011100
11111111111111111110011001010011
11111111111111111110001000000111
11111111111111111111000001100101
11111111111111111111000011001110
11111111111111111110101111011001
11111111111111111111101000110001
11111111111111111111011111000100
11111111111111111111010001101010
11111111111111111111010111110100
11111111111111111111101000010011
00000000000000000000001001101111
00000000000000000000011111110001
00000000000000000000001011010010
00000000000000000000001111101001
00000000000000000000000010101000
00000000000000000000001010011100
00000000000000000000001011110000
00000000000000000000000111100101
00000000000000000000000000101100
11111111111111111111100110011110
11111111111111111111011011010110
11111111111111111111001001111111
11111111111111111110100110000011
11111111111111111110011111100001
11111111111111111111001010110111
11111111111111111111110011010110
11111111111111111111001101101100
11111111111111111101101111011001
11111111111111111101011001111001
11111111111111111101110011010011
11111111111111111111010100110010
11111111111111111110110010001010
11111111111111111110111000111000
11111111111111111111010010100000
11111111111111111111100001001101
11111111111111111111000010100101
11111111111111111111010110101100
11111111111111111111101011101111
00000000000000000000000100010010
00000000000000000000001000011011
00000000000000000000010001100100
00000000000000000000000101111001
00000000000000000000000000100000
11111111111111111111111111111010
00000000000000000000000001011010
00000000000000000000000010110011
11111111111111111111111011100011
11111111111111111111101111001101
11111111111111111111011010001101
11111111111111111110111111111110
11111111111111111110111100101011
11111111111111111111000110100010
11111111111111111111110010100010
11111111111111111111101110011101
11111111111111111110101010110010
11111111111111111101010100010100
11111111111111111101001000110110
11111111111111111101100010101001
11111111111111111111001110000011
11111111111111111110101001101100
11111111111111111110101001001000
11111111111111111110111101000111
11111111111111111110110101111111
11111111111111111110101011110110
11111111111111111110111100110101
11111111111111111111100100111111
00000000000000000000000011001100
00000000000000000000001001001100
00000000000000000000001011101111
00000000000000000000001011000000
00000000000000000000000110110100
00000000000000000000000011001100
00000000000000000000001110000110
00000000000000000000000100000100
11111111111111111111110011111001
11111111111111111111110001000001
11111111111111111111011001010000
11111111111111111110111001110101
11111111111111111110110000011001
11111111111111111111001101000101
11111111111111111111101000110000
11111111111111111111000110010111
11111111111111111110000001010001
11111111111111111101011001010010
11111111111111111101010110100101
11111111111111111110001010010111
11111111111111111111000000011010
11111111111111111110110010000111
11111111111111111110101000111110
11111111111111111111000100010110
11111111111111111110111010111101
11111111111111111110011000000111
11111111111111111111000001101111
11111111111111111111110110000101
00000000000000000000001001000100
00000000000000000000010101010011
00000000000000000000010110101100
00000000000000000000001100001101
00000000000000000000000000001011
00000000000000000000000011101110
00000000000000000000000000110010
11111111111111111111111111011011
11111111111111111111110101110011
11111111111111111111100001111000
11111111111111111111100110010010
11111111111111111111010100010000
11111111111111111111001101001000
11111111111111111111011011000000
11111111111111111111100010111000
11111111111111111111001001010001
11111111111111111110000001110011
11111111111111111101011000111001
11111111111111111101110100100000
11111111111111111110111000001111
11111111111111111110110111110001
11111111111111111111000011111001
11111111111111111111001100000000
11111111111111111110111111010000
11111111111111111110110001001001
11111111111111111110100111010100
11111111111111111111010100101111
11111111111111111111110000001100
00000000000000000000010000111100
00000000000000000000000111010101
00000000000000000000010100110011
00000000000000000000010000011100
00000000000000000000000010100101
00000000000000000000001110000011
00000000000000000000000110110100
11111111111111111111110100101001
11111111111111111111111010101011
11111111111111111111100100100111
11111111111111111111100010000010
11111111111111111111100000100110
11111111111111111111101101001110
11111111111111111111101011001110
11111111111111111111101100100111
11111111111111111111011110000101
11111111111111111110100111101010
11111111111111111110000100001100
11111111111111111110101100011100
11111111111111111110111010110110
11111111111111111110100101010101
11111111111111111110101000001111
11111111111111111110000111010011
11111111111111111110001110110111
11111111111111111110111100011100
11111111111111111110111100010101
11111111111111111111010101101111
00000000000000000000000101100010
00000000000000000000001101100010
00000000000000000000001001110011
00000000000000000000001011111110
00000000000000000000010010000111
00000000000000000000000000100001
00000000000000000000001000111011
00000000000000000000010000110111
11111111111111111111111000000110
11111111111111111111100110100101
11111111111111111111001111010010
11111111111111111111010010000000
11111111111111111111010101011110
11111111111111111111011001010011
11111111111111111111101000101000
11111111111111111111011001100001
11111111111111111111001101010111
11111111111111111110101001010010
11111111111111111110100010111001
11111111111111111110010001000111
11111111111111111101110000101000
11111111111111111101101110110101
11111111111111111101110111010001
11111111111111111101101001011100
11111111111111111110011010001001
11111111111111111110111110111010
11111111111111111111000011111111
11111111111111111111100111011000
00000000000000000000000010010011
00000000000000000000000101001001
00000000000000000000000110011001
00000000000000000000010100011010
00000000000000000000001100110110
00000000000000000000000100101101
00000000000000000000001001010011
00000000000000000000001010100100
11111111111111111111111010011011
11111111111111111111011110000011
11111111111111111111011010000000
11111111111111111111001100001000
11111111111111111110101000011111
11111111111111111110111100010101
11111111111111111110110101000000
11111111111111111110100110100101
11111111111111111110101110001110
11111111111111111110100111110110
11111111111111111101111111001110
11111111111111111101011010000110
11111111111111111101001111001011
11111111111111111101111010011101
11111111111111111101110111111111
11111111111111111110010000100000
11111111111111111110111110111101
11111111111111111111011011101101
11111111111111111111100110001010
11111111111111111111111001010111
00000000000000000000001111100000
00000000000000000000000111011110
00000000000000000000000111111000
00000000000000000000000110110100
00000000000000000000001101010011
00000000000000000000000011000011
00000000000000000000000110000110
00000000000000000000000011100101
11111111111111111111111010000101
11111111111111111111101111011000
11111111111111111111001011111010
11111111111111111111001000100000
11111111111111111110101111100001
11111111111111111110101010100010
11111111111111111110011011100001
11111111111111111110100101111100
11111111111111111110110100101110
11111111111111111111000100110101
11111111111111111110001110110001
11111111111111111101101011111011
11111111111111111101111110111101
11111111111111111110011101110100
11111111111111111110110001110110
11111111111111111111001000010011
11111111111111111111011010101100
00000000000000000000000101010111
00000000000000000000001101101100
00000000000000000000000001111100
00000000000000000000010100000010
00000000000000000000000111011011
00000000000000000000001001101111
00000000000000000000001000111100
00000000000000000000001100000111
00000000000000000000000010011101
00000000000000000000001111110001
00000000000000000000000100010000
11111111111111111111111100100000
11111111111111111111101101100111
11111111111111111111011001111111
11111111111111111111000111100110
11111111111111111110110110100101
11111111111111111110111010000000
11111111111111111110010100100011
11111111111111111110011101010100
11111111111111111111010001110101
11111111111111111111101000010101
11111111111111111110110111100011
11111111111111111110111011110010
11111111111111111110111000000000
11111111111111111111011001110100
11111111111111111111010100110101
11111111111111111111101011111111
00000000000000000000000001100100
00000000000000000000001010000010
00000000000000000000001110010000
00000000000000000000001000101001
00000000000000000000011010110010
00000000000000000000001000010100
00000000000000000000000111010100
00000000000000000000001100001011
00000000000000000000001010010001
00000000000000000000001111110000
00000000000000000000000010010111
00000000000000000000000010111110
00000000000000000000001110010011
00000000000000000000001011101110
11111111111111111111111000101111
11111111111111111111100111100001
11111111111111111111001110110010
11111111111111111110100110001011
11111111111111111110000111110111
11111111111111111110000110111100
11111111111111111110001111000100
11111111111111111110100000001000
11111111111111111110001011010000
11111111111111111110101001100000
11111111111111111110101001010000
11111111111111111110111101001001
11111111111111111111100110110111
11111111111111111111110111000000
00000000000000000000001001000001
00000000000000000000010100101101
00000000000000000000011010110010
00000000000000000000010110100101
00000000000000000000001101100000
00000000000000000000000100001101
00000000000000000000001000100111
00000000000000000000000100101011
00000000000000000000000111111001
00000000000000000000001101111110
00000000000000000000001111110110
00000000000000000000010010100011
00000000000000000000001001011011
00000000000000000000010011011011
00000000000000000000001011000011
00000000000000000000010001111110
00000000000000000000000110010011
11111111111111111111011110101010
11111111111111111111011010001011
11111111111111111111000110010111
11111111111111111110110110010010
11111111111111111111010110000100
11111111111111111111101000001101
11111111111111111111100101011101
11111111111111111111011010100011
11111111111111111111100111111100
11111111111111111111111111010010
00000000000000000000001010110101
00000000000000000000000101000111
00000000000000000000010110111011
00000000000000000000010101011111
00000000000000000000011001011100
00000000000000000000001100111000
00000000000000000000010001000101
00000000000000000000000100000100
00000000000000000000001110110111
00000000000000000000000000011101
00000000000000000000001011100011
00000000000000000000000001000000
00000000000000000000001000011010
00000000000000000000000111011110
00000000000000000000010111111001
00000000000000000000010000001110
00000000000000000000001000011011
00000000000000000000010110101111
00000000000000000000000001101010
00000000000000000000001001101011
00000000000000000000001011111000
11111111111111111111110011110010
11111111111111111111111110100010
00000000000000000000000001100000
00000000000000000000001010100000
00000000000000000000000101010010
00000000000000000000000100001111
00000000000000000000001000010011
00000000000000000000001111111001
00000000000000000000000111010011
00000000000000000000000110011100
00000000000000000000010110111010
00000000000000000000010101011101
00000000000000000000001000100000
00000000000000000000001100101000
00000000000000000000001010011000
00000000000000000000010000110000
00000000000000000000001010101101
00000000000000000000001101101100
00000000000000000000001101010111
00000000000000000000001011001011
00000000000000000000000111001001
00000000000000000000001111000000
00000000000000000000000001011101
00000000000000000000001110101000
00000000000000000000001010101111
11111111111111111111111111100000
11111111111111111111111111001101
11111111111111111111110001100111
11111111111111111111100010010111
11111111111111111111101011100010
11111111111111111111110101011100
11111111111111111111111000010001
11111111111111111111101011100001
11111111111111111111110000111011
11111111111111111111110110010110
00000000000000000000000100010111
00000000000000000000000101000110
00000000000000000000000011011110
00000000000000000000001111001110
00000000000000000000001111110011
00000000000000000000000000110011
00000000000000000000000000110110
00000000000000000000001010111100
00000000000000000000001010000000
00000000000000000000001101011010
00000000000000000000000010111101
00000000000000000000001000011111
00000000000000000000000101110101
00000000000000000000010000101001
00000000000000000000000011011111
00000000000000000000010000111100
00000000000000000000000101101101
00000000000000000000010011000000
00000000000000000000010010011110
11111111111111111111111111001000
00000000000000000000001000011001
00000000000000000000000100100010
00000000000000000000001011011010
11111111111111111111111111001100
00000000000000000000000110100011
11111111111111111111111101000100
00000000000000000000000111100110
00000000000000000000000010100011
00000000000000000000000100111001
00000000000000000000001000011001
00000000000000000000010011110100
00000000000000000000010010011001
00000000000000000000010000111111
00000000000000000000000000100100
00000000000000000000000111101001
00000000000000000000001011010100
00000000000000000000000001111001
00000000000000000000001000100001
