00000000000000000000000001011011
00000000000000000000001110111101
00000000000000000000001001111100
00000000000000000000001011100100
00000000000000000000010001111110
00000000000000000000000110000100
00000000000000000000001110010000
00000000000000000000001000100001
00000000000000000000010000100110
00000000000000000000001110011110
00000000000000000000001000110110
00000000000000000000000101000001
00000000000000000000001000011000
00000000000000000000000110000101
00000000000000000000010001001100
00000000000000000000010010010000
00000000000000000000001001010001
00000000000000000000000001111000
00000000000000000000000001001000
00000000000000000000001001010000
00000000000000000000000110111001
00000000000000000000000011010000
00000000000000000000001001010000
00000000000000000000000111011101
00000000000000000000001000001110
00000000000000000000000000010011
00000000000000000000000111011010
00000000000000000000001111100100
00000000000000000000001110001010
00000000000000000000010001110011
00000000000000000000000010001110
00000000000000000000001111100101
00000000000000000000001110011100
00000000000000000000001100001000
00000000000000000000001001011001
00000000000000000000001110100110
00000000000000000000010011001101
00000000000000000000000011110100
00000000000000000000000011001011
00000000000000000000010000011001
00000000000000000000000101101000
00000000000000000000001111010001
00000000000000000000000011110011
00000000000000000000001011001000
00000000000000000000001111011000
00000000000000000000000011000001
00000000000000000000001011010100
00000000000000000000001000100011
00000000000000000000000101100110
00000000000000000000001010100011
00000000000000000000010000010101
00000000000000000000001011000011
00000000000000000000001100000111
00000000000000000000000110110100
00000000000000000000000000001100
00000000000000000000000010000011
00000000000000000000000111000111
00000000000000000000000111100110
00000000000000000000010001101010
00000000000000000000000010111111
00000000000000000000000111001100
00000000000000000000000001010100
00000000000000000000000000100001
00000000000000000000000100000010
00000000000000000000001111000011
00000000000000000000001000000110
00000000000000000000010100011100
00000000000000000000001101010101
00000000000000000000010000000000
00000000000000000000000101110001
11111111111111111111111111110111
00000000000000000000010000000110
00000000000000000000010011010111
00000000000000000000001110001110
00000000000000000000010010100100
00000000000000000000011011011001
00000000000000000000011011000111
00000000000000000000011010001010
00000000000000000000001101011011
00000000000000000000000110111010
00000000000000000000000011100101
11111111111111111111111111110010
00000000000000000000001110010100
00000000000000000000001110111000
00000000000000000000000110110111
00000000000000000000001110100001
00000000000000000000010000111001
00000000000000000000001101110101
00000000000000000000000011110010
00000000000000000000010011100111
00000000000000000000010010011010
00000000000000000000001100001011
00000000000000000000000111011110
00000000000000000000000001001101
11111111111111111111111110110101
00000000000000000000000111111100
00000000000000000000001110110110
00000000000000000000011000101001
00000000000000000000101100001101
00000000000000000001010101001100
00000000000000000010000101111011
00000000000000000001100001001111
00000000000000000000110011000011
00000000000000000001000010011011
00000000000000000000111110011010
00000000000000000000010100110100
00000000000000000000010100011110
00000000000000000000100010110100
00000000000000000000100101101010
00000000000000000000001110101101
00000000000000000000000010001110
00000000000000000000000001110010
00000000000000000000001110000100
00000000000000000000010000001010
00000000000000000000010000011000
00000000000000000000000010101001
00000000000000000000001111000100
00000000000000000000010111011000
00000000000000000000010110010001
00000000000000000000011100010100
00000000000000000000101010101100
00000000000000000000010011000101
00000000000000000000001001000010
11111111111111111111101000010000
11111111111111111111111000100001
00000000000000000000010010011101
00000000000000000000010010111100
00000000000000000000010011011000
00000000000000000000001001100011
00000000000000000000010010100110
11111111111111111111110001001111
11111111111111111111111110110111
11111111111111111111011111110001
11111111111111111110111110101110
11111111111111111111000011100101
11111111111111111111001110010011
11111111111111111111100110001010
11111111111111111111111101001110
00000000000000000000010000111101
00000000000000000000001101010010
00000000000000000000000011100111
00000000000000000000000000101110
00000000000000000000001111000110
00000000000000000000010010001011
00000000000000000000011100001101
00000000000000000000011011001001
00000000000000000000010010001101
00000000000000000000010101110101
11111111111111111111111000110011
11111111111111111111001011111101
11111111111111111110110100101001
11111111111111111101111001011101
11111111111111111101110100110100
11111111111111111110000100000000
11111111111111111110000000111001
11111111111111111110011010011010
11111111111111111110001101100111
11111111111111111101010000001111
11111111111111111101011110111000
11111111111111111110101101000111
11111111111111111110100010101010
11111111111111111110110101010011
11111111111111111110000101001011
11111111111111111110011000101001
11111111111111111110110110010000
11111111111111111111100011011011
00000000000000000000000001110000
00000000000000000000001010001100
00000000000000000000000111111111
00000000000000000000000110000110
00000000000000000000000101011010
00000000000000000000010001001111
00000000000000000000100011100101
00000000000000000000100101101000
00000000000000000000100110101010
00000000000000000000000011011111
11111111111111111111111001111100
11111111111111111110111011011001
11111111111111111110100100000100
11111111111111111101100110111101
11111111111111111101110111110111
11111111111111111110010110100010
11111111111111111101110100101001
11111111111111111110001101000011
11111111111111111101010101001000
11111111111111111100110000111111
11111111111111111101010011001110
11111111111111111110010011100110
11111111111111111111001001011000
11111111111111111111010111011101
11111111111111111110111010001111
11111111111111111101111100010101
11111111111111111110001001100110
11111111111111111111010100000010
00000000000000000000000101001010
00000000000000000000000111011000
00000000000000000000000010001001
00000000000000000000000100000011
00000000000000000000001100100100
00000000000000000000001111100100
00000000000000000000111011111101
00000000000000000000100001000001
11111111111111111111011111010110
11111111111111111111010001100110
11111111111111111110000110101010
11111111111111111110000110100101
11111111111111111101010110001101
11111111111111111101101000000100
11111111111111111110100001101110
11111111111111111110000100110101
11111111111111111110101100111100
11111111111111111110100110101101
11111111111111111100110010111101
11111111111111111101110010100010
11111111111111111110001101000010
11111111111111111110100110110011
11111111111111111111011101000111
11111111111111111111110010110001
11111111111111111110111000001001
11111111111111111110101011001101
11111111111111111110110001001100
11111111111111111111010011000111
00000000000000000000000100000111
00000000000000000000001101010010
00000000000000000000001000011000
00000000000000000000001000011011
00000000000000000000001001010010
00000000000000000000000000011111
00000000000000000000101110010111
11111111111111111111111011101101
11111111111111111110111011100000
11111111111111111110010010001011
11111111111111111101100110111011
11111111111111111101010000011110
11111111111111111101110011000101
11111111111111111101111000011011
11111111111111111111100010000001
11111111111111111111010001010001
11111111111111111111011000100111
11111111111111111111001010100001
11111111111111111110011000011101
11111111111111111110001010101011
11111111111111111110101001100100
11111111111111111110110010011110
11111111111111111111000101101110
00000000000000000000001111101111
00000000000000000000000010110111
11111111111111111111100000000000
11111111111111111111010101110001
11111111111111111111011000101000
11111111111111111111111110011000
00000000000000000000000000111100
00000000000000000000010010001100
00000000000000000000001011001100
00000000000000000000001000001001
11111111111111111111111100010111
00000000000000000000000101110110
11111111111111111111100101001011
11111111111111111110110011011011
11111111111111111110010000101000
11111111111111111101010100001110
11111111111111111101001000000001
11111111111111111101110111110101
11111111111111111101100111111101
11111111111111111101110111111111
11111111111111111110110100000000
11111111111111111111001101001011
11111111111111111111010111001010
11111111111111111110111110011110
11111111111111111110100100001110
11111111111111111110101001011011
11111111111111111111100010000001
11111111111111111111111010001100
00000000000000000000100001100111
00000000000000000000100100111000
11111111111111111111110100111010
11111111111111111111001000110000
11111111111111111111000100100001
11111111111111111111101000011100
00000000000000000000001000000011
00000000000000000000000000011010
11111111111111111111111111110110
00000000000000000000000100000111
00000000000000000000001000100011
00000000000000000000000100001101
11111111111111111111011111000100
11111111111111111110011100011111
11111111111111111101111001011010
11111111111111111100111110100101
11111111111111111101000001000010
11111111111111111100111001100000
11111111111111111100110010110010
11111111111111111101010101000100
11111111111111111110001001011100
11111111111111111110001110100011
11111111111111111111000101011110
11111111111111111111110110001001
11111111111111111111100100101000
11111111111111111111010100110101
11111111111111111111100101111001
00000000000000000000000001110011
00000000000000000000010001001010
00000000000000000000010101001111
11111111111111111111100001000100
11111111111111111111000111000011
11111111111111111110111110000100
11111111111111111111101100001101
00000000000000000000000100101010
00000000000000000000001000100110
00000000000000000000000110010011
00000000000000000000001010000001
11111111111111111111111110011011
11111111111111111111111100110101
11111111111111111111100100101000
11111111111111111110101110101000
11111111111111111110110100100000
11111111111111111101100011001110
11111111111111111101100011110001
11111111111111111101001001100110
11111111111111111110000011110110
11111111111111111110010111100101
11111111111111111110010100110101
11111111111111111101110010111000
11111111111111111110101101001111
11111111111111111110001101000110
11111111111111111110001111000110
11111111111111111110100100000011
11111111111111111110100001101001
11111111111111111110110110000111
11111111111111111111101001011010
11111111111111111111100011111111
11111111111111111111011111010000
11111111111111111111010010010001
11111111111111111111001111101110
11111111111111111111110100001010
00000000000000000000001011111100
00000000000000000000001110011001
00000000000000000000001110001111
11111111111111111111111101111100
11111111111111111111110111100010
11111111111111111111110110000011
11111111111111111111110000011111
11111111111111111111100001111111
11111111111111111111001100010111
11111111111111111110100110111000
11111111111111111110101000010110
11111111111111111110100011001101
11111111111111111110111110001110
11111111111111111110110101001100
11111111111111111101001000001000
11111111111111111101100000001110
11111111111111111110010011110011
11111111111111111110001110111010
11111111111111111110010000000011
11111111111111111110010101000100
11111111111111111110001100001101
11111111111111111110110110001010
11111111111111111111001111000001
11111111111111111111100110001011
00000000000000000000010111001101
00000000000000000000001011100010
11111111111111111111011101111010
11111111111111111111111011110110
00000000000000000000001100110100
00000000000000000000001110111000
00000000000000000000000110000100
00000000000000000000000101100110
00000000000000000000000001110100
11111111111111111111110000001011
00000000000000000000001000000100
00000000000000000000010101111100
11111111111111111111011011011101
11111111111111111111011000010100
11111111111111111110111111110011
11111111111111111110111011001101
11111111111111111110101001011010
11111111111111111111000100111011
11111111111111111100111000111110
11111111111111111101010100010000
11111111111111111101110011010101
11111111111111111110000001000000
11111111111111111101011101101111
11111111111111111101100011010110
11111111111111111110110001011010
11111111111111111111000110111000
11111111111111111110111100010111
11111111111111111111000000110101
00000000000000000000100100100110
00000000000000000000000101110001
11111111111111111111110010011011
00000000000000000000000000001100
00000000000000000000010010101100
00000000000000000000000101111000
00000000000000000000000101000110
00000000000000000000001010100011
11111111111111111111111010110000
11111111111111111111110011101110
00000000000000000000011011101001
00000000000000000000101001100110
00000000000000000000000010010111
11111111111111111111111101100110
11111111111111111111110011011101
11111111111111111111011100000101
11111111111111111111111001110011
11111111111111111110101001111000
11111111111111111101010000011111
11111111111111111101010000001100
11111111111111111101101000010101
11111111111111111110101111110010
11111111111111111111000101010001
11111111111111111110000100010011
11111111111111111110110100110011
11111111111111111111010001111110
00000000000000000000000000000001
11111111111111111111001110000101
00000000000000000000000001011000
00000000000000000000011001000010
00000000000000000000000100101011
11111111111111111111110101001001
00000000000000000000001111011100
00000000000000000000001011010011
00000000000000000000001100100111
00000000000000000000010000001000
00000000000000000000001101011001
11111111111111111111111011011100
00000000000000000000101001000011
00000000000000000000001110000101
00000000000000000000001100001001
00000000000000000000100010011101
00000000000000000000100100111001
00000000000000000000100000010100
11111111111111111111111101100010
11111111111111111110100110001100
11111111111111111101000111001010
11111111111111111101100000100001
11111111111111111110010100000110
11111111111111111111110011001000
11111111111111111111011100100001
11111111111111111111011100110001
11111111111111111110101100010100
11111111111111111111101010000001
11111111111111111111110001110010
00000000000000000000000011100111
11111111111111111111110011001011
00000000000000000000000100111110
11111111111111111111111010001001
11111111111111111111111101011110
00000000000000000000000111100111
00000000000000000000000001000101
00000000000000000000010010111010
00000000000000000000001101101001
00000000000000000000010010001001
11111111111111111111111010111010
00000000000000000000001001111100
00000000000000000000100000110010
00000000000000000001001010100110
00000000000000000001000001000010
00000000000000000001000110111111
00000000000000000000011010110010
11111111111111111111101000111011
11111111111111111101111110110101
11111111111111111101011001110100
11111111111111111101100011011011
11111111111111111110010011100100
11111111111111111111011101100011
11111111111111111110100110000100
11111111111111111111001100111011
11111111111111111111010010100010
11111111111111111110100100011101
11111111111111111110100111011101
11111111111111111111011110010001
11111111111111111111011101000001
11111111111111111111110111100011
11111111111111111111101111100110
11111111111111111111111010000110
00000000000000000000001001100000
00000000000000000000000100100001
00000000000000000000001001111110
00000000000000000000001011110001
00000000000000000000010101000000
00000000000000000000010100000101
11111111111111111111111100110011
11111111111111111111101110110110
00000000000000000000010011001011
00000000000000000000011001110000
11111111111111111111111111110100
11111111111111111111010110011001
11111111111111111110101101010111
11111111111111111110011000001110
11111111111111111101111101001001
11111111111111111101111000111101
11111111111111111110101010110101
11111111111111111111011101000000
11111111111111111110100010001011
11111111111111111110011111010110
11111111111111111111100111001111
11111111111111111110110010110100
11111111111111111110111010101011
11111111111111111111111000110011
11111111111111111111011110110010
11111111111111111111100110010000
11111111111111111111110001001111
11111111111111111111111101111110
00000000000000000000000101001100
00000000000000000000000101011111
00000000000000000000010001100001
00000000000000000000010100001101
00000000000000000000100001010000
00000000000000000000110000100101
00000000000000000000000111100000
11111111111111111111001010111001
11111111111111111111001011111000
11111111111111111111101110110100
11111111111111111111001011001101
11111111111111111110101010111110
11111111111111111110100000000010
11111111111111111110111011101001
11111111111111111110000110100001
11111111111111111110000110011010
11111111111111111111011000101111
00000000000000000000001011001110
11111111111111111110010011011100
11111111111111111111010011101100
11111111111111111111101100011011
11111111111111111111010101011100
11111111111111111111010111100011
11111111111111111111111111000000
11111111111111111111000100000011
11111111111111111110111010000110
11111111111111111111100111001001
00000000000000000000001001101100
00000000000000000000010001000111
00000000000000000000001101111000
00000000000000000000000010000011
00000000000000000000000011010111
00000000000000000000011111100010
00000000000000000000100111010011
11111111111111111111110000100011
11111111111111111110110110111010
11111111111111111110100100000101
11111111111111111110110010101000
11111111111111111110100101111101
11111111111111111110011000110110
11111111111111111110010110101111
11111111111111111110111011110100
11111111111111111101111100001100
11111111111111111101110111001111
11111111111111111111000011010110
11111111111111111111000101111000
11111111111111111110111010001001
11111111111111111111111010101111
00000000000000000000000011011010
11111111111111111111101000110101
11111111111111111111101100000110
00000000000000000000000010010110
11111111111111111110100111010010
11111111111111111110101100111010
11111111111111111111101000111001
00000000000000000000000111110011
00000000000000000000000101001110
00000000000000000000001001010011
00000000000000000000001011001100
00000000000000000000000100100010
00000000000000000000011010111111
00000000000000000000011010010000
11111111111111111111001011101110
11111111111111111110101000101000
11111111111111111110010011000000
11111111111111111110010110111011
11111111111111111110100110011101
11111111111111111110010011010001
11111111111111111110111100111101
11111111111111111101110000101110
11111111111111111101010101010101
11111111111111111110011101110010
11111111111111111111010001111010
11111111111111111110111010000101
11111111111111111111111101001100
00000000000000000001010001000110
00000000000000000000111011101111
00000000000000000000010101100011
11111111111111111111110111010000
11111111111111111111010100111000
11111111111111111110101001111111
11111111111111111110111011101010
11111111111111111111101101110100
00000000000000000000000000100111
00000000000000000000010010000011
00000000000000000000001101101000
00000000000000000000000011010101
00000000000000000000000111110011
00000000000000000000010101110011
00000000000000000000001010110010
11111111111111111111101101100001
11111111111111111111000010011011
11111111111111111110100011100011
11111111111111111110001100000111
11111111111111111110001100000111
11111111111111111110001101100100
11111111111111111110001011011100
11111111111111111101011110010111
11111111111111111101101001110001
11111111111111111110101011111011
11111111111111111111100111101111
11111111111111111111011111000110
00000000000000000000011011000110
00000000000000000001011111101111
00000000000000000000100001111001
11111111111111111111101001111100
11111111111111111110111000001010
11111111111111111110111100010100
11111111111111111110111100110010
11111111111111111111010000001100
11111111111111111111110110000100
11111111111111111111111110110100
00000000000000000000001001000010
00000000000000000000001010011100
00000000000000000000001000000111
00000000000000000000001011111010
00000000000000000000010010011110
00000000000000000000000011101000
00000000000000000000000011111010
11111111111111111111111010111010
11111111111111111111001101001001
11111111111111111101110011101010
11111111111111111101010111000011
11111111111111111110001101000001
11111111111111111110011101000010
11111111111111111110001011111000
11111111111111111110001111001100
11111111111111111111010011000111
00000000000000000000000011000101
11111111111111111111100001100100
11111111111111111111100011101010
11111111111111111111111001000010
00000000000000000000010011101111
11111111111111111111101000010110
11111111111111111111011001111110
11111111111111111111001110001101
11111111111111111111000001011111
11111111111111111111011100111111
11111111111111111111111000001100
00000000000000000000001110110101
00000000000000000000001101001000
00000000000000000000001001111011
00000000000000000000010000010001
00000000000000000000001001100000
00000000000000000000010010011011
00000000000000000000001100110111
00000000000000000000010001011111
00000000000000000000000111011101
11111111111111111111111011010110
11111111111111111111001011111011
11111111111111111110011001100100
11111111111111111101110101110010
11111111111111111110010000101111
11111111111111111101011111011101
11111111111111111110110100001100
11111111111111111110111000111101
11111111111111111111001001010101
11111111111111111110111001010101
11111111111111111111001001100100
11111111111111111111110010011010
00000000000000000000001101100111
11111111111111111111100001110010
11111111111111111111001000000000
11111111111111111110111110001100
11111111111111111111100010001011
11111111111111111111110110110000
00000000000000000000000000100010
00000000000000000000000101101111
00000000000000000000000011010001
00000000000000000000001011100101
00000000000000000000000011000111
00000000000000000000010101111101
00000000000000000000010001111010
00000000000000000000010001011101
00000000000000000000010000010010
00000000000000000000010011000100
00000000000000000000100110110100
00000000000000000000110000001110
00000000000000000001000010001011
00000000000000000001001010101001
00000000000000000000011001011111
11111111111111111111011101111001
11111111111111111111101001001101
11111111111111111111101101110000
11111111111111111111101101000100
11111111111111111111111101000001
11111111111111111111101101100100
11111111111111111111101101111011
11111111111111111111110010111010
11111111111111111111010110011111
11111111111111111111011011011100
11111111111111111111100110111001
11111111111111111111111100101101
00000000000000000000000101001101
00000000000000000000000001000011
00000000000000000000001011011101
00000000000000000000001000010111
00000000000000000000001001100011
00000000000000000000010001101000
00000000000000000000001100001001
00000000000000000000000110001110
00000000000000000000001011010001
00000000000000000000010100101101
00000000000000000000001100010000
00000000000000000000001101111110
00000000000000000000011100010111
00000000000000000000011001101001
00000000000000000000100110111001
00000000000000000000010010010000
11111111111111111111111101100001
00000000000000000000010010011111
00000000000000000000011001101101
11111111111111111111110110101000
11111111111111111111110001011110
11111111111111111111011000011111
11111111111111111111110101001000
11111111111111111111110001100001
11111111111111111111111110011100
00000000000000000000000011011001
11111111111111111111110111111111
00000000000000000000000101101000
00000000000000000000001010101101
00000000000000000000001111011110
00000000000000000000001111010011
00000000000000000000000101100000
00000000000000000000000000011100
00000000000000000000001000100100
00000000000000000000001101111000
00000000000000000000001001110101
00000000000000000000000101010111
00000000000000000000000101100011
00000000000000000000001100101010
11111111111111111111111111001010
11111111111111111111111100011010
11111111111111111111100001000011
11111111111111111111101011101111
11111111111111111111100000110001
11111111111111111111010111001101
11111111111111111111011000000100
11111111111111111111010001101011
11111111111111111111011001011011
11111111111111111111100110000101
11111111111111111111111100010001
00000000000000000000000010001000
11111111111111111111111000011111
00000000000000000000000000101100
11111111111111111111111000101000
00000000000000000000000010000010
00000000000000000000000001011111
00000000000000000000010001001000
00000000000000000000000100110101
00000000000000000000001010000100
00000000000000000000001010111100
00000000000000000000000010001000
00000000000000000000000111000111
00000000000000000000010000011101
00000000000000000000000010100101
00000000000000000000001111101010
00000000000000000000001011111011
00000000000000000000001011101001
00000000000000000000000011101101
11111111111111111111111111010110
00000000000000000000000100100011
00000000000000000000001000001011
00000000000000000000001011011011
00000000000000000000000000111100
11111111111111111111111110100010
11111111111111111111111111000100
11111111111111111111110110001111
00000000000000000000000110000011
00000000000000000000000001010011
11111111111111111111111110000010
00000000000000000000000011010111
00000000000000000000000011101101
00000000000000000000000011000111
00000000000000000000001000100010
00000000000000000000000000011110
00000000000000000000000101000100
00000000000000000000001100010000
00000000000000000000000001100111
00000000000000000000000011111100
