00000000000000000000000101011000
00000000000000000000000011010011
00000000000000000000010000101011
00000000000000000000001000010010
00000000000000000000001001111100
00000000000000000000010001000000
00000000000000000000000000000010
00000000000000000000001110000100
00000000000000000000001101001011
00000000000000000000000111010000
00000000000000000000000110110111
00000000000000000000000010101101
00000000000000000000001110001100
00000000000000000000000100100011
00000000000000000000000011100100
00000000000000000000000100111010
00000000000000000000000101110111
00000000000000000000010000101011
00000000000000000000001111110110
00000000000000000000001010100100
00000000000000000000000010111011
00000000000000000000000111010001
00000000000000000000000000100110
00000000000000000000000111111001
00000000000000000000001010110100
00000000000000000000000101011000
00000000000000000000001101100011
00000000000000000000000110001000
00000000000000000000001010101001
00000000000000000000001001010110
00000000000000000000000110100100
00000000000000000000010000000010
00000000000000000000001100101000
00000000000000000000000100111010
00000000000000000000000110001101
00000000000000000000000100011111
00000000000000000000000100010010
00000000000000000000000101010111
11111111111111111111111100000111
00000000000000000000001011110000
00000000000000000000000111101010
00000000000000000000000010001101
00000000000000000000000111010111
00000000000000000000010110100110
00000000000000000000000111110110
00000000000000000000000001001000
00000000000000000000001101110110
00000000000000000000001111010011
00000000000000000000000000011101
00000000000000000000001000101100
00000000000000000000001001000001
00000000000000000000000110010101
00000000000000000000000000110010
00000000000000000000001010011100
00000000000000000000001110001001
00000000000000000000001011100110
00000000000000000000001111110100
00000000000000000000001001011010
00000000000000000000010001101110
00000000000000000000001000000011
00000000000000000000000000001110
00000000000000000000000101111000
00000000000000000000000101011110
00000000000000000000001010011110
00000000000000000000000011100001
11111111111111111111111111111001
11111111111111111111111111010010
11111111111111111111111010011001
11111111111111111111111110011110
11111111111111111111111101100001
11111111111111111111110011010101
00000000000000000000001110011110
00000000000000000000001000110111
00000000000000000000000101011100
11111111111111111111111100010101
00000000000000000000001011101111
11111111111111111111110111001001
11111111111111111111110100000011
00000000000000000000001101111111
00000000000000000000000110111001
00000000000000000000001100100011
00000000000000000000001000101101
00000000000000000000001010110011
00000000000000000000001100100101
00000000000000000000000000111010
00000000000000000000000110101010
00000000000000000000000110101111
00000000000000000000010000100010
00000000000000000000001111010100
00000000000000000000000100011010
00000000000000000000000110001000
00000000000000000000001001011010
11111111111111111111110110111111
11111111111111111111110010101001
11111111111111111111011011000001
11111111111111111110111000001111
11111111111111111111000011001101
11111111111111111111001100110001
11111111111111111111000110100011
00000000000000000000010001101111
00000000000000000000010111101000
11111111111111111111111000010000
11111111111111111111100000000111
00000000000000000000011001101010
00000000000000000000010011111111
00000000000000000000000111101011
00000000000000000000011001110011
00000000000000000000010000101011
00000000000000000000000111101001
00000000000000000000001110101101
00000000000000000000001111000010
00000000000000000000010000101001
00000000000000000000000101001001
00000000000000000000001000001111
00000000000000000000001101111010
00000000000000000000000110111111
00000000000000000000001100110100
00000000000000000000001101111101
00000000000000000000001011101111
00000000000000000000001100101101
11111111111111111111111111100100
00000000000000000000000001101110
11111111111111111111100001100111
11111111111111111111010010110001
11111111111111111111000110110001
11111111111111111111010000101110
11111111111111111110110111011010
11111111111111111111001111010001
11111111111111111111010010010100
11111111111111111110101011010110
11111111111111111111001110101110
11111111111111111111100010010111
11111111111111111111111100111100
11111111111111111111110111101100
00000000000000000000001110100010
00000000000000000000011001001111
00000000000000000000000001101101
11111111111111111111111011101011
00000000000000000000010000101101
00000000000000000000001000001001
00000000000000000000010000010011
00000000000000000000001111101101
00000000000000000000001001000010
00000000000000000000000011010100
00000000000000000000000000110100
00000000000000000000001011000101
00000000000000000000010111011111
00000000000000000000000011000000
00000000000000000000010111011100
00000000000000000000000001111011
11111111111111111111011100011000
11111111111111111111000101001100
11111111111111111111001110111001
11111111111111111111001000010010
11111111111111111111000010101001
11111111111111111111001011010101
11111111111111111110110111110011
11111111111111111110010110111000
11111111111111111110010010100111
11111111111111111111101000101111
11111111111111111111110011011100
11111111111111111111101110110011
11111111111111111111111011100101
11111111111111111111110111100000
11111111111111111111111001100100
11111111111111111111110010110001
00000000000000000000000010111101
00000000000000000000000111110110
00000000000000000000000010001100
00000000000000000000000111001101
11111111111111111111111101110101
11111111111111111111111001111111
11111111111111111111111011001011
00000000000000000000001111001110
00000000000000000000001101001110
11111111111111111111110111111000
00000000000000000000000010001100
11111111111111111111110001100001
11111111111111111111111100101010
11111111111111111111101000010000
11111111111111111110110111011110
11111111111111111110010100101101
11111111111111111110101110001110
11111111111111111111010000110110
11111111111111111111010011000010
11111111111111111111001101110111
11111111111111111111100010011011
00000000000000000000000100000101
00000000000000000000010100111110
00000000000000000000000110101000
11111111111111111111100011101001
11111111111111111111101110000000
11111111111111111111101100110001
00000000000000000000001101010001
00000000000000000000000111001001
00000000000000000000000110000001
00000000000000000000010000001100
00000000000000000000001001000010
00000000000000000000001110110001
11111111111111111111111011110011
00000000000000000000001001111101
00000000000000000000010010011100
11111111111111111111110011000000
11111111111111111111001100000001
11111111111111111111000100000001
11111111111111111111110100101011
00000000000000000000000110111110
11111111111111111111000011111000
11111111111111111110110111101000
11111111111111111110001001111110
11111111111111111110101111101101
11111111111111111110001111001000
11111111111111111111010110011110
11111111111111111110011101110000
11111111111111111111000100011100
11111111111111111111110110010011
11111111111111111111011011110101
11111111111111111111011010011111
11111111111111111111101010000000
11111111111111111111111000000100
11111111111111111111101101110100
11111111111111111111111110111000
00000000000000000000000101000001
00000000000000000000000111010111
00000000000000000000000101100001
00000000000000000000001001001011
00000000000000000000001101100101
11111111111111111111111110001001
00000000000000000000000110110100
00000000000000000000001011010001
11111111111111111111110100011110
11111111111111111111101001110110
11111111111111111111001101001011
11111111111111111111100000100101
11111111111111111111110011111011
11111111111111111111001011011011
11111111111111111110111001010110
11111111111111111101101001000000
11111111111111111111010100011110
11111111111111111110111011111011
11111111111111111110000100100011
11111111111111111110001110110101
11111111111111111111001011110010
11111111111111111111011001110111
11111111111111111111010000001100
11111111111111111111010001111010
11111111111111111111111000001110
00000000000000000000100100001100
00000000000000000000000100110010
11111111111111111111111001011101
00000000000000000000000010011000
00000000000000000000001100011111
00000000000000000000001011010101
00000000000000000000001001101100
11111111111111111111111101100111
11111111111111111111111111110100
11111111111111111111110110101000
11111111111111111111110111001011
11111111111111111111100000011011
11111111111111111111001110000111
11111111111111111110101001011000
11111111111111111110111101100100
11111111111111111111001110100011
11111111111111111110111111010011
11111111111111111110100101111011
11111111111111111111000111010011
11111111111111111111000001000001
11111111111111111110110000010101
11111111111111111101011101011111
11111111111111111110100101001111
11111111111111111111011100010100
11111111111111111111000100001001
11111111111111111111000000001101
11111111111111111111111101101100
11111111111111111111110010001101
00000000000000000000000010100001
00000000000000000000011110001111
00000000000000000000001110010000
00000000000000000000001000001101
00000000000000000000001000010110
00000000000000000000000001101010
00000000000000000000000010111011
00000000000000000000001110100000
11111111111111111111110001111001
11111111111111111111100100010101
11111111111111111111010011100101
11111111111111111111010010111100
11111111111111111110110110100001
11111111111111111110110001001000
11111111111111111111010110101010
11111111111111111111010010100001
11111111111111111110101000111100
11111111111111111110100100100011
11111111111111111110111110001101
11111111111111111101110101001101
11111111111111111101111101011010
11111111111111111110001100001010
11111111111111111111011100100101
11111111111111111111001100111110
11111111111111111111011110011100
11111111111111111111011101100000
00000000000000000000010001101000
11111111111111111111101001011000
11111111111111111111110010010100
00000000000000000000000111101001
00000000000000000000010011111111
00000000000000000000001000111101
00000000000000000000001000111111
00000000000000000000001101100110
00000000000000000000000010010001
00000000000000000000000110010101
00000000000000000000000010101111
11111111111111111111110011010011
11111111111111111111101001000101
11111111111111111111001011000010
11111111111111111111001000101001
11111111111111111111010001010111
11111111111111111111000011111110
11111111111111111111001101110110
11111111111111111111000011000010
11111111111111111111010111011010
11111111111111111111010111110111
11111111111111111110010000001111
11111111111111111110110101011000
11111111111111111111011010000001
11111111111111111110111010010100
11111111111111111110101011000111
11111111111111111110011110111111
11111111111111111110110100011100
11111111111111111111011100101001
11111111111111111111000100111000
11111111111111111111001000111110
11111111111111111111011111010000
11111111111111111111110111011000
11111111111111111111111011000100
00000000000000000000000011111111
00000000000000000000000011001011
00000000000000000000000101111011
00000000000000000000000110111111
00000000000000000000001011011010
11111111111111111111110110101111
11111111111111111111011001110001
11111111111111111111011001001111
00000000000000000000001001000110
00000000000000000000100110000001
11111111111111111111100001111010
11111111111111111111001000001111
11111111111111111111101011101000
00000000000000000000010111001001
11111111111111111111001011110001
11111111111111111110100000001101
11111111111111111111011100101100
11111111111111111110111000111010
11111111111111111101101100111100
11111111111111111101111001100011
11111111111111111101111011010100
11111111111111111110011111110000
11111111111111111110101101001011
11111111111111111110101010000101
11111111111111111111001001110000
11111111111111111111110110100011
00000000000000000000011100100011
00000000000000000000001110101111
00000000000000000000001110111010
00000000000000000000001110101000
00000000000000000000000101101001
00000000000000000000001101010111
00000000000000000000010001101011
00000000000000000000000011101001
11111111111111111111110110110011
00000000000000000000000001111110
00000000000000000000010001000100
00000000000000000000010010011000
11111111111111111111000111111010
11111111111111111110100100100111
11111111111111111110101100011011
11111111111111111111101001100110
11111111111111111110010110010101
11111111111111111110100000000100
11111111111111111101011101111010
11111111111111111101000010011111
11111111111111111101010101000000
11111111111111111110001001010101
11111111111111111101100100101011
11111111111111111110101011111000
11111111111111111111010010101010
11111111111111111111010000100010
11111111111111111111010001000011
11111111111111111111111111110101
00000000000000000000001111101001
00000000000000000000000110101011
00000000000000000000000111110111
00000000000000000000001010011100
00000000000000000000000010011011
00000000000000000000010000011110
00000000000000000000000100011011
11111111111111111111111011001101
11111111111111111111111010000011
11111111111111111111101110000111
11111111111111111111111100000000
11111111111111111111110110101011
11111111111111111110101001110100
11111111111111111110011001000101
11111111111111111110010100000000
11111111111111111110110000111010
11111111111111111101001111110001
11111111111111111101110101010101
11111111111111111100111101100110
11111111111111111110101101000110
11111111111111111111000011011110
11111111111111111110111001000110
11111111111111111111000000110000
11111111111111111110111001001110
11111111111111111111001011111001
11111111111111111111011110001101
11111111111111111111011100010000
11111111111111111111101100100010
11111111111111111111111010110100
00000000000000000000000001100010
00000000000000000000000100001111
00000000000000000000000110100011
00000000000000000000000100011101
00000000000000000000001001110110
00000000000000000000000111111000
11111111111111111111100010011010
11111111111111111111011011000011
11111111111111111111011001111011
11111111111111111111111100100001
11111111111111111111010111101100
11111111111111111110100100110000
11111111111111111110001100100001
11111111111111111110100001000101
11111111111111111110001101010001
11111111111111111110001111100111
11111111111111111101000010100010
11111111111111111101101011111000
11111111111111111111101001011011
11111111111111111111011111010101
11111111111111111111001010011010
11111111111111111110011010110101
11111111111111111110010000110111
11111111111111111110110110111000
11111111111111111111001000000101
11111111111111111111011000100100
11111111111111111111110101111000
11111111111111111111110101110111
00000000000000000000000111001110
00000000000000000000000110000001
00000000000000000000000101001110
00000000000000000000001000010000
00000000000000000000001001111101
11111111111111111111111100100111
11111111111111111111110000010010
11111111111111111111001101010111
11111111111111111111011100100010
11111111111111111111001001001110
11111111111111111110110100100110
11111111111111111110110010110010
11111111111111111110011001100000
11111111111111111110100000000000
11111111111111111110010000111101
11111111111111111110011001010100
11111111111111111101101110010101
11111111111111111110011111001101
11111111111111111111101000001000
11111111111111111110011110100100
11111111111111111110010010001100
11111111111111111110000101101100
11111111111111111110011011011010
11111111111111111110100101010110
11111111111111111110101110110101
11111111111111111111100010001110
00000000000000000000000001111001
00000000000000000000000110101101
00000000000000000000000110101010
00000000000000000000000010101110
00000000000000000000001010100011
00000000000000000000000110000110
00000000000000000000001001101101
00000000000000000000001010001100
00000000000000000000000110011111
11111111111111111111011111100001
11111111111111111111010100000100
11111111111111111110111000000111
11111111111111111110011100100001
11111111111111111110110100101110
11111111111111111111000001010000
11111111111111111111000011010010
11111111111111111110001001110000
11111111111111111101101011101110
11111111111111111110001000110011
11111111111111111111000001111100
11111111111111111110111000111001
11111111111111111110011110001101
11111111111111111111010010101111
11111111111111111111010111100110
11111111111111111110111111110011
11111111111111111111000101010101
11111111111111111111100101100111
11111111111111111111101111001001
00000000000000000000010110100110
00000000000000000000011001010110
00000000000000000000001101000000
00000000000000000000001011001101
00000000000000000000001001001110
00000000000000000000001010010000
00000000000000000000010000011101
00000000000000000000001101000001
00000000000000000000010001010101
11111111111111111111110101010000
11111111111111111111011001001010
11111111111111111111000110010010
11111111111111111110111011101111
11111111111111111110111101111001
11111111111111111110100100100011
11111111111111111110001110110000
11111111111111111101001111100110
11111111111111111101101100000100
11111111111111111101110111110001
11111111111111111110100011111011
11111111111111111110001000101001
11111111111111111110111111001101
11111111111111111111100001100100
11111111111111111111111100111101
00000000000000000000000101111111
00000000000000000000001110111010
11111111111111111111111111000001
00000000000000000000010101100111
00000000000000000000101011001101
00000000000000000000010100011011
00000000000000000000001010110010
00000000000000000000001101111010
00000000000000000000000101011110
00000000000000000000010000100100
00000000000000000000001100000100
00000000000000000000011011101011
00000000000000000000001010110111
11111111111111111111100110110000
11111111111111111111101100001010
11111111111111111111101001001100
11111111111111111111001010110101
11111111111111111110111111001110
11111111111111111101101000100100
11111111111111111101010111100001
11111111111111111101110100100000
11111111111111111110000111001110
11111111111111111101100001011010
11111111111111111110000110100100
11111111111111111110110001101001
11111111111111111111001001101111
11111111111111111111010001101001
11111111111111111111111011110011
11111111111111111111111101011010
11111111111111111111111100000100
11111111111111111111111000111010
00000000000000000000001000011010
00000000000000000000010011010100
00000000000000000000010101110010
00000000000000000000001101111010
00000000000000000000000101101001
00000000000000000000010000110010
11111111111111111111111101101101
00000000000000000000000011011110
00000000000000000000000111100011
00000000000000000000011100111101
11111111111111111111101100001100
11111111111111111111100101110011
11111111111111111111010110001000
11111111111111111111100110101000
11111111111111111110110010010011
11111111111111111110011110111011
11111111111111111110101011101000
11111111111111111111110010100010
11111111111111111110000110111101
11111111111111111101110011010000
11111111111111111110001010000011
11111111111111111110101010100010
11111111111111111111010010001010
11111111111111111111011101001111
11111111111111111111111110011100
00000000000000000000000010101000
00000000000000000000000010001101
11111111111111111111111000101010
11111111111111111111101100100010
00000000000000000000000001100001
00000000000000000000001101000000
00000000000000000000001100011101
00000000000000000000010001001100
00000000000000000000001001011101
00000000000000000000000010101011
00000000000000000000000000100101
00000000000000000000000100011001
00000000000000000000000000101000
00000000000000000000000001101101
00000000000000000000000011001010
11111111111111111111011001111010
11111111111111111110111111001111
11111111111111111110110010010110
11111111111111111111011100001110
11111111111111111110111111010000
11111111111111111111000000111101
11111111111111111101111010101000
11111111111111111101111100000011
11111111111111111110101111000010
11111111111111111110111010110101
11111111111111111111010101110111
11111111111111111111100001011100
00000000000000000000000001000111
00000000000000000000000111110011
11111111111111111111110110011100
11111111111111111111101001100111
11111111111111111111111010100101
00000000000000000000000010011100
00000000000000000000000010011001
00000000000000000000000011110011
00000000000000000000010000000011
00000000000000000000000000101010
00000000000000000000001101001001
00000000000000000000001011010111
00000000000000000000000000111101
00000000000000000000000101111000
00000000000000000000000101000001
11111111111111111111111111011000
11111111111111111111011111111111
11111111111111111110110001101001
11111111111111111110100100100000
11111111111111111110011001000011
11111111111111111111000111010001
11111111111111111111001110001000
11111111111111111111010001110110
11111111111111111111000110000111
11111111111111111111000010101111
11111111111111111110100110100000
11111111111111111110111100000110
11111111111111111111001101010010
11111111111111111111110110001000
00000000000000000000000001100001
11111111111111111111110111100100
11111111111111111111101011001101
00000000000000000000000000101010
00000000000000000000001100101111
00000000000000000000010001100011
00000000000000000000000100100010
00000000000000000000010001001100
00000000000000000000010001100011
00000000000000000000000110101001
00000000000000000000001110000100
00000000000000000000001000101110
11111111111111111111111011000100
00000000000000000000011010011111
00000000000000000000100101010000
11111111111111111111111110001000
11111111111111111110101001001111
11111111111111111110111101101111
11111111111111111110101010001101
11111111111111111110110100001011
11111111111111111111000001011110
11111111111111111111000111000100
11111111111111111110100111001111
11111111111111111110011111110010
11111111111111111110100111010000
11111111111111111111000110110101
11111111111111111110111010100111
11111111111111111111110110111111
00000000000000000000001101100001
00000000000000000000000111000011
00000000000000000000010010000011
00000000000000000000001011101101
00000000000000000000000110100001
00000000000000000000001011010110
00000000000000000000001010101110
00000000000000000000001101100111
00000000000000000000000001110010
00000000000000000000001100000010
00000000000000000000001100010100
11111111111111111111111111101101
00000000000000000000001110000010
00000000000000000000110101100000
00000000000000000000110100000111
00000000000000000000010110010101
00000000000000000000010011011111
00000000000000000000101111100111
00000000000000000000100010001111
00000000000000000000010110000110
11111111111111111111101000111001
11111111111111111110111010001100
11111111111111111111001001110011
11111111111111111111001111011101
11111111111111111110111000110101
11111111111111111111011110010110
11111111111111111111101101111011
00000000000000000000010110000000
00000000000000000000010111000100
00000000000000000000011000101011
00000000000000000000001111101111
00000000000000000000000110110101
00000000000000000000001100111101
00000000000000000000000101110010
00000000000000000000000110111111
00000000000000000000010001011010
00000000000000000000001011100011
00000000000000000000010000000110
00000000000000000000001100101100
00000000000000000000010000101010
00000000000000000000011000010100
00000000000000000000010100001110
00000000000000000000100010011100
00000000000000000000110001010000
00000000000000000000111010000100
00000000000000000000111101101010
00000000000000000000001110011001
11111111111111111111110110100010
11111111111111111111110100011011
11111111111111111111011101010000
11111111111111111111101000011100
11111111111111111111000010101110
11111111111111111111000011100001
11111111111111111111000110011000
11111111111111111111011001000111
11111111111111111111101000101011
00000000000000000000001101100010
00000000000000000000010111100101
00000000000000000000000011111111
00000000000000000000001110000000
00000000000000000000010010101010
00000000000000000000001001010101
00000000000000000000000101100000
00000000000000000000001111000000
00000000000000000000010000001101
00000000000000000000001101000011
00000000000000000000001110001001
00000000000000000000001001011100
00000000000000000000000111001110
00000000000000000000001001111111
00000000000000000000001010101101
00000000000000000000001001000110
00000000000000000000010000100100
11111111111111111111111111111001
00000000000000000000000110000101
11111111111111111111111101011111
11111111111111111111110110010011
11111111111111111111110110011110
11111111111111111111110000000110
11111111111111111111011111100100
11111111111111111111001011011000
11111111111111111111010111111000
11111111111111111111101111111011
00000000000000000000001010110011
00000000000000000000001101110001
00000000000000000000010100110001
00000000000000000000000100011111
00000000000000000000000110011111
00000000000000000000001010100100
00000000000000000000000011101000
00000000000000000000000010101010
00000000000000000000001010000110
00000000000000000000001101010001
00000000000000000000001000011101
00000000000000000000000110110101
00000000000000000000001011001100
00000000000000000000000011001111
00000000000000000000000011000000
00000000000000000000000010101011
00000000000000000000001110010010
00000000000000000000001100001100
00000000000000000000001000000101
00000000000000000000010100100000
00000000000000000000001010101010
00000000000000000000001001100000
00000000000000000000001101001010
00000000000000000000000000011000
11111111111111111111111110100111
00000000000000000000001010001100
00000000000000000000001010110110
00000000000000000000001000011111
00000000000000000000000011011101
00000000000000000000001101001000
00000000000000000000001011010101
00000000000000000000000011011100
00000000000000000000000001011111
00000000000000000000000110101001
00000000000000000000000010011001
00000000000000000000000110000111
00000000000000000000010001001000
