00000000000000000000010001011110
00000000000000000000001111100111
00000000000000000000001010001111
00000000000000000000000101011000
00000000000000000000000110111010
00000000000000000000001001100101
00000000000000000000001011101010
00000000000000000000000111000101
00000000000000000000001010010011
00000000000000000000000110001111
00000000000000000000001111111000
00000000000000000000001110010110
00000000000000000000001111001110
00000000000000000000001101100011
00000000000000000000001101101010
00000000000000000000010010000011
00000000000000000000000010011101
00000000000000000000000011110100
00000000000000000000001111011011
00000000000000000000000011011111
00000000000000000000000010011110
00000000000000000000010000100110
00000000000000000000000101110011
00000000000000000000000011001101
00000000000000000000001010000101
00000000000000000000000101110101
00000000000000000000000101010101
00000000000000000000000011010010
00000000000000000000001000001011
00000000000000000000001111011011
00000000000000000000010010010000
00000000000000000000000111010111
00000000000000000000001100110000
00000000000000000000001010010000
00000000000000000000001110011000
00000000000000000000000011011001
00000000000000000000000100101101
00000000000000000000000110001000
00000000000000000000000111010001
00000000000000000000001010111001
00000000000000000000001101101101
00000000000000000000000110110101
00000000000000000000001010000110
00000000000000000000001101110101
00000000000000000000000000011100
00000000000000000000000010101110
00000000000000000000001000011111
00000000000000000000000010110111
00000000000000000000001000100111
00000000000000000000000111111100
00000000000000000000000111001101
00000000000000000000001001101001
00000000000000000000000100010100
00000000000000000000001100100000
00000000000000000000001100110100
00000000000000000000001110011010
00000000000000000000000000000011
00000000000000000000010010001001
00000000000000000000010001101101
00000000000000000000001000010110
00000000000000000000001111011111
00000000000000000000010001101101
00000000000000000000010001011011
00000000000000000000001011011110
00000000000000000000001010100000
00000000000000000000001001110101
00000000000000000000001011101100
00000000000000000000000101101100
00000000000000000000001001101011
11111111111111111111111100100000
11111111111111111111111100101001
00000000000000000000000000110000
11111111111111111111111011001101
11111111111111111111111110000011
11111111111111111111110111010111
00000000000000000000000100101111
00000000000000000000001101111110
00000000000000000000001011111000
00000000000000000000001110111010
00000000000000000000000111000110
00000000000000000000010001011000
00000000000000000000010010000100
00000000000000000000001110010011
00000000000000000000000001111111
00000000000000000000001100010101
00000000000000000000001000110101
00000000000000000000010000011100
00000000000000000000001100101110
00000000000000000000001000100110
00000000000000000000010000101101
00000000000000000000000011101100
00000000000000000000000011001100
00000000000000000000001011011001
00000000000000000000001011000000
00000000000000000000000011100110
11111111111111111111111001001110
00000000000000000000000101110101
00000000000000000000001001110100
00000000000000000000010110011111
00000000000000000000011100010111
00000000000000000000011000110001
00000000000000000000000110100001
00000000000000000000000111100000
00000000000000000000000101100100
00000000000000000000010110000010
00000000000000000000001100110111
00000000000000000000010100110000
00000000000000000000011100111111
00000000000000000000010100011111
00000000000000000000000000100100
00000000000000000000000000100010
00000000000000000000001000011010
00000000000000000000000000001000
00000000000000000000001110101110
00000000000000000000001010011010
00000000000000000000001100100000
00000000000000000000000100111111
00000000000000000000000101001001
11111111111111111111111111100101
00000000000000000000000001011101
00000000000000000000000001101101
11111111111111111111111011000100
11111111111111111111101001111001
11111111111111111111100000100100
11111111111111111111011110100001
11111111111111111111100001100110
11111111111111111111011100101100
11111111111111111111100001101011
11111111111111111111000110011000
11111111111111111110110001010011
11111111111111111110110101110111
11111111111111111111010010010011
11111111111111111111110001010011
00000000000000000000000000001100
00000000000000000000011000001011
00000000000000000000010010110111
00000000000000000000000110110100
00000000000000000000000011100101
00000000000000000000000110110100
00000000000000000000000000101010
00000000000000000000000100111111
00000000000000000000000111001010
00000000000000000000001001000111
00000000000000000000000100110110
00000000000000000000000001100100
11111111111111111111110110100101
11111111111111111111111111011110
11111111111111111111111000100101
11111111111111111111101000101001
11111111111111111111010000101010
11111111111111111111000101110100
11111111111111111111000111010111
11111111111111111111000000000101
11111111111111111110110111011010
11111111111111111110011110000101
11111111111111111101111010110001
11111111111111111101100111010000
11111111111111111101101110000111
11111111111111111101101101000001
11111111111111111110101010100110
11111111111111111111000001000111
11111111111111111111100010111101
11111111111111111111100110001101
11111111111111111111101111001010
11111111111111111111100101101011
11111111111111111111111111101000
00000000000000000000000100100000
00000000000000000000001001101000
00000000000000000000001100101110
00000000000000000000001100010101
00000000000000000000001001100111
00000000000000000000010000011111
11111111111111111111111101011001
11111111111111111111110110110111
11111111111111111111110111101001
11111111111111111111101111011010
11111111111111111111011010000101
11111111111111111111100000000000
00000000000000000000000100101101
11111111111111111111110010100000
11111111111111111111101110111101
11111111111111111111001010010010
11111111111111111110100000000100
11111111111111111110100011100011
11111111111111111110011001101111
11111111111111111110011000101011
11111111111111111110101111000011
11111111111111111111000011000101
11111111111111111111001100110010
11111111111111111111001010100001
11111111111111111110111010100100
11111111111111111111000001111111
11111111111111111111011011011010
00000000000000000000000001111010
00000000000000000000001100111010
00000000000000000000001110011011
00000000000000000000000101001000
00000000000000000000000001001110
00000000000000000000000000011010
00000000000000000000001100011010
00000000000000000000001100010010
11111111111111111111111110010011
11111111111111111111101110001110
11111111111111111111011001111100
11111111111111111111010000011001
11111111111111111111010101001011
11111111111111111111011000001011
11111111111111111111011100011011
11111111111111111111001101011100
11111111111111111110110010101110
11111111111111111110101110111111
11111111111111111111000110100001
11111111111111111110110100111100
11111111111111111110100111010011
11111111111111111110111000001010
11111111111111111110101010001101
11111111111111111110101011001001
11111111111111111110110100100100
11111111111111111110110110110000
11111111111111111111010000010010
11111111111111111111100011001011
11111111111111111111101110100011
00000000000000000000000110010011
00000000000000000000000110101110
00000000000000000000010001100011
00000000000000000000000111111111
00000000000000000000001010010110
11111111111111111111110100010101
11111111111111111111110111100111
11111111111111111111100000111101
11111111111111111111010010001001
11111111111111111110111111010010
11111111111111111111010001011011
11111111111111111110110110011100
11111111111111111110101111110010
11111111111111111110111010001111
11111111111111111111011001001100
11111111111111111110110101100110
11111111111111111110101110100011
11111111111111111110101010011001
11111111111111111110110110111000
11111111111111111110100110010011
11111111111111111110011011101100
11111111111111111110001110101111
11111111111111111110001111011000
11111111111111111110110000100011
11111111111111111111000011101000
11111111111111111111101000111011
11111111111111111111101110111111
11111111111111111111101110011100
00000000000000000000000000100010
00000000000000000000001011000011
00000000000000000000000011010110
00000000000000000000000000001110
00000000000000000000001010010001
11111111111111111111101111111000
11111111111111111111110000100011
11111111111111111111100101110100
11111111111111111111010011010010
11111111111111111111001011011010
11111111111111111110100111010011
11111111111111111110010110000011
11111111111111111110100110001011
11111111111111111111000001011000
11111111111111111111001001111111
11111111111111111110110100101000
11111111111111111110011110010100
11111111111111111110001000000110
11111111111111111110101100101001
11111111111111111110110010101000
11111111111111111110100001101010
11111111111111111110000011111111
11111111111111111110001110010011
11111111111111111111000100011010
11111111111111111111010111100000
11111111111111111111101111101110
11111111111111111111110010101001
11111111111111111111110000100101
00000000000000000000000011001000
00000000000000000000000111001101
00000000000000000000000101111110
00000000000000000000001101110010
00000000000000000000001100011101
11111111111111111111111010010110
11111111111111111111101100100100
11111111111111111111101111110001
11111111111111111111100010110011
11111111111111111111001011010001
11111111111111111110100011110111
11111111111111111110001110111010
11111111111111111110101010101101
11111111111111111111011111110101
11111111111111111111010100001110
11111111111111111110100110100111
11111111111111111110010110110101
11111111111111111110011001100100
11111111111111111111011001001111
11111111111111111111000001011010
11111111111111111110011000001110
11111111111111111110001111010000
11111111111111111110100100011100
11111111111111111111001010010010
11111111111111111111110011011011
00000000000000000000000000101110
11111111111111111111110100101001
00000000000000000000000001101001
00000000000000000000000100101111
00000000000000000000001010001111
00000000000000000000000001011101
00000000000000000000001111011010
00000000000000000000001101000000
11111111111111111111111011000000
00000000000000000000001000111111
11111111111111111111111000001100
11111111111111111111100010001011
11111111111111111111011000010000
11111111111111111110111101000001
11111111111111111110110101101100
11111111111111111111001010100100
11111111111111111111110001000101
11111111111111111111100101101101
11111111111111111111000110011011
11111111111111111110100001100010
11111111111111111111001011011111
11111111111111111111001011001010
11111111111111111110111110101110
11111111111111111110101101010101
11111111111111111110011101011000
11111111111111111110101011001010
11111111111111111111001110000010
11111111111111111111110011101110
00000000000000000000000100110010
00000000000000000000001100111001
00000000000000000000000111100100
00000000000000000000000000000111
00000000000000000000001110001111
00000000000000000000001011101000
00000000000000000000001010001100
00000000000000000000000010010101
00000000000000000000000110000011
00000000000000000000010001001000
11111111111111111111111010100010
11111111111111111111101001100100
11111111111111111111100110101000
11111111111111111111001110101111
11111111111111111111010010011000
11111111111111111111000110111010
11111111111111111111011000101010
11111111111111111110111010100111
11111111111111111110011010001111
11111111111111111110101101000110
11111111111111111111001111011101
11111111111111111111000010010110
11111111111111111110111000100000
11111111111111111111000011010010
11111111111111111110111101000000
11111111111111111111010110111110
11111111111111111111011101111010
11111111111111111111111101101110
00000000000000000000010110101100
00000000000000000000010101110100
00000000000000000000001010001011
00000000000000000000001111100000
00000000000000000000001011010100
00000000000000000000000011101011
11111111111111111111111111111010
00000000000000000000000011100010
00000000000000000000001011011011
00000000000000000000001111001100
00000000000000000000001100000011
11111111111111111111110101110111
11111111111111111111010001101101
11111111111111111111100111111110
11111111111111111111000110001001
11111111111111111110111011101011
11111111111111111110111100101100
11111111111111111111000011101101
11111111111111111101110111101011
11111111111111111110011000010111
11111111111111111110100000010100
11111111111111111111000000100100
11111111111111111110111001011100
11111111111111111110100110010101
11111111111111111111011001000101
11111111111111111111011011111101
11111111111111111111100100011101
11111111111111111111110000000110
00000000000000000000010100011110
00000000000000000000010001110100
00000000000000000000001101010000
00000000000000000000001001011000
00000000000000000000000100011111
00000000000000000000001111001000
00000000000000000000000101110111
00000000000000000000001100011110
11111111111111111111111011110111
11111111111111111111111011111001
11111111111111111111111110000010
11111111111111111111101000111010
11111111111111111111000110011111
11111111111111111111001100000100
11111111111111111110111100111000
11111111111111111110110011011110
11111111111111111111001011010010
11111111111111111110101001011101
11111111111111111101110000100101
11111111111111111101101110000001
11111111111111111101111111001100
11111111111111111111010111001111
11111111111111111110110001110010
11111111111111111110101100101111
11111111111111111110111000011010
11111111111111111111001000100111
11111111111111111111100110010110
11111111111111111111101010101110
00000000000000000000000001110101
00000000000000000000010001000001
00000000000000000000001001000011
00000000000000000000000111001101
00000000000000000000001110011100
00000000000000000000001101111110
00000000000000000000001111110101
00000000000000000000010001111000
00000000000000000000001000000111
11111111111111111111110110111101
00000000000000000000001000011100
11111111111111111111010111110110
11111111111111111110110101011000
11111111111111111111001110011000
11111111111111111111010000100100
11111111111111111111100111000101
11111111111111111111010001101001
11111111111111111110001001001111
11111111111111111101000111110001
11111111111111111101010000001111
11111111111111111101100101001011
11111111111111111111011000101101
11111111111111111110101111011010
11111111111111111111000010101101
11111111111111111110111000010100
11111111111111111111000011110011
11111111111111111111100000111111
11111111111111111111011001011010
11111111111111111111100111100110
00000000000000000000001101100010
00000000000000000000001111100000
00000000000000000000001110000101
00000000000000000000000000010100
00000000000000000000010000001100
00000000000000000000000011010100
00000000000000000000010001010110
00000000000000000000010000110110
00000000000000000000001110001101
11111111111111111111111011001001
11111111111111111111001001110010
11111111111111111110110111110100
11111111111111111110101111101011
11111111111111111111001010001101
11111111111111111111011001011001
11111111111111111110110101010011
11111111111111111110000011000010
11111111111111111101000000111110
11111111111111111100111101001000
11111111111111111101111001001011
11111111111111111110110011101111
11111111111111111110011001110110
11111111111111111110101111000011
11111111111111111111000100101001
11111111111111111110111100011111
11111111111111111110110001010111
11111111111111111111001101111011
11111111111111111111110000001101
00000000000000000000001110011010
00000000000000000000010011010100
00000000000000000000000011010010
00000000000000000000000001111011
00000000000000000000000111011000
00000000000000000000001111011010
00000000000000000000000101101101
00000000000000000000001110101001
00000000000000000000010010001010
11111111111111111111110001000101
11111111111111111111000110101001
11111111111111111111000001011011
11111111111111111111001101011001
11111111111111111110110110011011
11111111111111111110110001100000
11111111111111111110011010111001
11111111111111111101111100011101
11111111111111111101011110100001
11111111111111111101101100100000
11111111111111111110101010110101
11111111111111111110010001011110
11111111111111111110100010111001
11111111111111111110111100011100
11111111111111111111010011001000
11111111111111111111010011111111
11111111111111111111000000111000
11111111111111111111100111110001
11111111111111111111111101001011
00000000000000000000010010101101
00000000000000000000000010000010
00000000000000000000001111010111
00000000000000000000000111111000
00000000000000000000000100011110
00000000000000000000010001101111
00000000000000000000001001101011
00000000000000000000010001010011
00000000000000000000010011010001
11111111111111111111101010111101
11111111111111111111010000111110
11111111111111111111001001011010
11111111111111111111011110000000
11111111111111111111011100111001
11111111111111111111000010100101
11111111111111111110110101010011
11111111111111111110101101000010
11111111111111111110010011001101
11111111111111111110100000000011
11111111111111111110100101101101
11111111111111111110011100011010
11111111111111111110100100011100
11111111111111111110110010110010
11111111111111111111010001011100
11111111111111111111000110110000
11111111111111111111000001001011
11111111111111111111101101001100
11111111111111111111110110000011
11111111111111111111111011100001
11111111111111111111111111101110
00000000000000000000000000000110
00000000000000000000000101000101
00000000000000000000010010000101
00000000000000000000010001001010
00000000000000000000001101100011
00000000000000000000000110100000
00000000000000000000001101111110
11111111111111111111100110000011
11111111111111111111100000110111
11111111111111111111010101111100
11111111111111111111100010010000
11111111111111111111011011001001
11111111111111111111000011000001
11111111111111111110110010101110
11111111111111111111001011100101
11111111111111111110110000001010
11111111111111111110010000101011
11111111111111111110000000101010
11111111111111111101111110010011
11111111111111111110100100001010
11111111111111111110011111001011
11111111111111111110101111001100
11111111111111111111001110100010
11111111111111111111001110011110
11111111111111111111111011001000
11111111111111111111100011001001
11111111111111111111101001010101
11111111111111111111111111000110
00000000000000000000000001100111
00000000000000000000010000101101
00000000000000000000000101111100
00000000000000000000000100110000
00000000000000000000000010101011
00000000000000000000000001100101
11111111111111111111110110101111
11111111111111111111101011010101
11111111111111111111010010010110
11111111111111111110110111010000
11111111111111111110111111100101
11111111111111111111001001011100
11111111111111111110111110101001
11111111111111111111010111111110
11111111111111111111000001110100
11111111111111111110011110101111
11111111111111111110000100000010
11111111111111111110000001011011
11111111111111111110000100010010
11111111111111111110100001000000
11111111111111111110110110110010
11111111111111111111001011000010
11111111111111111111010000011001
11111111111111111111100000001101
11111111111111111111110111011001
11111111111111111111100000011100
11111111111111111111101110111101
00000000000000000000000010111100
11111111111111111111111101011101
00000000000000000000000100000111
00000000000000000000001001110111
00000000000000000000000100100010
00000000000000000000000001000000
00000000000000000000001101001010
11111111111111111111110000100011
11111111111111111111100111000011
11111111111111111111011001101110
11111111111111111111010110101111
11111111111111111110111001001100
11111111111111111111000001100001
11111111111111111111010000010010
11111111111111111111010011110110
11111111111111111111000011010101
11111111111111111110011101110101
11111111111111111110000110111010
11111111111111111101111101000110
11111111111111111110100010010100
11111111111111111111000010000001
11111111111111111111010101010011
11111111111111111111010101011111
11111111111111111111101011111000
11111111111111111111101001101010
11111111111111111111101001100100
11111111111111111111101101001000
11111111111111111111101101111100
00000000000000000000000010000110
00000000000000000000001101001101
00000000000000000000010001010110
00000000000000000000000110101111
00000000000000000000001111000111
00000000000000000000000010110011
00000000000000000000001100111111
11111111111111111111101110111000
11111111111111111111101100101110
11111111111111111111101111000001
11111111111111111111010100010010
11111111111111111110101110100010
11111111111111111110101010100100
11111111111111111110101101001010
11111111111111111111010111011011
11111111111111111110111001110111
11111111111111111110001110100000
11111111111111111110010100100111
11111111111111111110100000111101
11111111111111111111000100001111
11111111111111111111010000100000
11111111111111111111100010000111
11111111111111111111111000110001
11111111111111111111111110011011
11111111111111111111110010000100
11111111111111111111110111010010
11111111111111111111101011111000
11111111111111111111110100100111
00000000000000000000000111001011
00000000000000000000010001000001
00000000000000000000001000111011
00000000000000000000000011011111
00000000000000000000001101001101
00000000000000000000001010001101
00000000000000000000001100000000
00000000000000000000000011001100
00000000000000000000000010110100
11111111111111111111111100000111
11111111111111111111101001011001
11111111111111111111001110101010
11111111111111111110100100010101
11111111111111111110000011110101
11111111111111111110001001010100
11111111111111111101101000010010
11111111111111111101111100011111
11111111111111111110001111100101
11111111111111111110110000001111
11111111111111111110110110101010
11111111111111111111101010110111
00000000000000000000000010110101
00000000000000000000001100111011
00000000000000000000000100001110
00000000000000000000000011010111
11111111111111111111110100111010
00000000000000000000000001100101
11111111111111111111111111110011
00000000000000000000000110101111
00000000000000000000001110110111
00000000000000000000001010001010
00000000000000000000000001000011
00000000000000000000001101100111
00000000000000000000000011110101
00000000000000000000000111110101
00000000000000000000001011001110
00000000000000000000001110011000
00000000000000000000011010111101
00000000000000000000011010110110
00000000000000000000001000110010
00000000000000000000000110110110
00000000000000000000000000101011
11111111111111111111001100000111
11111111111111111110111110011110
11111111111111111111100001111000
11111111111111111111011110101000
11111111111111111111011110100101
11111111111111111111110010101100
00000000000000000000000011111001
00000000000000000000001111010111
00000000000000000000000101111001
00000000000000000000000100101011
00000000000000000000001000100100
11111111111111111111111100011101
00000000000000000000000000001010
00000000000000000000000001100100
00000000000000000000001010110011
00000000000000000000001101110000
00000000000000000000001010000110
00000000000000000000000000101101
00000000000000000000001010001111
00000000000000000000000010001110
00000000000000000000000011000001
00000000000000000000001010100000
00000000000000000000001000110010
00000000000000000000001111010000
00000000000000000000100100011011
00000000000000000000100011001000
00000000000000000000011101011110
00000000000000000000100010101010
00000000000000000000000001100010
11111111111111111111111001100010
00000000000000000000000111011011
00000000000000000000001110011001
00000000000000000000001000110110
11111111111111111111111000011000
11111111111111111111111111110111
00000000000000000000011000000000
00000000000000000000000111101000
00000000000000000000010000010011
00000000000000000000001101000101
00000000000000000000001011001001
00000000000000000000001001111011
00000000000000000000001011010110
00000000000000000000001100011101
00000000000000000000001111110111
00000000000000000000010001001110
00000000000000000000000101011011
00000000000000000000001011011010
00000000000000000000001001000010
00000000000000000000000110001110
00000000000000000000000001111110
00000000000000000000000111110000
00000000000000000000000111011000
00000000000000000000001000010110
00000000000000000000000110010101
00000000000000000000000000000001
11111111111111111111100111110011
11111111111111111111100000000100
11111111111111111111100110001010
11111111111111111111101000111000
11111111111111111111101011100010
11111111111111111111100111011000
11111111111111111111100111011010
11111111111111111111111100110100
00000000000000000000001001001010
00000000000000000000001101011011
11111111111111111111111111110101
00000000000000000000000001100000
00000000000000000000000001010011
00000000000000000000000000100000
00000000000000000000000111001100
00000000000000000000001001111010
00000000000000000000001110000010
00000000000000000000000001101010
00000000000000000000000100000011
00000000000000000000001011101001
00000000000000000000000000100110
00000000000000000000001001011110
00000000000000000000000100101011
00000000000000000000001001100000
00000000000000000000001111111100
00000000000000000000001001001010
00000000000000000000000010011110
00000000000000000000000001111010
00000000000000000000001001100110
00000000000000000000001001110111
11111111111111111111111011001110
11111111111111111111111000101101
11111111111111111111111100111100
00000000000000000000000111001000
11111111111111111111111011000100
00000000000000000000000000110011
00000000000000000000000110001110
00000000000000000000001100110001
00000000000000000000000011011001
00000000000000000000001101010010
00000000000000000000001111001010
00000000000000000000001011001001
00000000000000000000001101110000
00000000000000000000001110000111
00000000000000000000001011101010
00000000000000000000000010101100
