00000000000000000000000011010111
00000000000000000000000100000001
00000000000000000000000001111000
00000000000000000000010001101001
00000000000000000000001001010110
00000000000000000000001111000001
00000000000000000000000110110010
00000000000000000000000000100010
00000000000000000000000010111001
00000000000000000000001101111111
00000000000000000000001111010100
00000000000000000000000110101001
00000000000000000000010001100000
00000000000000000000000110011010
00000000000000000000001010001000
00000000000000000000001001101110
00000000000000000000000100000111
00000000000000000000000101100010
00000000000000000000000001110011
00000000000000000000001101010010
00000000000000000000000101001100
00000000000000000000000110010100
00000000000000000000000101000101
00000000000000000000001100000000
00000000000000000000000010011001
00000000000000000000000101111011
00000000000000000000000110010110
00000000000000000000001010011000
00000000000000000000000010111010
00000000000000000000000110101111
00000000000000000000000100011111
00000000000000000000000110010001
00000000000000000000001010101111
00000000000000000000000110100101
00000000000000000000001101101110
00000000000000000000001110000010
00000000000000000000001000101100
00000000000000000000000101101111
11111111111111111111111011101000
00000000000000000000000000001110
11111111111111111111111010010000
00000000000000000000000101010110
11111111111111111111110011110101
11111111111111111111100100110111
00000000000000000000001100101110
00000000000000000000001111001101
00000000000000000000010001100010
00000000000000000000001001110100
00000000000000000000000101011111
11111111111111111111110101011000
00000000000000000000000101010101
00000000000000000000001111100111
00000000000000000000000111001011
00000000000000000000001010011110
00000000000000000000001001010111
00000000000000000000001001100100
00000000000000000000010000011010
00000000000000000000001111101101
00000000000000000000000001101010
00000000000000000000000000111010
00000000000000000000000110110000
00000000000000000000001000101110
00000000000000000000011101110111
00000000000000000000100010101100
00000000000000000000101000001101
00000000000000000001000011001111
00000000000000000000111110010001
11111111111111111111110110101001
11111111111111111111010010111001
11111111111111111110100000100101
11111111111111111110011111000110
11111111111111111110010011001101
11111111111111111111111001111100
00000000000000000000100001110101
00000000000000000000001011011010
11111111111111111110101011001001
11111111111111111111001010010011
11111111111111111111011100110101
11111111111111111111100001001101
11111111111111111111101100100101
11111111111111111111111101101101
00000000000000000000000100111110
00000000000000000000001010100001
00000000000000000000001011100010
00000000000000000000001110011111
00000000000000000000000001100101
00000000000000000000000010110011
00000000000000000000001100100111
00000000000000000000100000110101
00000000000000000000110011011111
00000000000000000001010101110100
00000000000000000001011100001110
00000000000000000011100001011001
00000000000000000100111010100110
00000000000000000101000111001111
00000000000000000000100110011001
11111111111111111111101010011110
11111111111111111111110111101011
11111111111111111111111000101111
11111111111111111110111100101001
00000000000000000000010001110001
11111111111111111111111110101110
11111111111111111110101111001000
11111111111111111111010100010111
11111111111111111110101001100111
11111111111111111111010010100000
11111111111111111111110000110000
00000000000000000000000100101001
00000000000000000000010100111001
00000000000000000000000100011101
00000000000000000000000010010101
00000000000000000000001101101010
00000000000000000000001000100101
00000000000000000000001011101010
00000000000000000000000111110010
00000000000000000000000001111111
00000000000000000000010101110111
00000000000000000001000011101100
00000000000000000001011000110010
00000000000000000010010111011011
00000000000000000100101111001011
00000000000000000101100101010101
00000000000000000101101101110101
00000000000000000000001001001100
00000000000000000001000111011010
00000000000000000001111000000000
00000000000000000010010001001100
11111111111111111111101100011101
11111111111111111111110000101011
11111111111111111110101001101111
11111111111111111110101111110000
00000000000000000000100101010001
00000000000000000001100011000010
11111111111111111111000101110010
11111111111111111111011100111101
00000000000000000000001100110100
00000000000000000000001111011010
00000000000000000000011011001000
00000000000000000000001001011100
00000000000000000000001111011110
00000000000000000000000100011000
00000000000000000000001100010000
00000000000000000000001010111111
00000000000000000000010100101000
00000000000000000001010100111001
00000000000000000000100100000000
00000000000000000000101000000000
00000000000000000011011111010101
00000000000000000111111110001111
00000000000000000101101100101010
00000000000000000100000100001011
11111111111111111111110101111110
11111111111111111100111010001101
11111111111111111011110001011010
11111111111111111100101101000111
11111111111111111100101111101100
11111111111111111110100011011110
11111111111111111111000110111010
11111111111111111110101001010100
11111111111111111101000011000110
11111111111111111110110001100111
11111111111111111110010011110010
11111111111111111101110101101010
11111111111111111110001001011011
11111111111111111110101110000001
11111111111111111111100101101011
11111111111111111111111100001100
00000000000000000000001000001101
00000000000000000000001000110001
00000000000000000000010001110000
11111111111111111111101110001011
00000000000000000000011001011011
00000000000000000001010011011101
00000000000000000000011011001010
00000000000000000010010111100010
00000000000000000110010010100001
00000000000000000101101111110010
00000000000000000011010011010101
11111111111111111111100111011101
11111111111111111110011011000001
11111111111111111011010110010000
11111111111111111000010010100100
11111111111111111000010111100000
11111111111111111000111110011111
11111111111111110110110101101110
11111111111111111000110100100101
11111111111111110110110011011000
11111111111111110111011111101101
11111111111111111010000100000111
11111111111111111100010010110011
11111111111111111010110001100110
11111111111111111001001110011111
11111111111111111100000100011101
11111111111111111110111111100110
11111111111111111111111101000100
00000000000000000000001101001110
00000000000000000000000001001001
11111111111111111111111111111000
11111111111111111111110101110000
00000000000000000000011000101100
00000000000000000001101011101000
00000000000000000010011111000110
00000000000000000011010000110111
00000000000000000010110001011001
00000000000000000010011110101010
11111111111111111111001011011001
11111111111111111101010110000000
11111111111111111101101110010110
11111111111111111001100010001011
11111111111111111001101000001001
11111111111111110101101010100111
11111111111111110101100001110111
11111111111111110011111011101001
11111111111111110001010101011100
11111111111111110100000000000101
11111111111111110100100010010111
11111111111111111010000000110000
11111111111111111110001000101100
11111111111111111011111100001010
11111111111111111000110111110101
11111111111111111100000101110011
11111111111111111110010010001011
11111111111111111111101101010110
11111111111111111111111111011001
00000000000000000000000111101000
00000000000000000000000001111101
00000000000000000000000010001111
11111111111111111111110010101010
00000000000000000001101001010101
00000000000000000010001011000100
00000000000000000010000100000111
11111111111111111111101111100101
00000000000000000000111001011010
11111111111111111110011101100001
11111111111111111011101011000011
11111111111111111000110011110001
11111111111111110110110101110011
11111111111111111000001001101100
11111111111111110101101000111010
11111111111111110101110010010010
11111111111111110111001000100110
11111111111111110101011101110000
11111111111111111001000000001001
11111111111111111010100001101110
11111111111111111110001101100000
11111111111111111100110000010100
11111111111111111101101101110100
11111111111111111110001100000011
11111111111111111100011010101100
11111111111111111101110111001011
11111111111111111111101111101001
00000000000000000000010000111111
00000000000000000000001011000111
00000000000000000000001111000101
11111111111111111111110010101000
11111111111111111111010100000100
00000000000000000000101110111101
00000000000000000001111111001110
00000000000000000001100000110010
00000000000000000000110011000100
00000000000000000001101101011011
11111111111111111110010110001101
11111111111111110111101111101100
11111111111111111000111100100001
11111111111111110111001010010010
11111111111111111000000001011000
11111111111111110110010101110000
11111111111111111000010100001001
11111111111111111011111000101001
11111111111111111111011111110001
00000000000000000100010101000101
00000000000000000001011101101101
11111111111111111101001101111110
11111111111111111010111000000111
11111111111111111110110001110111
00000000000000000001011000100000
11111111111111111110011001111000
11111111111111111110000010000011
11111111111111111111101110001001
00000000000000000000001011000001
00000000000000000000000001111010
00000000000000000000000010010100
00000000000000000000001000000010
11111111111111111111111110110110
00000000000000000000111101010000
00000000000000000010110100000001
00000000000000000011111001100000
00000000000000000010100010011011
00000000000000000001101000011101
11111111111111111011001111101100
11111111111111111000001010000110
11111111111111111000011111110101
11111111111111111001000111000101
11111111111111111100110100000101
11111111111111111101101010101000
00000000000000000000100000000101
00000000000000000001001000000111
00000000000000000010110101000100
00000000000000000010000010001000
11111111111111111101001001111101
11111111111111111010001001110100
11111111111111111011001011000110
11111111111111111110001111111101
00000000000000000000001001110000
00000000000000000000101001000001
11111111111111111110011001000010
11111111111111111111011101000111
11111111111111111111110110100111
00000000000000000000000011110010
00000000000000000000001111011110
00000000000000000000000101100011
11111111111111111111111101001101
00000000000000000010000101010110
00000000000000000001101000101011
00000000000000000000001000000110
00000000000000000010100110101001
00000000000000000001010100111010
11111111111111111100001011101011
11111111111111111001000111001000
11111111111111110110011100001011
11111111111111110110011011001111
11111111111111111010110001101111
11111111111111111110010110011001
00000000000000000010101001100101
00000000000000000011010011110111
00000000000000000000010101100000
11111111111111111110100010001010
11111111111111111011101110000100
11111111111111111000111100001001
11111111111111111010100010101111
11111111111111111110000101010111
00000000000000000001110101101100
00000000000000000010100101111001
00000000000000000000100100011000
00000000000000000000000000010100
00000000000000000000001010010010
00000000000000000000001010100000
00000000000000000000010010110000
00000000000000000000010110111010
00000000000000000000100101100011
00000000000000000010111010011100
00000000000000000000011100001011
00000000000000000000101111111111
00000000000000000010111000011001
00000000000000000010001011011101
11111111111111111011000111100011
11111111111111111001011001011111
11111111111111110111011011011110
11111111111111111010100110000101
11111111111111111101001010100111
11111111111111111110111110101001
11111111111111111111110101110101
00000000000000000000100111001101
00000000000000000000001100010100
11111111111111111100000100010001
11111111111111111011001011011011
11111111111111111011101100010011
11111111111111111101101110010000
00000000000000000001000100110000
00000000000000000101101110100011
00000000000000000101011100011010
00000000000000000001110101011010
00000000000000000000011011000010
00000000000000000000001000100011
00000000000000000000001011010011
00000000000000000000000011111110
00000000000000000000010001111010
00000000000000000000011001110010
00000000000000000010101001011010
00000000000000000001011000010010
00000000000000000010011001001101
00000000000000000000111111111010
11111111111111111110001111110110
11111111111111110111111111010010
11111111111111111001111111101110
11111111111111111101000001000100
00000000000000000001001100101000
00000000000000000100111010111011
11111111111111111110001000010001
11111111111111111001000101111011
11111111111111111101000100000100
11111111111111111100101010001001
11111111111111111010110010001101
11111111111111111110101010110110
00000000000000000000000101100010
00000000000000000000001001000100
00000000000000000010100010111100
00000000000000001000100011111100
00000000000000000101000101000101
00000000000000000001111101110110
00000000000000000001100110000110
00000000000000000000010110100111
00000000000000000000000000111000
11111111111111111111111111110011
00000000000000000000000111010110
00000000000000000000000110110100
00000000000000000000000101110101
00000000000000000000110100100111
00000000000000000001011001010111
11111111111111111111111110010110
11111111111111111101010010110101
11111111111111111010010011111100
11111111111111111100000101101001
11111111111111111110101010111110
00000000000000000001111111100110
00000000000000000010011101011011
11111111111111111101000001000011
11111111111111111001010010100010
11111111111111111100101011110010
11111111111111111010111100000011
11111111111111111101101010101101
11111111111111111110000101110000
11111111111111111101010111011010
11111111111111111110110111110001
00000000000000000110001000000101
00000000000000000111111000100011
00000000000000000010111000000000
00000000000000000010001101111010
00000000000000000001000001110101
00000000000000000000001011111000
00000000000000000000001001001110
11111111111111111111110011110101
00000000000000000000000100011001
00000000000000000000001111110101
11111111111111111111100101111110
00000000000000000010101010110100
11111111111111111111000100001011
00000000000000000000101100100110
11111111111111111111001011111010
11111111111111111100010111010000
11111111111111111011001001101011
11111111111111111100110111011000
00000000000000000000000101010110
00000000000000000000100000000100
11111111111111111111011010001101
11111111111111111011111001011010
11111111111111111111000110001110
11111111111111111100011111110001
11111111111111111010101100000101
11111111111111111101011111111011
11111111111111111111001011100100
00000000000000000001001111111111
00000000000000000100110000100110
00000000000000000010010000111011
00000000000000000000101111111111
00000000000000000011011011000111
00000000000000000001011011000001
00000000000000000000011110100011
00000000000000000000001110010001
00000000000000000000000111001101
11111111111111111111101010011100
00000000000000000000011110111011
00000000000000000000011000100100
00000000000000000100000111000001
00000000000000000010011110001100
11111111111111111111111101010001
00000000000000000000101011110100
11111111111111111110100101110000
11111111111111111101000111011101
11111111111111111010010011001000
11111111111111111111010101011100
00000000000000000000000101101111
11111111111111111100111001101111
00000000000000000000000100110101
00000000000000000000101001100011
11111111111111111110101011011100
11111111111111111010111000000101
11111111111111111111000111111110
00000000000000000001010001000001
00000000000000000010011001101100
00000000000000000100011011110101
00000000000000000010101010101010
00000000000000000001110011000101
00000000000000000011110010110110
00000000000000000010011011111111
00000000000000000000100011110111
00000000000000000000001101100101
00000000000000000000001000001011
11111111111111111111100000110010
00000000000000000000100110100110
00000000000000000001000100111111
00000000000000000011100011110101
00000000000000000011000000001011
11111111111111111110010100110101
00000000000000000010010011100010
00000000000000000000101001011001
11111111111111111101011101100110
11111111111111111010011001101001
11111111111111111110101001000010
11111111111111111111110100011010
11111111111111111101101100100101
11111111111111111110111010100001
11111111111111111111000101011000
11111111111111111101111011010111
11111111111111111100100101110001
11111111111111111111100100100101
00000000000000000011000110100010
00000000000000000010111100100110
00000000000000000101110100000001
00000000000000000011110110010110
00000000000000000011010111111110
00000000000000000011110001101111
00000000000000000000111100101111
00000000000000000000000110011111
00000000000000000000001011110000
00000000000000000000001111001011
11111111111111111111011110000100
00000000000000000000001000010101
00000000000000000010000101101100
00000000000000000010100101000100
00000000000000000001111111011100
00000000000000000000101100010000
00000000000000000000100001001000
00000000000000000010110000000011
00000000000000000001110100001001
00000000000000000001010110011000
00000000000000000011111011010101
00000000000000000100010110100111
00000000000000000010000011101100
00000000000000000000111101101110
11111111111111111111010100011000
11111111111111111011101001001110
11111111111111111011100011110010
11111111111111111110010110010100
11111111111111111111100110001011
00000000000000000000010001111110
00000000000000000010011111111011
00000000000000000011010110101001
00000000000000000100000110100000
00000000000000000010001010001011
00000000000000000000011100100100
00000000000000000000001101001001
00000000000000000000001000000011
00000000000000000000000011001101
11111111111111111111101010011011
11111111111111111111111011001100
00000000000000000001111101101000
00000000000000000000101000111111
00000000000000000010100001111111
00000000000000000001111001001110
00000000000000000001101101000010
11111111111111111111111101001011
11111111111111111111111111101100
00000000000000000001110110111000
00000000000000000101010101111100
00000000000000000100001000001100
00000000000000000010100110011011
11111111111111111111101111101011
11111111111111111111001101101101
11111111111111111100011100110001
11111111111111111011011101111010
11111111111111111101110000010001
11111111111111111111110101110000
11111111111111111111001011010000
00000000000000000010000010010110
00000000000000000011011100010101
00000000000000000011011111100101
00000000000000000001011111000010
00000000000000000000010010101100
00000000000000000000000100011111
00000000000000000000001011101101
11111111111111111111111010101011
11111111111111111111101101110011
00000000000000000000001100011011
00000000000000000001000101101001
00000000000000000010001101101010
11111111111111111111110000111001
00000000000000000010100001101000
00000000000000000001110010010000
00000000000000000000000111111001
11111111111111111111001011111000
11111111111111111110010100101010
00000000000000000010100001110101
00000000000000000101101111110101
00000000000000000011100011000001
11111111111111111111111000000000
11111111111111111010110111001000
11111111111111111010011110110011
11111111111111111111001001001010
00000000000000000000001010101100
11111111111111111110101010111011
11111111111111111110110111010101
00000000000000000001001011010010
00000000000000000011100100001110
00000000000000000010110010001110
00000000000000000001000110111000
00000000000000000000001101001101
00000000000000000000001111110100
00000000000000000000000011111100
00000000000000000000000101100101
00000000000000000000000110001100
00000000000000000000010000000010
00000000000000000000011000101010
00000000000000000000101100101010
00000000000000000000001000010001
11111111111111111101111000011001
11111111111111111100110001011011
00000000000000000000001100011010
11111111111111111111001010011001
11111111111111111110011111010111
00000000000000000001110001000001
00000000000000000001111010000001
11111111111111111110010101001001
11111111111111111001111010010010
11111111111111111100100000011111
11111111111111111101100110011001
11111111111111111111001001000110
11111111111111111111110000010010
11111111111111111110010000111101
11111111111111111111100011010001
00000000000000000010101110100110
00000000000000000011001101100010
00000000000000000010001010111111
00000000000000000000111000000111
00000000000000000000001100110110
00000000000000000000001000111011
00000000000000000000000110111001
00000000000000000000000010110000
00000000000000000000001110110011
00000000000000000000001110110110
00000000000000000001011111111001
00000000000000000001010001000100
00000000000000000000010111010001
11111111111111111110010101010111
11111111111111111011010100111000
11111111111111111100010110101010
11111111111111111111010001111000
11111111111111111101000010110011
11111111111111111011000110010101
11111111111111111001001001101011
11111111111111111000010110101011
11111111111111110111101011110100
11111111111111111100100000101100
11111111111111111110000100110001
11111111111111111111110101110000
00000000000000000001111110110111
00000000000000000001010111010111
00000000000000000010101000111001
00000000000000000001110011011001
00000000000000000001001110101101
00000000000000000000100110101101
00000000000000000000100000001110
00000000000000000000000010111011
00000000000000000000000010011100
00000000000000000000000000101101
00000000000000000000001011100110
00000000000000000000001010011110
11111111111111111111111111000010
00000000000000000000110010010100
11111111111111111111101100000101
11111111111111111101111111001011
11111111111111111100101101011001
11111111111111111101100010010100
11111111111111111100000111110111
11111111111111111010000010000101
11111111111111111000100011010001
11111111111111110101001011110100
11111111111111110101011010000001
11111111111111110111101100000001
11111111111111111010001111111011
11111111111111111010110011101110
11111111111111111011101001100001
00000000000000000000110011001111
00000000000000000011000110101110
00000000000000000011100010101101
00000000000000000011101001011001
00000000000000000010010011011001
00000000000000000000111111110000
00000000000000000000001001100011
00000000000000000000000100110101
00000000000000000000000010100100
00000000000000000000000111100101
00000000000000000000001000110010
00000000000000000000000100001101
00000000000000000000001001000100
11111111111111111111111110101110
11111111111111111111101010011101
11111111111111111110000111000011
11111111111111111100001110111110
11111111111111111100001011110101
11111111111111111100011101000011
11111111111111111100000000101000
11111111111111111001111110010001
11111111111111110111000110000001
11111111111111111000100111111100
11111111111111111011000101010001
11111111111111111100011010000010
11111111111111111100100100000000
11111111111111111110010010101000
11111111111111111111001101001000
11111111111111111111111101111000
00000000000000000001111101101100
00000000000000000010001010101100
00000000000000000010110011000011
00000000000000000001100101001010
00000000000000000000000100100101
00000000000000000000011100100010
00000000000000000000001010011110
00000000000000000000001101110111
00000000000000000000000111110101
00000000000000000000001010111111
00000000000000000000001111110000
00000000000000000000001111011011
00000000000000000000000000110000
11111111111111111111100101011101
11111111111111111111001010001000
11111111111111111110100100101100
11111111111111111101101000101010
11111111111111111101100101100010
11111111111111111100110010001111
11111111111111111101001110010101
11111111111111111100000101011101
11111111111111111100011101111011
11111111111111111101011001001100
11111111111111111101111010001010
11111111111111111111011100110111
00000000000000000000001111110010
11111111111111111110110000101010
11111111111111111110000001110101
11111111111111111111001111101011
11111111111111111111101010000011
00000000000000000000000111101101
11111111111111111111110100000001
11111111111111111111110101100011
00000000000000000000010010000111
00000000000000000000010000010101
00000000000000000000000011010000
00000000000000000000001011010100
00000000000000000000000110000110
00000000000000000000010000101010
00000000000000000000000000111000
00000000000000000000010001000110
00000000000000000000001011100010
00000000000000000000000000000101
11111111111111111111011111011101
11111111111111111111110110111011
00000000000000000000010011011000
00000000000000000000000101110111
11111111111111111111111101001111
11111111111111111111000010010011
11111111111111111110111011001011
11111111111111111111101011011101
00000000000000000000001100010000
11111111111111111111100000111110
11111111111111111111011110100111
11111111111111111110111110101010
11111111111111111111011101100101
00000000000000000000010000011001
00000000000000000000010001101011
00000000000000000000001111001100
11111111111111111111111111000010
00000000000000000000000010101000
00000000000000000000000110011000
00000000000000000000001101110111
00000000000000000000000111100010
00000000000000000000000011010001
00000000000000000000001011101011
00000000000000000000001010100011
00000000000000000000001110100101
00000000000000000000010001110010
00000000000000000000000110101010
00000000000000000000001001111010
00000000000000000000001100101101
00000000000000000000000111010000
00000000000000000000010000100011
00000000000000000000011011010001
00000000000000000000000100110010
11111111111111111111111001010010
00000000000000000000000100110001
00000000000000000000010000010100
00000000000000000000000111111101
00000000000000000000000010110001
11111111111111111111111101011011
00000000000000000000000000101011
00000000000000000000000011101001
00000000000000000000000011110000
00000000000000000000000110110110
00000000000000000000001111000101
00000000000000000000000001101000
00000000000000000000000111101010
00000000000000000000001000101000
00000000000000000000000001101000
00000000000000000000001100111110
00000000000000000000001110101110
