00000000000000000000001000100111
00000000000000000000001111010011
00000000000000000000000011011000
00000000000000000000000110001010
00000000000000000000000011001101
00000000000000000000000010101101
00000000000000000000001011010010
00000000000000000000000100011101
00000000000000000000000010011001
00000000000000000000001110110010
00000000000000000000010000001101
00000000000000000000001001110100
00000000000000000000001101100110
00000000000000000000000101001000
00000000000000000000000101101000
00000000000000000000000000011010
00000000000000000000000011111100
00000000000000000000000111110010
00000000000000000000000101111001
00000000000000000000001100000101
00000000000000000000000010101110
00000000000000000000000110111001
00000000000000000000000001001010
00000000000000000000010001100000
00000000000000000000000010001001
00000000000000000000000001110110
00000000000000000000000001010011
00000000000000000000001010110010
00000000000000000000010000011101
00000000000000000000000100001000
00000000000000000000001101011001
00000000000000000000000110110010
00000000000000000000000001001000
00000000000000000000010000110001
00000000000000000000001101010110
00000000000000000000000100101110
00000000000000000000000100001010
00000000000000000000000110001101
00000000000000000000000111010110
00000000000000000000000001100010
00000000000000000000000011001010
00000000000000000000000111001010
00000000000000000000010000101100
00000000000000000000010110010011
00000000000000000000001100011001
11111111111111111111111111101011
00000000000000000000001111001000
00000000000000000000001110011111
00000000000000000000001001011100
00000000000000000000000101011110
00000000000000000000001010100000
00000000000000000000001011010110
00000000000000000000001011010010
00000000000000000000001011010111
00000000000000000000001010100100
00000000000000000000001101011011
00000000000000000000001101001110
00000000000000000000001011110111
00000000000000000000000101111101
00000000000000000000001011011111
00000000000000000000010000001100
00000000000000000000000000111011
00000000000000000000010010001001
00000000000000000000010000000100
00000000000000000000010001100010
00000000000000000000001110101010
00000000000000000000000101011001
11111111111111111111111001000101
11111111111111111111111001010000
00000000000000000000001001000001
11111111111111111111111101111010
11111111111111111111111110000010
11111111111111111111111000101100
00000000000000000000000010101000
11111111111111111111110000111001
00000000000000000000000011001011
11111111111111111111111000010011
00000000000000000000001110101011
00000000000000000000001100000111
00000000000000000000001001110001
00000000000000000000000100010101
00000000000000000000000011000100
00000000000000000000000001111100
00000000000000000000001111001100
00000000000000000000001110010110
00000000000000000000001100100000
00000000000000000000001010011110
00000000000000000000001001100000
00000000000000000000000110000010
00000000000000000000010000001011
00000000000000000000000010000010
11111111111111111111111111000110
00000000000000000000001101101001
11111111111111111111111110011101
11111111111111111111110111111101
11111111111111111111111110011000
00000000000000000000000001111101
11111111111111111111111111111001
00000000000000000000010001011000
00000000000000000000011101100011
00000000000000000000010100011100
11111111111111111111110111011001
11111111111111111111101111101001
11111111111111111111110000001001
00000000000000000000000001010011
00000000000000000000000111110010
00000000000000000000010101000111
00000000000000000000001100001001
00000000000000000000000101111100
00000000000000000000000110010001
00000000000000000000001100011100
00000000000000000000000100110001
00000000000000000000001000111011
00000000000000000000001110010000
00000000000000000000000010000100
00000000000000000000000100111101
00000000000000000000000111111011
00000000000000000000001001000110
00000000000000000000001001100101
00000000000000000000000001100101
00000000000000000000000100001100
00000000000000000000000101001011
11111111111111111111100101100110
11111111111111111111100100001001
11111111111111111111010000001011
11111111111111111111000101101000
11111111111111111111010110001111
11111111111111111111100101111100
11111111111111111111010001010011
11111111111111111110101111101011
11111111111111111110110111110000
11111111111111111111000101011010
11111111111111111111101010011001
00000000000000000000000000111110
00000000000000000000001001101010
00000000000000000000010110111001
00000000000000000000010000100000
00000000000000000000000100110111
00000000000000000000010001011001
00000000000000000000001111110010
00000000000000000000001001010110
00000000000000000000001011011000
00000000000000000000000010011001
00000000000000000000010001011101
00000000000000000000000010010110
11111111111111111111111010000110
11111111111111111111110010111001
11111111111111111111111111101111
11111111111111111111110101100011
11111111111111111111010010010101
11111111111111111111001100100011
11111111111111111111000011011001
11111111111111111111010000100010
11111111111111111111001110010010
11111111111111111110101101110010
11111111111111111101111111101111
11111111111111111101111010100001
11111111111111111101100111000011
11111111111111111101110001010111
11111111111111111110001111000000
11111111111111111110110001010100
11111111111111111110111011101011
11111111111111111111010110001110
11111111111111111111101100000101
11111111111111111111110101100011
00000000000000000000000000100110
00000000000000000000000000110011
00000000000000000000000010110101
00000000000000000000000111100101
00000000000000000000000000011110
00000000000000000000000000000100
00000000000000000000001101011111
11111111111111111111111111101100
11111111111111111111110011110110
11111111111111111111111110001101
11111111111111111111100011000101
11111111111111111111010110101001
11111111111111111111011001111110
11111111111111111111111011100000
11111111111111111111111101011001
00000000000000000000010001100001
11111111111111111111111100111111
11111111111111111111001010101011
11111111111111111111001000101010
11111111111111111111000100010010
11111111111111111110111111101010
11111111111111111110100001000100
11111111111111111110010011100101
11111111111111111110101110111100
11111111111111111110001100101101
11111111111111111110100100010101
11111111111111111111010100000111
11111111111111111111101100000111
11111111111111111111111101100010
00000000000000000000000000110110
00000000000000000000000010000100
00000000000000000000000110111010
00000000000000000000000001100000
00000000000000000000000010000111
00000000000000000000000111101001
11111111111111111111110101110110
11111111111111111111101000100011
11111111111111111111100101011001
11111111111111111111011110100001
11111111111111111111010011011001
11111111111111111111101001110101
11111111111111111111111110001100
00000000000000000000001000001000
00000000000000000000001010111011
11111111111111111111100111101100
11111111111111111111010110101111
11111111111111111111001010011110
11111111111111111110110111110001
11111111111111111110101000110011
11111111111111111110101010011010
11111111111111111110010100001011
11111111111111111110000010111100
11111111111111111110000110101010
11111111111111111110101100111100
11111111111111111111001111111011
11111111111111111111100110010001
11111111111111111111111000101001
11111111111111111111111101100000
00000000000000000000000110101100
00000000000000000000000100010010
11111111111111111111111111011000
00000000000000000000000010010111
11111111111111111111111100011110
11111111111111111111101010101000
11111111111111111111100110111101
11111111111111111111011111100101
11111111111111111111010001001010
11111111111111111111110100100111
11111111111111111111001111101110
11111111111111111111001101110010
11111111111111111111011010111001
11111111111111111111101011110000
11111111111111111111001100111111
11111111111111111110100100101010
11111111111111111110011110000101
11111111111111111110100000111011
11111111111111111110000111010100
11111111111111111110000111011011
11111111111111111110001000001010
11111111111111111101111001000010
11111111111111111110000001110010
11111111111111111110111110011101
11111111111111111111100100000100
11111111111111111111110010111101
11111111111111111111111010010000
00000000000000000000000100010010
00000000000000000000000101010100
00000000000000000000000101101011
00000000000000000000000110110100
00000000000000000000000101011010
11111111111111111111111011011111
11111111111111111111110111010011
11111111111111111111100111100000
11111111111111111111100110111100
11111111111111111111011111100100
11111111111111111111000101000000
11111111111111111110100000000110
11111111111111111110111011111110
11111111111111111111010011110011
11111111111111111111011010001010
11111111111111111110110101011010
11111111111111111110011010000100
11111111111111111110000010010001
11111111111111111110011010001101
11111111111111111110111101111010
11111111111111111110000101110010
11111111111111111101110001010001
11111111111111111101110011101011
11111111111111111111000101110111
11111111111111111111010110100100
11111111111111111111110100000101
00000000000000000000000000110110
00000000000000000000000011101010
11111111111111111111111110101011
00000000000000000000001011111000
00000000000000000000000000010110
00000000000000000000000111000011
00000000000000000000001010110010
11111111111111111111111010100111
11111111111111111111111010101001
11111111111111111111111001110001
11111111111111111111111011010001
11111111111111111111011101001100
11111111111111111110110000000110
11111111111111111110010000100010
11111111111111111110110011101001
11111111111111111111110011110000
11111111111111111111100010000001
11111111111111111110101100011111
11111111111111111110100111111101
11111111111111111110100000001000
11111111111111111111011001111000
11111111111111111111000100111000
11111111111111111110011111001000
11111111111111111110001110000111
11111111111111111110110010010101
11111111111111111111100101100110
11111111111111111111101101000011
11111111111111111111110110000110
00000000000000000000000110100000
11111111111111111111111110000110
00000000000000000000000000000010
00000000000000000000001100110000
00000000000000000000010001101111
00000000000000000000000011000100
00000000000000000000000001111010
11111111111111111111110110110101
00000000000000000000010101000110
00000000000000000000000101111111
11111111111111111111101010101111
11111111111111111111101110011010
11111111111111111111000011001100
11111111111111111110100000111101
11111111111111111110111111100100
11111111111111111111111010010000
11111111111111111111010110111111
11111111111111111111010010010110
11111111111111111110111010110011
11111111111111111111010110110001
11111111111111111111001110111010
11111111111111111111000010101001
11111111111111111110100101001000
11111111111111111110110111001111
11111111111111111111001101100001
11111111111111111111011101011000
00000000000000000000000100010000
11111111111111111111111001000001
11111111111111111111111100111000
00000000000000000000001110100111
00000000000000000000001010101101
00000000000000000000001111010000
00000000000000000000000001001010
00000000000000000000001110111011
00000000000000000000001000101011
00000000000000000000000000101100
00000000000000000000010111000011
00000000000000000000000111111000
11111111111111111111101100011010
11111111111111111111111001001001
11111111111111111111011111001010
11111111111111111111000101000110
11111111111111111110101111100010
11111111111111111111000001011011
11111111111111111110011000001001
11111111111111111110011101011011
11111111111111111110111010101010
11111111111111111110111010111111
11111111111111111110100000010000
11111111111111111110110010110011
11111111111111111111000000110001
11111111111111111111100010110000
11111111111111111111111000110011
11111111111111111111100101010100
11111111111111111111111100011001
00000000000000000000001001010010
11111111111111111111111111110101
00000000000000000000001000110111
00000000000000000000010010011010
00000000000000000000000101101011
00000000000000000000000000000011
00000000000000000000001001010001
00000000000000000000000001001111
00000000000000000000000100111011
00000000000000000000011001100010
00000000000000000000001001001111
11111111111111111111100110111111
11111111111111111111100001101111
11111111111111111111010000110000
11111111111111111110110010000101
11111111111111111110100000000100
11111111111111111110100000101110
11111111111111111110100001000100
11111111111111111110000100001010
11111111111111111110100100001110
11111111111111111101110011100000
11111111111111111110100100101011
11111111111111111110011111101010
11111111111111111110011010001011
11111111111111111111100011000000
11111111111111111111101100010101
11111111111111111111110010000001
11111111111111111111110111110000
00000000000000000000001001000000
00000000000000000000001101011110
00000000000000000000011001001011
00000000000000000000000111001101
00000000000000000000000110100110
00000000000000000000000001011010
00000000000000000000000010100000
00000000000000000000001001000100
00000000000000000000000000110000
00000000000000000000000010110010
11111111111111111111110110001000
11111111111111111111010101111000
11111111111111111111010011011110
11111111111111111110111100011100
11111111111111111110110111100111
11111111111111111110110011010111
11111111111111111110111110000111
11111111111111111110110011001010
11111111111111111101111110110101
11111111111111111101101001000011
11111111111111111101011100110010
11111111111111111110101111101011
11111111111111111110011001011011
11111111111111111110010001001110
11111111111111111110111111010111
11111111111111111111001010101111
11111111111111111111011011010011
11111111111111111111111100101010
00000000000000000000001000000111
00000000000000000000001011111100
00000000000000000000001111011011
00000000000000000000001010101011
00000000000000000000000101101101
00000000000000000000001001100101
00000000000000000000001100100010
00000000000000000000001010101011
00000000000000000000000111111010
11111111111111111111111011010111
11111111111111111111101010010100
11111111111111111111011000111100
11111111111111111110111011101001
11111111111111111111001010010010
11111111111111111111010101010011
11111111111111111111101011011000
11111111111111111111011111111011
11111111111111111110000110110111
11111111111111111101001011110000
11111111111111111100111011001000
11111111111111111101001011100010
11111111111111111110100010100100
11111111111111111110100110000101
11111111111111111110110111010111
11111111111111111110100111110110
11111111111111111111000010011110
11111111111111111111011001110100
11111111111111111111001101000111
11111111111111111111101011000010
00000000000000000000000010100111
00000000000000000000010100011011
00000000000000000000001100000100
00000000000000000000000101001111
00000000000000000000000110110101
00000000000000000000010000100001
00000000000000000000001100000100
00000000000000000000010001011101
11111111111111111111111110110110
11111111111111111111011100001100
11111111111111111111001101010111
11111111111111111110100111111111
11111111111111111110100111111111
11111111111111111111000100100100
11111111111111111111101101110110
11111111111111111111010010011001
11111111111111111101110110101000
11111111111111111100110001111100
11111111111111111100111101110101
11111111111111111101101001000111
11111111111111111110101110111011
11111111111111111110100001100110
11111111111111111110101100000111
11111111111111111111000110000000
11111111111111111110110101011010
11111111111111111110101101001111
11111111111111111110111110001100
11111111111111111111110111111000
00000000000000000000010100110000
00000000000000000000000101010000
00000000000000000000001000001101
00000000000000000000010010010111
00000000000000000000001111100011
00000000000000000000001010110110
00000000000000000000000111010010
00000000000000000000000110000101
00000000000000000000000000011011
11111111111111111111100011110010
11111111111111111110111100010100
11111111111111111110110011101111
11111111111111111111000001010010
11111111111111111111001111101001
11111111111111111111001001101010
11111111111111111110111011010100
11111111111111111110000011101001
11111111111111111100110110100101
11111111111111111101000111101000
11111111111111111110101001001001
11111111111111111110010000010011
11111111111111111110101010100101
11111111111111111111001100001110
11111111111111111111001010010000
11111111111111111111011000010101
11111111111111111111001110111000
11111111111111111111100001100110
11111111111111111111110100101100
00000000000000000000010100100001
00000000000000000000000111101111
00000000000000000000001111111000
00000000000000000000001110110111
00000000000000000000001011101100
00000000000000000000010001100000
00000000000000000000001110110110
00000000000000000000000101001100
00000000000000000000000010101111
11111111111111111111010001010100
11111111111111111111000100111100
11111111111111111111000011000110
11111111111111111111101111111010
11111111111111111111111000111100
11111111111111111111100110001110
11111111111111111111011011101001
11111111111111111110011111000000
11111111111111111101101110101100
11111111111111111101111111011100
11111111111111111110011100101100
11111111111111111110100000101011
11111111111111111110111011111100
11111111111111111110110011000001
11111111111111111111000100111000
11111111111111111111001100111011
11111111111111111111000011011100
11111111111111111111011111111111
11111111111111111111111101011100
00000000000000000000000110110100
00000000000000000000001001000011
00000000000000000000001010010111
00000000000000000000001001101111
00000000000000000000000111110011
00000000000000000000000110101000
00000000000000000000001001101111
11111111111111111111111010011111
11111111111111111111110101011101
11111111111111111111001111001011
11111111111111111111010000001111
11111111111111111111011001001101
11111111111111111111100010010010
11111111111111111111101011100011
11111111111111111111101111010110
11111111111111111111001000100110
11111111111111111110100001100010
11111111111111111110010100111100
11111111111111111110000010001001
11111111111111111101111111101111
11111111111111111110000110011100
11111111111111111110100011111100
11111111111111111110100000011011
11111111111111111110111011011000
11111111111111111111000001001011
11111111111111111111010101100101
11111111111111111111101101001001
11111111111111111111111001101011
11111111111111111111110010010000
00000000000000000000000000101101
00000000000000000000001110010010
00000000000000000000001101000110
00000000000000000000000100110001
00000000000000000000000111001111
00000000000000000000000100101010
00000000000000000000000100010000
11111111111111111111111011100111
11111111111111111111100001000011
11111111111111111111010111001001
11111111111111111110110111000111
11111111111111111111010000001001
11111111111111111110111111101111
11111111111111111111001100101110
11111111111111111111010011101011
11111111111111111110110011010000
11111111111111111110011011000100
11111111111111111110000100111111
11111111111111111101110111010000
11111111111111111110001100110111
11111111111111111110011000010101
11111111111111111110100011010100
11111111111111111111000011100001
11111111111111111111101011000001
11111111111111111111101100110101
00000000000000000000000011000010
00000000000000000000000100100000
00000000000000000000000110111111
00000000000000000000001100010101
00000000000000000000000100100101
00000000000000000000010001111000
00000000000000000000000111010101
00000000000000000000000100011001
00000000000000000000001010001110
00000000000000000000000011001110
11111111111111111111110001100010
11111111111111111111101000100110
11111111111111111111011001010101
11111111111111111111001010110011
11111111111111111110111011111010
11111111111111111110100000110101
11111111111111111110110110000011
11111111111111111110111000101000
11111111111111111110101110001111
11111111111111111110001001100001
11111111111111111110000011110101
11111111111111111110001011000011
11111111111111111110010110110010
11111111111111111110101000000001
11111111111111111111001001111001
11111111111111111111011001000110
11111111111111111111111010011000
11111111111111111111110000101000
11111111111111111111110011010001
11111111111111111111111110010111
00000000000000000000000011110110
11111111111111111111111110000000
00000000000000000000000111011011
00000000000000000000001010010101
00000000000000000000000010001101
00000000000000000000001111011011
00000000000000000000000111100011
00000000000000000000000000000010
11111111111111111111100111001000
11111111111111111111011010110100
11111111111111111111001101000000
11111111111111111111001100111010
11111111111111111110100111001110
11111111111111111110011000001010
11111111111111111110010000000101
11111111111111111111000011010100
11111111111111111110110011000101
11111111111111111110010111011111
11111111111111111110010010000100
11111111111111111110001011101111
11111111111111111110100010101110
11111111111111111110110011011110
11111111111111111111100010010010
11111111111111111111101001101000
11111111111111111111111110010001
11111111111111111111110000111001
11111111111111111111111011001101
11111111111111111111111111101011
11111111111111111111111011001011
00000000000000000000010000111011
00000000000000000000010010001111
00000000000000000000001011010111
00000000000000000000000001001000
00000000000000000000001000000010
00000000000000000000000010011110
11111111111111111111111101110011
11111111111111111111111000101110
11111111111111111111111100101100
11111111111111111111110101010010
11111111111111111111010111000111
11111111111111111110111000011111
11111111111111111110010111011000
11111111111111111101111000011001
11111111111111111101111001111010
11111111111111111101110100010111
11111111111111111101111000110010
11111111111111111110000110101010
11111111111111111110001111000010
11111111111111111110100110011011
11111111111111111111001101110111
11111111111111111111011110100001
11111111111111111111110010010111
00000000000000000000000010101110
00000000000000000000000100111011
11111111111111111111111111111111
11111111111111111111111110111010
00000000000000000000000111011100
00000000000000000000000100100011
00000000000000000000001001001010
00000000000000000000000110011010
00000000000000000000000001111100
00000000000000000000001000100001
00000000000000000000010001111011
00000000000000000000000001011011
00000000000000000000010010000110
00000000000000000000001001110000
00000000000000000000010000010110
00000000000000000000001010000110
11111111111111111111110111001111
11111111111111111111100100011010
11111111111111111111101110110000
11111111111111111111001010111100
11111111111111111111000101000101
11111111111111111111010110011010
11111111111111111111000100011001
11111111111111111111001011110011
11111111111111111111010010011001
11111111111111111111110111001110
00000000000000000000000111000101
00000000000000000000000100011110
00000000000000000000010001001110
00000000000000000000010100001110
00000000000000000000000011011101
00000000000000000000001001001000
00000000000000000000000111101001
00000000000000000000001101111011
00000000000000000000001010101101
00000000000000000000001111011001
00000000000000000000010001001101
00000000000000000000000001010001
00000000000000000000000011011101
00000000000000000000000000111110
00000000000000000000010000011000
00000000000000000000001011100001
00000000000000000000010000000001
00000000000000000000011100001111
00000000000000000000010001111001
00000000000000000000100001111100
00000000000000000000011110001001
11111111111111111111110100110110
00000000000000000000000010011100
00000000000000000000000101110100
00000000000000000000001011110101
00000000000000000000001001110110
00000000000000000000010110111111
00000000000000000000011000001000
00000000000000000000101110110111
00000000000000000000010111000011
00000000000000000000010111011101
00000000000000000000010111101100
00000000000000000000001000010100
00000000000000000000000111110001
00000000000000000000010000110001
00000000000000000000000101010001
00000000000000000000000000101000
00000000000000000000001000010011
00000000000000000000000000101110
00000000000000000000001011011110
00000000000000000000000101011010
00000000000000000000010010001101
00000000000000000000001100100111
00000000000000000000000101111010
00000000000000000000000000101010
00000000000000000000001001011000
00000000000000000000001101001111
00000000000000000000000011000010
11111111111111111111111101011111
11111111111111111111101111010000
11111111111111111111101011000000
11111111111111111111110010110000
11111111111111111111110110100010
11111111111111111111101111011010
11111111111111111111110101010001
11111111111111111111111111100100
00000000000000000000010000000110
00000000000000000000010000111111
00000000000000000000001101000100
00000000000000000000010101100000
00000000000000000000001011010000
00000000000000000000010001110010
00000000000000000000000111100111
00000000000000000000001011001111
00000000000000000000001000110110
00000000000000000000000110110110
00000000000000000000010000011010
00000000000000000000001001100011
00000000000000000000001111001010
00000000000000000000010001001000
00000000000000000000000010101011
00000000000000000000000010010001
00000000000000000000010001011111
00000000000000000000010001100001
00000000000000000000001100011001
00000000000000000000001111011111
11111111111111111111111100111111
11111111111111111111111111110100
00000000000000000000000000010000
00000000000000000000000111110010
00000000000000000000000000100001
11111111111111111111110111110000
11111111111111111111111010100001
00000000000000000000000100101100
00000000000000000000001001000111
00000000000000000000001001111101
00000000000000000000010000000100
00000000000000000000001010011110
00000000000000000000000011001000
00000000000000000000001001000111
00000000000000000000001000011000
00000000000000000000001011001110
00000000000000000000001000010111
00000000000000000000010000000010
