00000000000000000000001000110101
00000000000000000000001110101110
00000000000000000000000111100110
00000000000000000000001000100101
00000000000000000000000111010101
00000000000000000000001010111110
00000000000000000000000011100101
00000000000000000000001100100101
00000000000000000000000100011001
00000000000000000000001110000110
00000000000000000000001100100000
00000000000000000000001011000100
00000000000000000000001111101100
00000000000000000000010000011011
00000000000000000000001010001010
00000000000000000000001101001110
00000000000000000000001110001111
00000000000000000000000101011110
00000000000000000000001011111010
00000000000000000000000101010001
00000000000000000000000101000110
00000000000000000000001111110110
00000000000000000000001100011110
00000000000000000000001110011001
00000000000000000000000101001101
00000000000000000000000101101001
00000000000000000000000110001000
00000000000000000000010000001010
00000000000000000000001000001001
00000000000000000000000111101100
00000000000000000000000101100011
00000000000000000000010000111111
00000000000000000000000100000110
00000000000000000000001101000101
00000000000000000000000111000001
00000000000000000000001011000001
00000000000000000000000101001000
00000000000000000000001001101101
00000000000000000000000100011011
00000000000000000000001000000101
00000000000000000000001000100010
00000000000000000000000000010101
00000000000000000000000001010001
00000000000000000000000011000110
00000000000000000000010010000001
00000000000000000000010011100111
00000000000000000000011001110111
00000000000000000000010001000101
00000000000000000000000001000000
00000000000000000000001010001100
00000000000000000000001111110100
00000000000000000000000101101011
00000000000000000000000111101111
00000000000000000000001010000010
00000000000000000000000001101011
00000000000000000000001100111100
00000000000000000000001111101100
00000000000000000000000111110100
00000000000000000000001010110100
00000000000000000000000101100010
00000000000000000000001111110100
00000000000000000000001111111110
00000000000000000000000010111101
11111111111111111111111111001001
00000000000000000000001001111011
00000000000000000000000100100010
11111111111111111111111110001110
00000000000000000000000000101011
11111111111111111111110011111101
11111111111111111111100101101101
11111111111111111111101011111011
11111111111111111111101111100100
11111111111111111111110001100011
00000000000000000000001111011011
00000000000000000000100010000010
00000000000000000000011001011100
00000000000000000000001101010011
00000000000000000000010100000001
00000000000000000000000111101110
00000000000000000000000111000101
00000000000000000000000100001110
00000000000000000000000100011110
00000000000000000000001101000110
00000000000000000000001100000010
00000000000000000000001110110101
00000000000000000000001110110010
00000000000000000000000110100011
00000000000000000000001011101000
00000000000000000000000011110011
00000000000000000000010001000010
00000000000000000000001111110000
00000000000000000000000010111011
00000000000000000000001101001000
11111111111111111111110000010001
11111111111111111111100011011100
00000000000000000000000011000100
00000000000000000000001000101111
11111111111111111111111111011111
00000000000000000000010001100001
00000000000000000000111010110111
00000000000000000001011101101000
00000000000000000001101110111011
00000000000000000001010010010100
00000000000000000001100111101011
00000000000000000001000101100110
00000000000000000000010101101011
00000000000000000000010010110010
00000000000000000000010110010110
00000000000000000000001100100101
00000000000000000000000011001001
00000000000000000000000110110101
00000000000000000000000110011010
00000000000000000000000110101111
00000000000000000000000001011101
11111111111111111111111111110100
00000000000000000000000010101101
00000000000000000000010000000001
00000000000000000000001000011011
00000000000000000000011011110100
00000000000000000000010110001000
00000000000000000000101010101100
00000000000000000000000001010110
11111111111111111111101100000100
11111111111111111111011111100011
11111111111111111111000011010010
11111111111111111111100100111111
11111111111111111111100010110111
00000000000000000000010000100011
00000000000000000000110010000001
00000000000000000000111111101000
11111111111111111111011100101001
11111111111111111110111010011011
11111111111111111111011010011000
11111111111111111110101110101010
11111111111111111111001000100011
11111111111111111111011001111011
11111111111111111111011010000101
00000000000000000000000001010001
00000000000000000000000111111001
00000000000000000000000011010010
00000000000000000000001111000000
00000000000000000000001111011011
00000000000000000000001001011011
00000000000000000000000010100101
00000000000000000000010001110100
00000000000000000000000111000101
00000000000000000000010101000010
00000000000000000000100011111110
00000000000000000000001011100001
11111111111111111111011001110110
11111111111111111111000010100110
11111111111111111101101110001011
11111111111111111101010101100110
11111111111111111110001011000010
11111111111111111110111110010101
11111111111111111111110100001100
11111111111111111111010000100101
11111111111111111101100110001000
11111111111111111101001001000101
11111111111111111101100111011011
11111111111111111101010101110100
11111111111111111110001100110000
11111111111111111110000110000100
11111111111111111110000010011011
11111111111111111110110101100001
11111111111111111111101101011010
00000000000000000000000001001000
00000000000000000000001001110111
00000000000000000000001010010101
00000000000000000000000010000101
00000000000000000000001110110100
00000000000000000000001010001110
00000000000000000000011001100101
00000000000000000000010101111001
00000000000000000000011110111111
00000000000000000000000000000111
11111111111111111111100011010011
11111111111111111110100101101001
11111111111111111101110001010001
11111111111111111101101101010111
11111111111111111101010011110011
11111111111111111110010010110001
11111111111111111101100010111011
11111111111111111101110000100011
11111111111111111101000001110001
11111111111111111011101101010101
11111111111111111011101011111111
11111111111111111011111000010011
11111111111111111100101011100111
11111111111111111101111110001001
11111111111111111110010000011101
11111111111111111101110000001111
11111111111111111110000000100101
11111111111111111111100000101000
00000000000000000000000110111000
00000000000000000000001011001100
00000000000000000000001101011110
00000000000000000000001000010110
00000000000000000000000010110110
00000000000000000000001010000011
00000000000000000000101001111111
00000000000000000000100101111101
11111111111111111111110110100110
11111111111111111111011100000101
11111111111111111110101011111110
11111111111111111101100000111110
11111111111111111100100100101100
11111111111111111101010011100011
11111111111111111100111111001000
11111111111111111101011111001000
11111111111111111110010000111011
11111111111111111101110110010110
11111111111111111100110000111011
11111111111111111101110011100110
11111111111111111110000000110000
11111111111111111101010000011110
11111111111111111101111001101100
11111111111111111111000110011000
11111111111111111111000101011001
11111111111111111111000001000110
11111111111111111110111101101110
11111111111111111111100011101100
00000000000000000000000001000111
00000000000000000000000100001000
00000000000000000000001000001001
11111111111111111111111111110111
00000000000000000000001001110111
00000000000000000000000011110100
00000000000000000000101101100001
00000000000000000000001000110010
11111111111111111111011001100010
11111111111111111111010110100011
11111111111111111110010010101001
11111111111111111100111011111011
11111111111111111101010011100001
11111111111111111101000010100111
11111111111111111101101110011001
11111111111111111111010000101001
00000000000000000000000000001010
00000000000000000000001100110011
00000000000000000000110100011001
00000000000000000000001001100010
11111111111111111110111101011010
11111111111111111110000100100101
11111111111111111111001100011010
00000000000000000000000100111111
00000000000000000000011101110110
11111111111111111111101000101101
11111111111111111111001001000111
11111111111111111111100110110011
11111111111111111111101100010011
00000000000000000000001001001110
00000000000000000000001010001000
00000000000000000000000111101000
00000000000000000000001100000111
00000000000000000000010110111111
00000000000000000000011011111000
11111111111111111111110111010001
11111111111111111111001000101001
11111111111111111111000110010011
11111111111111111101010011010100
11111111111111111101000110110100
11111111111111111100110111011011
11111111111111111011111000110000
11111111111111111100101000011100
11111111111111111110111000011111
00000000000000000001001010101000
00000000000000000010100100001001
00000000000000000010000101000101
00000000000000000001001000101111
00000000000000000000100111010000
11111111111111111111110000111001
00000000000000000000100010011100
00000000000000000000100110111000
00000000000000000000100101111110
11111111111111111111100111010100
11111111111111111110101000110100
11111111111111111111000111110100
11111111111111111111011000011110
00000000000000000000010000011000
00000000000000000000000111001100
11111111111111111111111111001111
00000000000000000000001001011011
00000000000000000000011010000001
00000000000000000000001001000101
11111111111111111111101001111010
11111111111111111111110000011111
11111111111111111110100010000111
11111111111111111101011001010110
11111111111111111101010000010101
11111111111111111100011010100011
11111111111111111011011110001010
11111111111111111100000101110010
11111111111111111110101011110111
00000000000000000000000010000111
00000000000000000001000011111101
00000000000000000000101111110001
11111111111111111111101111010111
11111111111111111111010101101010
11111111111111111111100010000001
11111111111111111111010011101001
11111111111111111111100111111101
11111111111111111111101110000111
11111111111111111110101110101101
11111111111111111110001101011000
11111111111111111111001000011011
11111111111111111111110111101000
00000000000000000000000010111010
00000000000000000000010001101001
00000000000000000000001010010001
11111111111111111111111100010111
00000000000000000000000100000001
11111111111111111111110111000001
11111111111111111111011111110110
11111111111111111111010101001100
11111111111111111111001010010110
11111111111111111111010101010110
11111111111111111110110011101111
11111111111111111101011101111110
11111111111111111100011010001010
11111111111111111100110011101001
11111111111111111101100011001100
11111111111111111101011010100000
11111111111111111110011110110110
11111111111111111100011110010110
11111111111111111100010110001111
11111111111111111100101101100001
11111111111111111101110010111010
11111111111111111101101011011101
11111111111111111110011001110011
11111111111111111110111011011110
11111111111111111110011100111000
11111111111111111110100100100111
11111111111111111111010011011111
00000000000000000000000101011101
00000000000000000000000100110000
00000000000000000000000000111000
00000000000000000000001001111101
00000000000000000000000001111100
11111111111111111111110011101111
11111111111111111111011101101110
11111111111111111111011100100111
11111111111111111111110110010110
11111111111111111111101100001110
00000000000000000000100001001000
00000000000000000000101001000111
11111111111111111110111111000011
11111111111111111110110000010000
11111111111111111101101110011101
11111111111111111100011010011101
11111111111111111100101111111010
11111111111111111100101001110111
11111111111111111011011011100000
11111111111111111100001100010000
11111111111111111100111010111111
11111111111111111101011110000011
11111111111111111101111101001011
11111111111111111110011111111101
11111111111111111111101001010001
11111111111111111111110001100101
11111111111111111111110001110010
11111111111111111111111000010101
11111111111111111111111010001000
00000000000000000000001111000110
00000000000000000000001101001000
00000000000000000000000010010111
11111111111111111111111111100100
00000000000000000000000010001011
11111111111111111111101001100110
11111111111111111111101001110010
00000000000000000000011111111101
00000000000000000000001011100110
00000000000000000000001110000000
11111111111111111111011010101100
11111111111111111111010110110000
11111111111111111111000110111100
11111111111111111111010101001111
11111111111111111100110010100010
11111111111111111100000100011011
11111111111111111011110011000010
11111111111111111011000100110010
11111111111111111011111111011000
11111111111111111101001001110101
11111111111111111111000011000110
11111111111111111111001011111111
11111111111111111110111111010100
11111111111111111111000011100010
00000000000000000000010100001010
00000000000000000000000101011111
00000000000000000000010110111011
00000000000000000000001001111101
00000000000000000000001000010010
00000000000000000000000001000000
00000000000000000000001100001101
00000000000000000000000000111000
11111111111111111111111111001010
11111111111111111111111001100010
00000000000000000000011100100001
00000000000000000000101100001111
00000000000000000000101000000000
00000000000000000000100001110100
11111111111111111111101010000100
11111111111111111111001111001010
11111111111111111111011100000101
11111111111111111110010101111111
11111111111111111100011110101001
11111111111111111100010110010010
11111111111111111011110110010010
11111111111111111100001101010011
11111111111111111110100011001110
11111111111111111111000001101010
11111111111111111111010011000111
00000000000000000000001011001010
00000000000000000000000010110011
11111111111111111111100000011101
00000000000000000000000101101101
00000000000000000000011011011011
00000000000000000000010001110110
00000000000000000000001101100101
00000000000000000000000101011110
00000000000000000000000000001000
00000000000000000000001000111000
00000000000000000000001100001001
11111111111111111111110110111101
11111111111111111111111010110111
00000000000000000001000111000011
00000000000000000000010110001110
00000000000000000000111010010101
00000000000000000001011110100000
00000000000000000001010001110011
11111111111111111111111110001001
11111111111111111111000101100000
11111111111111111101011000100000
11111111111111111100110101110100
11111111111111111110010000111110
11111111111111111101100101101101
11111111111111111100111001111011
11111111111111111111011100111000
00000000000000000000011100001001
11111111111111111111111000100111
00000000000000000000100010101000
00000000000000000000011110111011
11111111111111111111111000000010
00000000000000000000100000111100
00000000000000000000100001000110
00000000000000000000010110100101
00000000000000000000001001100001
00000000000000000000001001111100
00000000000000000000000001100010
00000000000000000000010001110001
00000000000000000000010100001001
00000000000000000000000000110101
00000000000000000000010100000111
00000000000000000000100110011000
00000000000000000000010111000010
00000000000000000001010010001010
00000000000000000001010101100011
00000000000000000010000111100001
00000000000000000001010101010010
11111111111111111111111001100110
11111111111111111101110010110100
11111111111111111101100011100000
11111111111111111110100010100001
11111111111111111101111010110000
11111111111111111101011010100000
11111111111111111111001000111011
11111111111111111111111011100100
11111111111111111111000001111111
11111111111111111110101100110001
11111111111111111111110101011000
00000000000000000000001101010111
00000000000000000000100111011010
00000000000000000000011011011011
11111111111111111111111110110101
00000000000000000000000111100000
00000000000000000000001011101101
00000000000000000000000110001011
00000000000000000000001011001000
00000000000000000000001000001111
00000000000000000000010111111011
00000000000000000000101000011010
11111111111111111111110101000010
11111111111111111111000101010111
00000000000000000000001110111010
00000000000000000000011110101110
00000000000000000001000111011000
00000000000000000000011110110101
11111111111111111111011100001000
11111111111111111111110101100010
11111111111111111111000000000100
11111111111111111101111010100110
11111111111111111101110100000001
11111111111111111110110001011010
11111111111111111110010100111111
11111111111111111110100110100110
11111111111111111111001001011100
11111111111111111110100110000011
00000000000000000000001111011001
00000000000000000001001010100010
00000000000000000000010101111101
00000000000000000000001010001010
11111111111111111111110111011100
00000000000000000000000111010100
00000000000000000000010000111101
00000000000000000000001100001010
00000000000000000000000011011010
00000000000000000000001010100110
00000000000000000000100001000010
00000000000000000001001000001100
11111111111111111111100110101111
11111111111111111101111001111011
11111111111111111110000110100010
11111111111111111110110101100011
11111111111111111111000110010110
11111111111111111111000000111000
11111111111111111111000110001001
11111111111111111111100001111111
11111111111111111110000001110100
11111111111111111101101010001100
11111111111111111110101100000011
11111111111111111111011101111110
11111111111111111101100110000110
11111111111111111110111001111011
11111111111111111110110101001011
11111111111111111110111010111101
11111111111111111111101101110101
00000000000000000001000011100111
11111111111111111111100101100001
11111111111111111111001110011111
00000000000000000000000010001011
00000000000000000000000101111001
00000000000000000000001111110000
00000000000000000000010001000101
00000000000000000000001111111101
00000000000000000000001001101100
00000000000000000000101001011000
00000000000000000001010010010111
11111111111111111111111011110110
11111111111111111110000001100101
11111111111111111101110011111010
11111111111111111101011010100111
11111111111111111101010000001101
11111111111111111101101000010011
11111111111111111110010011111001
11111111111111111111011100100011
11111111111111111101111110010101
11111111111111111101011111111111
11111111111111111110101101110101
11111111111111111110100101100011
11111111111111111101111000111110
11111111111111111110110001110110
11111111111111111111001110011110
11111111111111111111001110000001
00000000000000000000001011101100
00000000000000000000011001011100
11111111111111111111010111010010
11111111111111111110111001110111
11111111111111111111111010100100
00000000000000000000000110101000
00000000000000000000000100011101
00000000000000000000001111100010
00000000000000000000001101111010
00000000000000000000000001100011
00000000000000000000110100100111
00000000000000000001000000100101
00000000000000000000010000000010
11111111111111111110101011011010
11111111111111111110000000100000
11111111111111111101101010011010
11111111111111111110000000110111
11111111111111111101111111101110
11111111111111111111000010111101
11111111111111111101110000100101
11111111111111111101010010111000
11111111111111111110110011010101
11111111111111111111100101110010
11111111111111111110110011111100
11111111111111111101111010111000
11111111111111111110111110101111
11111111111111111111100011011110
00000000000000000000001110010100
11111111111111111111111011100100
11111111111111111111110001010101
11111111111111111111001001011000
11111111111111111111010111001110
00000000000000000000000111011000
00000000000000000000001111101101
00000000000000000000001001001010
00000000000000000000000001100101
00000000000000000000000101111000
00000000000000000000010111001100
00000000000000000000110111101001
00000000000000000000011100010000
00000000000000000000000100110100
11111111111111111111010011100101
11111111111111111101111100000010
11111111111111111101110111001010
11111111111111111101001110100011
11111111111111111110000101001001
11111111111111111101111011110001
11111111111111111100011010000100
11111111111111111101011001000110
11111111111111111110100011000001
11111111111111111110011100011100
11111111111111111110001111101101
11111111111111111110001110010010
11111111111111111111010100010101
00000000000000000000001110100101
11111111111111111111101001111011
11111111111111111110111101100011
11111111111111111111000111000111
11111111111111111111000111110001
11111111111111111111010101111001
00000000000000000000001000001010
00000000000000000000001001011110
00000000000000000000001000001100
00000000000000000000001101000101
00000000000000000000001000000011
00000000000000000000010101001101
00000000000000000000100100001011
00000000000000000000100100111000
00000000000000000000011000100010
11111111111111111111111011011001
11111111111111111111010011010101
11111111111111111101011001101100
11111111111111111101000101111001
11111111111111111110010110011111
11111111111111111110100010001111
11111111111111111101010011010100
11111111111111111101100101101101
11111111111111111110101000101010
11111111111111111111100101010110
11111111111111111111001000110000
11111111111111111101111100110100
11111111111111111111010011011011
11111111111111111111110001110101
11111111111111111111100111100111
11111111111111111111011001001111
11111111111111111111011000111100
11111111111111111111011100100011
11111111111111111111100100001001
00000000000000000000000100101000
00000000000000000000000110110011
00000000000000000000000010000100
00000000000000000000001000000110
00000000000000000000010000011100
00000000000000000000001101110101
00000000000000000000010100110111
00000000000000000000100100100010
00000000000000000000101100010000
00000000000000000000011111100100
00000000000000000000001011000011
11111111111111111111001110010010
11111111111111111110011100100001
11111111111111111101010011010010
11111111111111111100111101100110
11111111111111111100000110011110
11111111111111111110000111010010
11111111111111111101111111110110
11111111111111111110101111000001
11111111111111111110001100100110
11111111111111111110100101010011
11111111111111111111101010101001
00000000000000000000010001001101
11111111111111111111111001010100
11111111111111111111001001000011
11111111111111111111010010111101
11111111111111111111111000110111
11111111111111111111101101111111
00000000000000000000001001111110
00000000000000000000000111001011
00000000000000000000000001100001
00000000000000000000000111101101
00000000000000000000001111001100
00000000000000000000000101000100
00000000000000000000011011111000
00000000000000000000101001010111
00000000000000000000101000111110
00000000000000000000001100001110
00000000000000000000010011110001
00000000000000000000011111101001
00000000000000000000100000011100
00000000000000000000000001000001
11111111111111111111100110111110
11111111111111111110101011011100
11111111111111111111100100011001
00000000000000000000010011001010
00000000000000000000000010111110
00000000000000000000011100110100
11111111111111111111100100010110
11111111111111111111101101111101
11111111111111111111110010111011
11111111111111111111011011011101
11111111111111111111011110010010
11111111111111111111101101001001
00000000000000000000001101000110
00000000000000000000000000111001
00000000000000000000000001111000
00000000000000000000001000111100
00000000000000000000000011110111
00000000000000000000010000000000
00000000000000000000010000101000
00000000000000000000000101100000
00000000000000000000000110101010
00000000000000000000011001110001
00000000000000000000010000011111
11111111111111111111111100101000
11111111111111111111111111011001
00000000000000000000000110011110
00000000000000000000001000111101
00000000000000000000011100001110
11111111111111111111110011011010
11111111111111111110111011101101
11111111111111111111100011100001
00000000000000000000000111001101
00000000000000000000001101111000
11111111111111111111110001000110
11111111111111111111000110110000
11111111111111111111101101110101
11111111111111111111111001101100
00000000000000000000001001010011
11111111111111111111111011010101
11111111111111111111111111000001
00000000000000000000000001000100
00000000000000000000000100001101
00000000000000000000001011110101
00000000000000000000001110001011
00000000000000000000001001100100
00000000000000000000001110100001
00000000000000000000000100110111
00000000000000000000001101011011
00000000000000000000001011111011
11111111111111111111111111100100
11111111111111111111111100011000
00000000000000000000001010101001
00000000000000000000000010100110
11111111111111111111110010111101
11111111111111111111100011000011
11111111111111111111100010111101
11111111111111111111100011011000
11111111111111111110111100100100
11111111111111111111010110111001
11111111111111111111011010010001
11111111111111111111100000011001
11111111111111111111100000100101
11111111111111111111110011101011
11111111111111111111111100110101
11111111111111111111111100101011
00000000000000000000000011111000
11111111111111111111111101001111
11111111111111111111111110101110
00000000000000000000001000000111
00000000000000000000000111000100
00000000000000000000001101000111
00000000000000000000001010011100
00000000000000000000001100110111
00000000000000000000000110101110
00000000000000000000000110010110
00000000000000000000000100001001
00000000000000000000000010111101
00000000000000000000001011001011
00000000000000000000010001011000
00000000000000000000001110111101
00000000000000000000010000101100
00000000000000000000010011110111
00000000000000000000001110001101
00000000000000000000001001001001
00000000000000000000000100011101
00000000000000000000001001100001
11111111111111111111110110010110
11111111111111111111111000010110
11111111111111111111111001101110
11111111111111111111110111101111
00000000000000000000000011001101
00000000000000000000001000100000
00000000000000000000001010001101
00000000000000000000001101101000
00000000000000000000000001010100
00000000000000000000000011111111
00000000000000000000001000110100
00000000000000000000000011000010
00000000000000000000000111010000
00000000000000000000010001110100
00000000000000000000001010001000
