00000000000000000000001100011010
00000000000000000000010001100100
00000000000000000000000110110110
00000000000000000000000101011111
00000000000000000000000001001011
00000000000000000000000110010110
00000000000000000000001011001111
00000000000000000000000110001000
00000000000000000000001011101100
00000000000000000000000110111001
00000000000000000000010001110100
00000000000000000000000011011101
00000000000000000000000101010100
00000000000000000000000110101000
00000000000000000000001110101010
00000000000000000000000101011100
00000000000000000000000110011001
00000000000000000000000110111110
00000000000000000000001010111010
00000000000000000000001110101110
00000000000000000000001111010001
00000000000000000000001010111011
00000000000000000000000001100001
00000000000000000000010001101101
00000000000000000000000001100101
00000000000000000000000010011111
00000000000000000000000110111110
00000000000000000000001100001000
00000000000000000000001010010111
00000000000000000000001011001010
00000000000000000000000111111110
00000000000000000000000100011111
00000000000000000000001010011011
00000000000000000000001110110011
00000000000000000000001001001111
00000000000000000000001010001010
00000000000000000000000011111110
00000000000000000000000010101001
00000000000000000000010000101010
00000000000000000000001110010101
00000000000000000000000111110001
00000000000000000000001111001000
00000000000000000000010011111110
00000000000000000000010100000010
00000000000000000000000100011000
00000000000000000000001100111111
11111111111111111111111111011111
00000000000000000000001000101110
00000000000000000000000010010001
00000000000000000000001100110110
00000000000000000000001000101001
00000000000000000000000000000111
00000000000000000000000110000100
00000000000000000000001010010100
00000000000000000000010001111010
00000000000000000000000111101001
00000000000000000000001100110100
00000000000000000000000110100110
00000000000000000000000001011111
00000000000000000000000100111001
00000000000000000000010001101101
00000000000000000000001001010111
00000000000000000000001000001001
00000000000000000000000110010011
00000000000000000000000001111011
11111111111111111111111101011001
00000000000000000000000000101111
00000000000000000000000011100011
11111111111111111111111011000101
11111111111111111111111100111111
11111111111111111111111010000111
00000000000000000000000111001000
11111111111111111111110101111010
11111111111111111111110111110010
00000000000000000000000001010110
00000000000000000000001000010010
11111111111111111111111110101010
00000000000000000000001010001100
00000000000000000000000000101100
00000000000000000000000100110110
00000000000000000000001000111000
00000000000000000000001010100110
00000000000000000000000100100101
00000000000000000000001110101010
00000000000000000000000010101010
00000000000000000000000100001101
00000000000000000000000100100110
00000000000000000000001111100111
00000000000000000000001010110101
00000000000000000000000100011011
11111111111111111111111110111110
00000000000000000000000100001100
00000000000000000000000101000011
11111111111111111111111110100110
11111111111111111111101111011101
11111111111111111111100011000001
11111111111111111111101011100011
11111111111111111111101011101001
11111111111111111111110101001111
11111111111111111111111011001001
11111111111111111111110100100000
00000000000000000000000111000010
00000000000000000000001101101011
00000000000000000000001011011100
00000000000000000000000010011010
00000000000000000000001000000011
00000000000000000000010011010000
00000000000000000000000110110001
11111111111111111111111111111101
00000000000000000000000000100000
00000000000000000000001001000101
00000000000000000000001000101111
00000000000000000000001011101100
00000000000000000000001101101011
00000000000000000000000111001001
00000000000000000000001110111001
00000000000000000000010001011100
00000000000000000000000111110111
00000000000000000000000101000110
11111111111111111111111011111111
11111111111111111111111001110110
11111111111111111111111000010010
11111111111111111111101110001101
11111111111111111111100101011111
11111111111111111111011001010011
11111111111111111111010001011111
11111111111111111111011001011111
11111111111111111111001100000110
11111111111111111111010000010101
11111111111111111111000000001001
11111111111111111111100001010011
11111111111111111111110000111111
11111111111111111111111101001101
00000000000000000000001111000010
00000000000000000000000110110110
00000000000000000000001101101100
00000000000000000000001100010000
00000000000000000000000101101111
00000000000000000000001101101111
00000000000000000000010000101001
00000000000000000000001001011110
00000000000000000000000100111111
00000000000000000000000111100011
00000000000000000000000010010101
11111111111111111111111101101100
00000000000000000000001011010100
00000000000000000000000100110001
11111111111111111111101010001100
11111111111111111111110000101111
11111111111111111111101101000111
11111111111111111111100101100110
11111111111111111111100111101100
11111111111111111111010000111100
11111111111111111110111110001000
11111111111111111111001100000111
11111111111111111111011100011000
11111111111111111111000000100110
11111111111111111110011110001101
11111111111111111110110110101001
11111111111111111111001100110010
11111111111111111111100011111000
11111111111111111111110011100011
11111111111111111111111100010000
11111111111111111111111101000000
00000000000000000000000000010010
00000000000000000000001011101101
00000000000000000000001010110110
00000000000000000000000101000000
00000000000000000000000111011001
00000000000000000000000111010111
00000000000000000000000001100101
00000000000000000000001100001010
00000000000000000000000011101110
11111111111111111111111001011011
11111111111111111111100100011101
11111111111111111111100101100111
11111111111111111111100001100111
11111111111111111111010111101011
11111111111111111111101011100000
11111111111111111111011110010001
11111111111111111111100000010110
11111111111111111110101110100101
11111111111111111110111011011011
11111111111111111111110110100100
11111111111111111111101001111000
11111111111111111110111010010001
11111111111111111110111101011001
11111111111111111111000100011001
11111111111111111111010001111011
11111111111111111111101000101000
11111111111111111111111111111110
00000000000000000000001001011011
00000000000000000000000010101010
00000000000000000000010001111010
00000000000000000000001010000010
00000000000000000000001000111111
00000000000000000000001110100011
00000000000000000000010010001000
00000000000000000000001011010100
00000000000000000000000000000110
11111111111111111111111110010100
11111111111111111111111100001100
11111111111111111111010110001011
11111111111111111111000010001010
11111111111111111111000010101101
11111111111111111111001011001001
11111111111111111111101101111100
11111111111111111111110101110101
11111111111111111111011011010101
11111111111111111110011010110010
11111111111111111110110110100010
11111111111111111111001011001101
11111111111111111111010111011110
11111111111111111110110000101001
11111111111111111110100110101100
11111111111111111110011001010011
11111111111111111111010101000011
11111111111111111111101111111100
00000000000000000000000010100111
00000000000000000000011000001110
00000000000000000000011001001101
00000000000000000000001001110110
00000000000000000000010010100001
00000000000000000000001111100110
00000000000000000000010000010110
00000000000000000000000001000010
00000000000000000000000010010010
00000000000000000000001000100010
11111111111111111111110011100010
11111111111111111111101101101110
11111111111111111111011110001110
11111111111111111111000100001101
11111111111111111111001100110110
11111111111111111110111000000010
11111111111111111111001110100011
11111111111111111111001011101101
11111111111111111110100100110110
11111111111111111110000011000100
11111111111111111110100001011100
11111111111111111110010011010010
11111111111111111110010010001110
11111111111111111110110100100110
11111111111111111110100001001001
11111111111111111110000111010101
11111111111111111111001010111111
11111111111111111111011100011010
00000000000000000000000011111000
00000000000000000000100101000011
00000000000000000000010011101100
00000000000000000000010101111000
00000000000000000000000101111111
11111111111111111111111111010111
00000000000000000000010001001110
00000000000000000000010000110001
00000000000000000000001010010110
00000000000000000000000110100101
11111111111111111111110001110110
11111111111111111111101100001101
11111111111111111111100011110101
11111111111111111110111110001011
11111111111111111110010001101111
11111111111111111110011010101010
11111111111111111110101100000010
11111111111111111110011100010100
11111111111111111110011100110111
11111111111111111110010100011000
11111111111111111110010111100001
11111111111111111101111100001100
11111111111111111101111111110111
11111111111111111110101001000101
11111111111111111110101011100010
11111111111111111110001011110110
11111111111111111110100001101111
11111111111111111111011111101011
00000000000000000000000010111111
00000000000000000000010011100000
00000000000000000000010110000101
00000000000000000000010100000111
00000000000000000000010000001101
00000000000000000000010000100100
00000000000000000000001110010100
00000000000000000000010000110011
00000000000000000000001011000000
11111111111111111111111111010110
00000000000000000000000010111011
11111111111111111111110010010111
11111111111111111111100100001001
11111111111111111111001001011001
11111111111111111110101110000011
11111111111111111110110110010111
11111111111111111110110010001101
11111111111111111111001010100101
11111111111111111111000000011100
11111111111111111111000111011101
11111111111111111110010100111101
11111111111111111110001011010101
11111111111111111110010001000001
11111111111111111110110001011010
11111111111111111110011100010011
11111111111111111110010011100100
11111111111111111110111110100111
11111111111111111111101011000110
11111111111111111111110000110110
00000000000000000000010011001001
00000000000000000000010011011101
00000000000000000000100000110010
00000000000000000000010011011010
00000000000000000000001010011100
00000000000000000000001111010101
00000000000000000000000111101101
00000000000000000000000001011100
00000000000000000000000001101000
11111111111111111111111110010110
11111111111111111111110100100001
11111111111111111111010111000111
11111111111111111111001110000101
11111111111111111111010000011111
11111111111111111111011011010010
11111111111111111111010101100110
11111111111111111111101000100110
11111111111111111111110110011001
11111111111111111111100011111111
11111111111111111110010100110000
11111111111111111110000001110001
11111111111111111110100010010100
11111111111111111111010101000100
11111111111111111110001111111101
11111111111111111110101000011010
11111111111111111110111100110001
11111111111111111111011110010010
11111111111111111111101101101001
11111111111111111111101101010001
00000000000000000000000011011101
00000000000000000000001101001010
00000000000000000000010100110001
00000000000000000000001010100011
00000000000000000000000010111001
00000000000000000000001101010001
00000000000000000000010000101110
11111111111111111111111100100101
00000000000000000000000010011001
11111111111111111111101111111010
11111111111111111111101100000010
11111111111111111111110110100111
11111111111111111111101111010110
11111111111111111111111000101010
11111111111111111111011110011101
11111111111111111111111010100110
00000000000000000000000111111001
11111111111111111111000101100100
11111111111111111110011011111010
11111111111111111101111111001101
11111111111111111110000011001101
11111111111111111110000011100110
11111111111111111110001011000110
11111111111111111110010101111100
11111111111111111110111110010000
11111111111111111111011000101110
11111111111111111111100001111010
11111111111111111111011111111111
00000000000000000000000100001110
00000000000000000000011111000000
00000000000000000000001100110100
00000000000000000000000011101001
00000000000000000000000000110100
00000000000000000000000111101100
00000000000000000000001011101011
00000000000000000000000011011001
00000000000000000000000110001010
00000000000000000000000111100110
11111111111111111111110111001011
11111111111111111111110011110101
11111111111111111111101101111000
11111111111111111111010110111001
11111111111111111111001010010111
11111111111111111111011101111100
11111111111111111111100101101001
11111111111111111110001001111011
11111111111111111110001001000111
11111111111111111101011101011000
11111111111111111110001010110101
11111111111111111110011010100101
11111111111111111110000010000010
11111111111111111110011101110101
11111111111111111111000100001110
11111111111111111111100110000111
11111111111111111111010101110010
11111111111111111111100110010111
00000000000000000000001010001011
00000000000000000000011001111100
00000000000000000000010011110010
00000000000000000000000110011001
00000000000000000000001101111110
00000000000000000000001000000111
00000000000000000000001001011010
00000000000000000000001100011010
00000000000000000000001011101000
11111111111111111111111011001001
11111111111111111111101011111100
11111111111111111111100010101010
11111111111111111111100101000000
11111111111111111110111101110001
11111111111111111111000000010000
11111111111111111111001111100000
11111111111111111110111111101010
11111111111111111101101000111011
11111111111111111101011101111011
11111111111111111101010001010110
11111111111111111110100111001000
11111111111111111110111101111100
11111111111111111110010101010101
11111111111111111110011111111010
11111111111111111111001010010100
11111111111111111111010110111001
11111111111111111111011101010010
11111111111111111111011101110101
11111111111111111111111011110000
00000000000000000000000000000000
00000000000000000000001100011010
00000000000000000000000110100110
00000000000000000000010010000001
00000000000000000000001101001011
00000000000000000000001110100100
00000000000000000000000111010100
11111111111111111111110010100011
11111111111111111111110010000000
11111111111111111111110101111000
11111111111111111111101011010100
11111111111111111111110110110000
11111111111111111111011000011100
11111111111111111111000100101001
11111111111111111111001111111100
11111111111111111110100110111111
11111111111111111101101010000001
11111111111111111101001010001011
11111111111111111101101010001110
11111111111111111110111001100000
11111111111111111110110101100110
11111111111111111110100101011110
11111111111111111110101011111100
11111111111111111111000011100110
11111111111111111111011100001000
11111111111111111111011100001100
11111111111111111111011100111001
11111111111111111111111010001001
00000000000000000000001011000000
00000000000000000000001000111010
00000000000000000000000111010011
00000000000000000000001111110110
00000000000000000000000010001111
00000000000000000000001110011100
00000000000000000000000111111101
00000000000000000000000000110011
11111111111111111111110011101001
11111111111111111111101100100001
11111111111111111111100101110101
11111111111111111111101101100111
11111111111111111111010110001110
11111111111111111111011010100001
11111111111111111110111111010100
11111111111111111110100100111000
11111111111111111101101110011101
11111111111111111101110000010001
11111111111111111110100101011110
11111111111111111111001011101010
11111111111111111110100010111100
11111111111111111110100100100101
11111111111111111110101111001011
11111111111111111110111011000001
11111111111111111111010010000011
11111111111111111111010010110001
11111111111111111111100001110000
00000000000000000000000000000011
00000000000000000000000110111001
00000000000000000000001111101101
00000000000000000000000011010011
00000000000000000000000100111001
00000000000000000000000011001111
00000000000000000000001010001011
11111111111111111111111110000100
11111111111111111111110101000110
11111111111111111111110110011110
11111111111111111111110111100110
11111111111111111111101001111000
11111111111111111111110111100000
11111111111111111111011110100110
11111111111111111111001010000101
11111111111111111110101010100111
11111111111111111101110110000011
11111111111111111101001100110000
11111111111111111110010100010100
11111111111111111111001100111001
11111111111111111110110101001111
11111111111111111110100010101101
11111111111111111111000110010011
11111111111111111110111111001000
11111111111111111110111111111110
11111111111111111111000101111011
11111111111111111111011101100111
00000000000000000000000000110000
00000000000000000000010101110010
11111111111111111111111111011010
00000000000000000000000001000000
00000000000000000000001000101101
00000000000000000000001011001100
00000000000000000000001110000001
00000000000000000000001011100010
00000000000000000000001010101000
00000000000000000000000011001000
11111111111111111111101111001001
11111111111111111111101000001000
11111111111111111111110001010000
11111111111111111111110010001111
11111111111111111111010011010100
11111111111111111110110001101111
11111111111111111110010110011011
11111111111111111101100010001011
11111111111111111101100100001100
11111111111111111110100011100000
11111111111111111110110010100110
11111111111111111110010111011000
11111111111111111110110100101000
11111111111111111110111011100000
11111111111111111111001001110110
11111111111111111111100011011000
11111111111111111111100101010100
11111111111111111111011011011011
00000000000000000000000001001101
00000000000000000000010001101010
00000000000000000000001101111010
00000000000000000000000110011001
00000000000000000000001110111110
00000000000000000000010001111010
00000000000000000000000101011000
00000000000000000000000110111111
00000000000000000000001010010110
11111111111111111111111100001110
11111111111111111111111000110100
11111111111111111111110001101010
11111111111111111111101100111011
11111111111111111111100100000000
11111111111111111111001111000001
11111111111111111110100001011101
11111111111111111110011100110110
11111111111111111101110010100111
11111111111111111101110011001101
11111111111111111101110011110100
11111111111111111110000110111110
11111111111111111110110100101101
11111111111111111110110001111010
11111111111111111110101000011011
11111111111111111110111110100000
11111111111111111111011100011111
11111111111111111111010001111110
11111111111111111111010111100110
11111111111111111111111000110010
00000000000000000000001000101111
00000000000000000000000110101111
00000000000000000000000011001110
00000000000000000000001000111010
00000000000000000000000110000110
00000000000000000000000110000011
00000000000000000000000101110100
00000000000000000000001010100001
00000000000000000000001100110011
11111111111111111111111100001110
11111111111111111111111000010101
11111111111111111111100001110010
11111111111111111111010100101011
11111111111111111110110001001101
11111111111111111110100101010111
11111111111111111110110001000000
11111111111111111110011101011011
11111111111111111101100000111010
11111111111111111101001011011000
11111111111111111110000000110011
11111111111111111110110010111001
11111111111111111110101110110111
11111111111111111111000011110100
11111111111111111111011000111000
11111111111111111111011111011111
11111111111111111111101101110110
11111111111111111111101111001001
11111111111111111111111011111110
00000000000000000000001011001010
00000000000000000000001010001010
00000000000000000000001010000000
00000000000000000000001010100110
00000000000000000000000101010111
00000000000000000000001010010001
00000000000000000000000001001101
00000000000000000000001110111100
00000000000000000000011010100001
00000000000000000000000100000010
11111111111111111111111001100010
11111111111111111111101101011001
11111111111111111111110001110101
11111111111111111111000010000011
11111111111111111110111100011111
11111111111111111110111001111010
11111111111111111110010110011011
11111111111111111101100100100110
11111111111111111101110111011100
11111111111111111110011000100101
11111111111111111110110101100101
11111111111111111111001100000101
11111111111111111111011011010010
11111111111111111111110000110000
11111111111111111111111101110010
00000000000000000000000001110010
11111111111111111111101000110111
11111111111111111111111010010110
00000000000000000000001000111101
00000000000000000000001101110110
00000000000000000000000100110000
00000000000000000000001010010000
00000000000000000000001011110001
00000000000000000000001101111110
00000000000000000000000000110111
00000000000000000000001111011001
00000000000000000000001100010001
11111111111111111111111111010110
11111111111111111111101110101111
11111111111111111111100101001111
11111111111111111111100100100011
11111111111111111110101111100011
11111111111111111110011000100011
11111111111111111110101011011011
11111111111111111110101011010010
11111111111111111110100000100011
11111111111111111110101000101111
11111111111111111110110011111101
11111111111111111110111110111101
11111111111111111111010010010000
11111111111111111111110010010000
00000000000000000000000010001100
00000000000000000000001111011001
11111111111111111111111100111110
11111111111111111111111110011101
00000000000000000000000001111010
00000000000000000000000010000011
00000000000000000000000001101110
00000000000000000000001101101100
00000000000000000000001101001000
00000000000000000000010000011100
00000000000000000000000000011010
00000000000000000000000011001100
00000000000000000000000101000110
00000000000000000000001100111100
00000000000000000000000101111110
00000000000000000000001001110000
11111111111111111111110100111110
11111111111111111111010000010011
11111111111111111110101011001000
11111111111111111110011101001001
11111111111111111110001000100000
11111111111111111110011100011011
11111111111111111110100011101011
11111111111111111110101110011000
11111111111111111110110101001000
11111111111111111110111010100110
11111111111111111111010110001111
11111111111111111111101111100011
00000000000000000000010011111010
00000000000000000000010001111001
00000000000000000000000011010111
00000000000000000000000111100010
00000000000000000000000101001001
00000000000000000000000100101101
00000000000000000000001100001101
00000000000000000000010001010100
00000000000000000000000111110110
00000000000000000000001101010100
00000000000000000000001100001101
00000000000000000000000001111000
00000000000000000000001010110011
00000000000000000000010001110110
00000000000000000000010100010101
00000000000000000000001011011011
00000000000000000000000010100111
11111111111111111111110111000111
11111111111111111111110010010011
11111111111111111111110000100111
11111111111111111111011011001011
11111111111111111111000110000100
11111111111111111111001010111110
11111111111111111111010110010010
11111111111111111111010001000001
11111111111111111111000110101000
11111111111111111111110000011001
00000000000000000000000000000000
00000000000000000000011001100100
00000000000000000000010011111010
00000000000000000000011100000110
00000000000000000000000111001011
00000000000000000000001011000000
00000000000000000000010010000000
00000000000000000000000010011101
00000000000000000000000001011111
00000000000000000000000110101100
00000000000000000000001110001001
00000000000000000000000000001100
00000000000000000000001110011010
00000000000000000000001010100100
00000000000000000000011001001011
00000000000000000000011001100101
00000000000000000000000111111010
00000000000000000000001000011101
11111111111111111111110110000011
11111111111111111111110010010000
11111111111111111111111011111100
11111111111111111111101110000111
11111111111111111111110001101100
11111111111111111111100101010010
11111111111111111111110101101001
11111111111111111111110001011011
11111111111111111111101000010100
11111111111111111111110101011001
00000000000000000000001000010110
00000000000000000000001010001110
00000000000000000000001101011111
00000000000000000000001111001011
00000000000000000000001100001100
00000000000000000000001011001011
00000000000000000000010000100010
00000000000000000000001101000110
00000000000000000000000010100000
00000000000000000000010000011111
00000000000000000000001110110010
00000000000000000000000100000011
00000000000000000000000100111001
00000000000000000000001010111100
00000000000000000000000110011001
00000000000000000000000101001011
00000000000000000000000010001100
00000000000000000000001010110110
11111111111111111111110011110011
11111111111111111111110001111100
11111111111111111111100101000000
11111111111111111111100001001010
11111111111111111111011100000111
11111111111111111111100011000000
11111111111111111111101111011110
11111111111111111111110110010010
11111111111111111111101101101001
11111111111111111111110010011010
11111111111111111111111100000110
00000000000000000000000001100100
00000000000000000000010001001101
00000000000000000000000111101000
00000000000000000000010001100101
00000000000000000000000001000101
00000000000000000000000101011000
00000000000000000000000101010110
00000000000000000000001100011000
00000000000000000000000100000000
00000000000000000000000000001100
00000000000000000000001110111010
00000000000000000000000010001101
00000000000000000000001110111110
00000000000000000000000000100111
00000000000000000000000111000011
00000000000000000000000111001110
00000000000000000000000100100111
00000000000000000000000111100101
00000000000000000000001000001100
00000000000000000000000010110000
00000000000000000000000101100101
00000000000000000000001001001001
00000000000000000000000010011100
00000000000000000000000111001001
11111111111111111111111101010011
00000000000000000000000110010110
00000000000000000000000101010101
00000000000000000000001100010000
00000000000000000000000011001010
00000000000000000000010000101100
00000000000000000000010011000100
00000000000000000000000101101001
00000000000000000000000110001111
00000000000000000000010001110111
00000000000000000000000010000100
00000000000000000000000110111111
00000000000000000000000100111101
