00000000000000000000000101010010
00000000000000000000001101000000
00000000000000000000001100100000
00000000000000000000001011010000
00000000000000000000000111101010
00000000000000000000010000100111
00000000000000000000000110101101
00000000000000000000000111110000
00000000000000000000001111000100
00000000000000000000000100100010
00000000000000000000001111100001
00000000000000000000001101010001
00000000000000000000000011101010
00000000000000000000001011111100
00000000000000000000000010001010
00000000000000000000000111101000
00000000000000000000000100001001
00000000000000000000010000010000
00000000000000000000000010011101
00000000000000000000010000101110
00000000000000000000000000001111
00000000000000000000000101110100
00000000000000000000010000000010
00000000000000000000001100000011
00000000000000000000001100010101
00000000000000000000000111111001
00000000000000000000010000111100
00000000000000000000000110000010
00000000000000000000010001011110
00000000000000000000000001110010
00000000000000000000001110110011
00000000000000000000000100011110
00000000000000000000001110110010
00000000000000000000001000111101
00000000000000000000001110110010
00000000000000000000000010110001
00000000000000000000000111010111
00000000000000000000000011101111
00000000000000000000001010010001
00000000000000000000000010011010
00000000000000000000000110000010
00000000000000000000000111010110
00000000000000000000010011101000
00000000000000000000010000100000
00000000000000000000000010101111
00000000000000000000000001110000
00000000000000000000000001000101
00000000000000000000000101110000
00000000000000000000010010000011
00000000000000000000000100101111
00000000000000000000000101101110
00000000000000000000010001110011
00000000000000000000001010001110
00000000000000000000000011100101
00000000000000000000001011100110
00000000000000000000000100010010
00000000000000000000001011011111
00000000000000000000001010010000
00000000000000000000001010010101
00000000000000000000001010101011
00000000000000000000001011111110
00000000000000000000000110101000
00000000000000000000001101111001
00000000000000000000000101011011
00000000000000000000001010000010
00000000000000000000001000101110
00000000000000000000000110110011
11111111111111111111111000101111
00000000000000000000000100100100
11111111111111111111111010110011
11111111111111111111110101110110
11111111111111111111110101111000
00000000000000000000000001011001
11111111111111111111110110111111
11111111111111111111101001100111
11111111111111111111101100111010
11111111111111111111111110001100
11111111111111111111111101000001
00000000000000000000000101101110
00000000000000000000001000010101
00000000000000000000000111100111
00000000000000000000001101101101
00000000000000000000001000011000
00000000000000000000010010000100
00000000000000000000010001010101
00000000000000000000000001101100
00000000000000000000000100010011
00000000000000000000001010101100
00000000000000000000001100001111
00000000000000000000001100110110
00000000000000000000000000010000
11111111111111111111111100110101
11111111111111111111110010001010
11111111111111111111111110100001
11111111111111111111110011010001
11111111111111111111011000100001
11111111111111111111101010011010
11111111111111111111101001111000
11111111111111111111101110011001
00000000000000000000001111010010
00000000000000000000001101001111
11111111111111111111110111011000
11111111111111111111110100110000
11111111111111111111111000011011
00000000000000000000000110111101
00000000000000000000000100110110
00000000000000000000001101000101
00000000000000000000001110100000
00000000000000000000000101101000
00000000000000000000000010101001
00000000000000000000000100011110
00000000000000000000001100100000
00000000000000000000010000001011
00000000000000000000001100110110
00000000000000000000001101001101
00000000000000000000001111101000
00000000000000000000001110001100
00000000000000000000001100011000
11111111111111111111111111111111
11111111111111111111111010000100
11111111111111111111111000101110
11111111111111111111110000001010
11111111111111111111101100101000
11111111111111111111100000100001
11111111111111111111001111110011
11111111111111111111001001110011
11111111111111111111011011010001
11111111111111111111011001000011
11111111111111111110111111100100
11111111111111111110101000110100
11111111111111111111010000100110
11111111111111111111111000001010
00000000000000000000010010111110
00000000000000000000011010010111
00000000000000000000011000000011
00000000000000000000010010000111
00000000000000000000010101001010
00000000000000000000000101100100
00000000000000000000010001101011
00000000000000000000000010001111
00000000000000000000000110011000
00000000000000000000000011111011
00000000000000000000001111000100
00000000000000000000000011110001
00000000000000000000001101111110
00000000000000000000001001101001
11111111111111111111111111111100
00000000000000000000000100100110
11111111111111111111111000011100
11111111111111111111110000100011
11111111111111111111100101011100
11111111111111111111001001011001
11111111111111111111001000011101
11111111111111111111001011000101
11111111111111111111000100000101
11111111111111111110111111110011
11111111111111111110101011100010
11111111111111111110100011101111
11111111111111111111000010111110
11111111111111111111011110111111
11111111111111111111110111000011
11111111111111111111111011001000
11111111111111111111111111001000
00000000000000000000001001100000
00000000000000000000000010010001
00000000000000000000001010100110
00000000000000000000000001110000
00000000000000000000000110011000
00000000000000000000000000110011
00000000000000000000000010001010
00000000000000000000001000111000
00000000000000000000000101111101
00000000000000000000000001010111
00000000000000000000000000101011
00000000000000000000000010111011
11111111111111111111110010110001
11111111111111111111111100010111
11111111111111111111111011000110
11111111111111111111111010010011
11111111111111111111000011011001
11111111111111111111000001001110
11111111111111111110011001100010
11111111111111111110011011111001
11111111111111111110110010000110
11111111111111111110111101010110
11111111111111111110101011111011
11111111111111111111011000101001
11111111111111111111001111111000
11111111111111111111010010110101
11111111111111111111110001000110
00000000000000000000001100010010
00000000000000000000000011100110
00000000000000000000000000111010
00000000000000000000000110100101
00000000000000000000010011110011
00000000000000000000001110101011
00000000000000000000000010010100
00000000000000000000000001101000
00000000000000000000000001000101
00000000000000000000000010001110
11111111111111111111111100101101
11111111111111111111111010101110
11111111111111111111110010111100
11111111111111111111100010110010
11111111111111111111010011111001
11111111111111111111010011100001
11111111111111111111010110100100
11111111111111111111001010100000
11111111111111111110110110101010
11111111111111111101111010111011
11111111111111111101111100010000
11111111111111111110001010100110
11111111111111111110111011000001
11111111111111111110010101101011
11111111111111111110110011000101
11111111111111111110101110001100
11111111111111111110110110010100
11111111111111111111010110000110
00000000000000000000000000100111
00000000000000000000011110010010
00000000000000000000010101101011
00000000000000000000001100101100
00000000000000000000010011100011
00000000000000000000000000011010
00000000000000000000001100111011
00000000000000000000001100111111
00000000000000000000001100010111
00000000000000000000000111111000
11111111111111111111111100100011
11111111111111111111101001010110
11111111111111111111011000001000
11111111111111111111100110010100
11111111111111111111010110010110
11111111111111111110110111101011
11111111111111111111000101010010
11111111111111111111011101100110
11111111111111111110101100001010
11111111111111111101110111001101
11111111111111111110001011000001
11111111111111111110010110010100
11111111111111111110000100111011
11111111111111111110011010001001
11111111111111111110100100010010
11111111111111111110100010011000
11111111111111111110110110110000
11111111111111111111100101110001
00000000000000000000010000001101
00000000000000000000110001000111
00000000000000000000011110011110
00000000000000000000001110100010
00000000000000000000001101001111
00000000000000000000001101111110
00000000000000000000001101010010
00000000000000000000000110001000
00000000000000000000001011010101
11111111111111111111111100100000
11111111111111111111111101100000
11111111111111111111110110001110
11111111111111111111011111101100
11111111111111111111010110001011
11111111111111111110101110100101
11111111111111111110011100011000
11111111111111111111000000011111
11111111111111111110111010010001
11111111111111111110100000000110
11111111111111111110001010101110
11111111111111111101111110001001
11111111111111111101111011010100
11111111111111111110000011011001
11111111111111111110101010011100
11111111111111111110011101110011
11111111111111111110001101110011
11111111111111111110011000111110
11111111111111111111011101001011
11111111111111111111111000011000
00000000000000000000011010001101
00000000000000000000100101111010
00000000000000000000001100010010
00000000000000000000001111110011
00000000000000000000010001110000
00000000000000000000001000111001
00000000000000000000000101110011
00000000000000000000001100001001
11111111111111111111111001111110
00000000000000000000000100110011
11111111111111111111110111001101
11111111111111111111101001011111
11111111111111111110111101110111
11111111111111111110101000101000
11111111111111111111001100100100
11111111111111111111011101110000
11111111111111111111101110111100
11111111111111111110110101000110
11111111111111111110101111001000
11111111111111111101110111000101
11111111111111111110100101110000
11111111111111111110110000101110
11111111111111111110101011010110
11111111111111111110000001111001
11111111111111111110000011100000
11111111111111111110110000101000
11111111111111111111011110111011
11111111111111111111110000001001
00000000000000000000000010111000
00000000000000000000010110110010
00000000000000000000010111011111
00000000000000000000000101011100
00000000000000000000001001010100
00000000000000000000010001100100
00000000000000000000010000100100
00000000000000000000000110000110
00000000000000000000000100011111
00000000000000000000001000001011
11111111111111111111110100001100
11111111111111111111011101001000
11111111111111111111001000101010
11111111111111111111010100110101
11111111111111111111011100111011
00000000000000000000001001010100
11111111111111111111111001101101
11111111111111111111100111100000
11111111111111111111010000111010
11111111111111111110101100100100
11111111111111111111000111000111
11111111111111111111000001111010
11111111111111111110101010000000
11111111111111111101101111111001
11111111111111111110010101110010
11111111111111111110110010011111
11111111111111111111000110010110
11111111111111111111011100010110
11111111111111111111110101010111
00000000000000000000001111011100
00000000000000000000001010000010
00000000000000000000010100100111
00000000000000000000001010110110
00000000000000000000010010000101
00000000000000000000000010100111
11111111111111111111111111000110
00000000000000000000010100100100
00000000000000000000000111000111
00000000000000000000000000011001
11111111111111111111100010001111
11111111111111111111101110011100
11111111111111111111110010101100
11111111111111111111111101101001
11111111111111111111111011000110
11111111111111111111101010101110
11111111111111111111101000010011
11111111111111111110110101100111
11111111111111111110100011100111
11111111111111111110110100110010
11111111111111111110010001010001
11111111111111111110000111010001
11111111111111111101111101101000
11111111111111111110100000010000
11111111111111111110101110100001
11111111111111111110111110000110
11111111111111111111000111100010
11111111111111111111011110111011
11111111111111111111110101100001
00000000000000000000001110111100
00000000000000000000010111111011
00000000000000000000000010010100
00000000000000000000000110000011
00000000000000000000001110101110
00000000000000000000001001110110
00000000000000000000000111010110
00000000000000000000001000011010
00000000000000000000000111000100
11111111111111111111101110111000
11111111111111111111101010001100
11111111111111111111101011000101
11111111111111111111110010110110
11111111111111111111101000101101
11111111111111111111111101110110
11111111111111111111101001100011
11111111111111111110001011000001
11111111111111111101110100111100
11111111111111111101011001100110
11111111111111111101110010000111
11111111111111111110011110110110
11111111111111111110001111111111
11111111111111111110010110001001
11111111111111111111000111110101
11111111111111111111010111010000
11111111111111111111000111110001
11111111111111111111010010110110
11111111111111111111111101110001
00000000000000000000001100000010
00000000000000000000000110100001
00000000000000000000001000110011
00000000000000000000001010001000
00000000000000000000000001010111
00000000000000000000001001010101
00000000000000000000010000100101
00000000000000000000010001001101
11111111111111111111101110010001
11111111111111111111011001101101
11111111111111111111010010111100
11111111111111111111110010011000
11111111111111111111101100110111
11111111111111111111010110111001
00000000000000000000000000001001
11111111111111111111001111010101
11111111111111111101010100111011
11111111111111111101001111011111
11111111111111111101000110011011
11111111111111111110010011111110
11111111111111111110110101101011
11111111111111111110100110000000
11111111111111111110101110110110
11111111111111111111000010011110
11111111111111111111010010010000
11111111111111111111011110110000
11111111111111111111010011111011
11111111111111111111101111110010
00000000000000000000000101001000
00000000000000000000000101101111
00000000000000000000000001101010
00000000000000000000000011010010
00000000000000000000001000011110
00000000000000000000001011010011
00000000000000000000001010010010
00000000000000000000000000010010
11111111111111111111101000001000
11111111111111111111100100010101
11111111111111111111100011100010
00000000000000000000000111101011
11111111111111111111110100011001
11111111111111111111010101011001
11111111111111111110111001010010
11111111111111111110000001001110
11111111111111111101001010011110
11111111111111111100101110111010
11111111111111111101000111000000
11111111111111111110101110110110
11111111111111111110101000001000
11111111111111111110110001011111
11111111111111111111001100011011
11111111111111111110111110011000
11111111111111111111000011101011
11111111111111111111000010111000
11111111111111111111010101101000
11111111111111111111101011110100
11111111111111111111110101110011
00000000000000000000001111010110
00000000000000000000000101011111
00000000000000000000010001011101
00000000000000000000000000011000
00000000000000000000001000010001
11111111111111111111111111010111
00000000000000000000000010100011
11111111111111111111111000011100
11111111111111111111101110001010
11111111111111111111011111101011
11111111111111111111111111000001
11111111111111111111100100110010
11111111111111111111010000010001
11111111111111111101111111000111
11111111111111111100110100001110
11111111111111111100011110110110
11111111111111111101010101100101
11111111111111111110000100101010
11111111111111111110100000011111
11111111111111111110010101101111
11111111111111111110110111000010
11111111111111111111100100001100
11111111111111111111000100010010
11111111111111111110111001010011
11111111111111111111001010000000
11111111111111111111101100011011
00000000000000000000000100101001
00000000000000000000000000110101
00000000000000000000000111100011
00000000000000000000000110110100
00000000000000000000001000011111
00000000000000000000000000100011
00000000000000000000001101110001
00000000000000000000000110001110
11111111111111111111111000111011
11111111111111111111101100100100
11111111111111111111111011000110
00000000000000000000001011101011
00000000000000000000000111001010
11111111111111111111100110000101
11111111111111111110111011011001
11111111111111111101100100001010
11111111111111111100110111101010
11111111111111111100101000000010
11111111111111111110000100101000
11111111111111111110110100000100
11111111111111111110011100101101
11111111111111111110110011011110
11111111111111111111011000000001
11111111111111111111001011101000
11111111111111111111010111000001
11111111111111111111010101111000
11111111111111111111011101110000
11111111111111111111111100000010
00000000000000000000010011000100
00000000000000000000010000010000
00000000000000000000000100011010
00000000000000000000001100011011
00000000000000000000000011011111
00000000000000000000000101011110
00000000000000000000000001101110
00000000000000000000001100010110
11111111111111111111111111010101
00000000000000000000000111100100
00000000000000000000000111010101
00000000000000000000011011001000
00000000000000000000010010010111
11111111111111111111110110101001
11111111111111111111001100011001
11111111111111111110001001001111
11111111111111111101010001110001
11111111111111111101110101100111
11111111111111111110010101111101
11111111111111111110110110001110
11111111111111111110101100010101
11111111111111111111000011010010
11111111111111111110110000011111
11111111111111111111001110010110
11111111111111111111101011100011
11111111111111111111100011011010
11111111111111111111011100111010
00000000000000000000001101000001
00000000000000000000010101100101
00000000000000000000000011110111
00000000000000000000001000001101
00000000000000000000001011110100
00000000000000000000000000001010
00000000000000000000000101011010
00000000000000000000000111001001
00000000000000000000001000111000
00000000000000000000000110011000
00000000000000000000000011000001
00000000000000000000010101110001
00000000000000000000001111000100
11111111111111111111111111001101
11111111111111111111100100000100
11111111111111111110101011000110
11111111111111111110010000111100
11111111111111111110000000111101
11111111111111111110000101011011
11111111111111111101110000101110
11111111111111111110001101001001
11111111111111111110100110010000
11111111111111111110101100011001
11111111111111111110101111000101
11111111111111111111000101101110
11111111111111111111010001011101
11111111111111111111100011001000
11111111111111111111100100000010
00000000000000000000000111001001
00000000000000000000010000010000
00000000000000000000000101100110
00000000000000000000001110101101
00000000000000000000000101001010
00000000000000000000000110101100
00000000000000000000001111001111
00000000000000000000010001001000
00000000000000000000000111010011
11111111111111111111110111110001
11111111111111111111110111101100
00000000000000000000000011110110
11111111111111111111101110000100
11111111111111111111001100111000
11111111111111111110101100101000
11111111111111111110101100110011
11111111111111111111000000010101
11111111111111111110111101011001
11111111111111111101111000001000
11111111111111111101001110010011
11111111111111111110001111000100
11111111111111111110011100111011
11111111111111111111000011101100
11111111111111111111001100011011
11111111111111111111010001101000
11111111111111111111011111010100
11111111111111111111101010001011
11111111111111111111111010001100
11111111111111111111111100100111
00000000000000000000010000000011
00000000000000000000001100000010
00000000000000000000010011010011
00000000000000000000001000010111
00000000000000000000000001010000
00000000000000000000001010100001
00000000000000000000001011000101
00000000000000000000000100000111
11111111111111111111111100101101
11111111111111111111111011001100
11111111111111111111101111110001
11111111111111111111100000100010
11111111111111111111010000111001
11111111111111111110101001111100
11111111111111111110110111000000
11111111111111111110110101000101
11111111111111111110111101111110
11111111111111111101101001110111
11111111111111111101111110101011
11111111111111111110111100011100
11111111111111111110111100110110
11111111111111111111100100001011
11111111111111111111100111010011
11111111111111111111101001001000
00000000000000000000000111101010
00000000000000000000001100011000
00000000000000000000000000111010
00000000000000000000001010100101
00000000000000000000010000001000
00000000000000000000000001110001
00000000000000000000001110101010
00000000000000000000001011011110
00000000000000000000001111111110
00000000000000000000001101101001
11111111111111111111111111011111
00000000000000000000001101010000
11111111111111111111111011011000
11111111111111111111111010111001
11111111111111111111100111110001
11111111111111111111101100110011
11111111111111111111000010111010
11111111111111111110010101001100
11111111111111111101111100110110
11111111111111111110100101001100
11111111111111111111000001011111
11111111111111111110100010010100
11111111111111111110101000101010
11111111111111111111000001001010
11111111111111111111000110000110
11111111111111111111100000010111
00000000000000000000010000001111
00000000000000000000001111001100
00000000000000000000010000100111
00000000000000000000001001000010
11111111111111111111111101100100
00000000000000000000001100011001
00000000000000000000001000010001
00000000000000000000010000010100
00000000000000000000000110010111
00000000000000000000000010011110
00000000000000000000001111100111
00000000000000000000000001101111
00000000000000000000001100111111
00000000000000000000001010010111
00000000000000000000001010001001
00000000000000000000000101010110
00000000000000000000000110000011
11111111111111111111100111111001
11111111111111111110110111011100
11111111111111111110010000010001
11111111111111111101110110110100
11111111111111111101110001001110
11111111111111111110010110101111
11111111111111111110010111111010
11111111111111111110011010011101
11111111111111111110101100110110
11111111111111111110101000000111
11111111111111111111110110111111
00000000000000000000001011110111
00000000000000000000011000011110
00000000000000000000000001111011
00000000000000000000000100011111
00000000000000000000001000110011
00000000000000000000000011001110
00000000000000000000001010000100
00000000000000000000001111111110
00000000000000000000010000010001
00000000000000000000001111111000
00000000000000000000001011010011
00000000000000000000000010100111
11111111111111111111111111110110
00000000000000000000000111001011
00000000000000000000000100101111
00000000000000000000010011011000
00000000000000000000001001001000
11111111111111111111101111110111
11111111111111111111100100001100
11111111111111111111100000101011
11111111111111111111000001110001
11111111111111111111000011010011
11111111111111111111010011001110
11111111111111111111010111101101
11111111111111111111010001010010
11111111111111111111010011110111
11111111111111111111100011110110
00000000000000000000010000111101
00000000000000000000010111110111
00000000000000000000001101010100
00000000000000000000010000101000
00000000000000000000001000100001
00000000000000000000000101000011
00000000000000000000001101111100
00000000000000000000000001101100
00000000000000000000010001010100
00000000000000000000000001111100
00000000000000000000001010010101
00000000000000000000001101011100
00000000000000000000010001010100
00000000000000000000000111111100
00000000000000000000000110111010
00000000000000000000000111001001
00000000000000000000001011000011
00000000000000000000001111001001
00000000000000000000000001111110
11111111111111111111110100101111
11111111111111111111110000100010
11111111111111111111100110010010
11111111111111111111110010000110
11111111111111111111110011111001
11111111111111111111110000001011
11111111111111111111100101110100
11111111111111111111101101100110
11111111111111111111100101011111
11111111111111111111101001100010
11111111111111111111111110000101
11111111111111111111111001110100
00000000000000000000000000111111
00000000000000000000010011111011
00000000000000000000010100100110
00000000000000000000000011011000
00000000000000000000000100000001
00000000000000000000000100100010
00000000000000000000000010011110
00000000000000000000000100110111
00000000000000000000000010100100
00000000000000000000000100011011
00000000000000000000001111001100
00000000000000000000010000010011
00000000000000000000000100001100
00000000000000000000000111011010
00000000000000000000000100110111
11111111111111111111111110000001
00000000000000000000000001100011
11111111111111111111110000011100
11111111111111111111101010100011
11111111111111111111110001101100
11111111111111111111100001010001
11111111111111111111011101011100
11111111111111111111100100001101
11111111111111111111110100000111
11111111111111111111100010001000
11111111111111111111110101110011
00000000000000000000000011100000
00000000000000000000000110110011
00000000000000000000001010100000
00000000000000000000010011001111
00000000000000000000010100100100
00000000000000000000010000011000
00000000000000000000001110010100
00000000000000000000010001000100
00000000000000000000000010011101
00000000000000000000000000000001
00000000000000000000000011010001
00000000000000000000000100111100
00000000000000000000000100111000
00000000000000000000000101110110
00000000000000000000001001010110
00000000000000000000000001111011
00000000000000000000000011100111
00000000000000000000001100101000
00000000000000000000000101111000
00000000000000000000001000010110
00000000000000000000010011011100
11111111111111111111111110110010
00000000000000000000000110000000
00000000000000000000000100110110
00000000000000000000000111000010
00000000000000000000000001011011
00000000000000000000000011011110
00000000000000000000000110111110
00000000000000000000001000010011
00000000000000000000000100001010
00000000000000000000001100101111
00000000000000000000001000110100
00000000000000000000010010000110
00000000000000000000000000101011
00000000000000000000000010101001
00000000000000000000001111110001
00000000000000000000010000100101
00000000000000000000010000111110
