00000000000000000000000110000011
00000000000000000000000111100000
00000000000000000000010010001101
00000000000000000000000000010111
00000000000000000000001011011000
00000000000000000000001111011101
00000000000000000000000100101110
00000000000000000000000000010000
00000000000000000000000110111000
00000000000000000000010000001010
00000000000000000000010001100010
00000000000000000000001011100111
00000000000000000000000011000101
00000000000000000000010010101000
00000000000000000000001101000011
00000000000000000000001010010101
00000000000000000000001100110010
00000000000000000000000101001111
00000000000000000000001100000001
00000000000000000000001110110001
00000000000000000000001110110101
00000000000000000000000001111010
00000000000000000000001000011001
00000000000000000000000001011011
00000000000000000000000110010110
00000000000000000000000110101111
00000000000000000000000111000100
00000000000000000000000011111010
00000000000000000000001111110100
00000000000000000000000000001100
00000000000000000000000010001101
00000000000000000000000011100110
00000000000000000000000111101001
00000000000000000000000010000000
00000000000000000000000011100110
11111111111111111111111111101011
00000000000000000000001100101010
00000000000000000000000001010110
11111111111111111111111011101110
11111111111111111111111011100111
00000000000000000000000001011110
11111111111111111111111011010100
00000000000000000000001100100010
00000000000000000000000100101010
00000000000000000000001000111111
00000000000000000000000111100011
00000000000000000000010001000110
00000000000000000000000111100010
00000000000000000000010000011101
00000000000000000000001001111011
00000000000000000000000100010011
00000000000000000000001110101100
00000000000000000000001101011111
00000000000000000000001101011100
00000000000000000000001111111100
00000000000000000000000001100011
00000000000000000000000001111010
00000000000000000000000100101101
00000000000000000000000101100011
00000000000000000000010001111110
00000000000000000000000100110011
00000000000000000000000111001101
00000000000000000000000001010000
00000000000000000000001000011100
11111111111111111111111101100101
11111111111111111111110001010110
11111111111111111111101010101110
11111111111111111111011111001111
11111111111111111111101000110000
11111111111111111111001010101010
11111111111111111110101011111101
11111111111111111110100101011010
11111111111111111111001110111000
11111111111111111111100110001001
11111111111111111111110011110111
11111111111111111111110010001101
00000000000000000000000000000110
00000000000000000000000111011101
11111111111111111111111011011111
00000000000000000000001000000000
00000000000000000000000100010101
00000000000000000000000101110001
00000000000000000000000101001011
00000000000000000000010001110000
00000000000000000000000001000100
00000000000000000000000010110101
00000000000000000000000001011001
00000000000000000000000011110100
00000000000000000000000110010110
00000000000000000000001110100011
00000000000000000000000010011011
00000000000000000000000011111111
11111111111111111111111111000000
11111111111111111111001100011100
11111111111111111110101100111111
11111111111111111110101001000000
11111111111111111110101010001000
11111111111111111110100110110001
11111111111111111110110111001011
11111111111111111111100111110010
00000000000000000000100010111110
00000000000000000000001011101100
11111111111111111111100000101010
11111111111111111111011000110100
11111111111111111111100011010001
11111111111111111111110010110100
11111111111111111111111000100111
00000000000000000000010011010000
00000000000000000000011010000011
00000000000000000000000101010110
00000000000000000000001000010000
00000000000000000000000100000001
00000000000000000000001011111111
00000000000000000000001101100011
00000000000000000000000100000111
00000000000000000000001100111111
00000000000000000000010011100110
00000000000000000000011000000001
00000000000000000000010101100011
11111111111111111111111111010110
00000000000000000000011011001010
11111111111111111110111111111001
11111111111111111110110001111010
11111111111111111110001110101101
11111111111111111110001110000011
11111111111111111110010100100111
11111111111111111111001100100011
11111111111111111111111011000110
11111111111111111111001001100010
11111111111111111110101101011110
11111111111111111110110001000110
11111111111111111110010010000010
11111111111111111110100010111101
11111111111111111110110010110101
11111111111111111111010001101011
11111111111111111111000110101100
11111111111111111111011101000100
00000000000000000000010001011001
00000000000000000000011010111101
00000000000000000000001101101001
00000000000000000000001100110100
00000000000000000000000000110110
00000000000000000000010000010011
00000000000000000000001000101111
00000000000000000000100101010110
00000000000000000000000000110111
11111111111111111111011111011110
11111111111111111111100010111111
11111111111111111110011010111000
11111111111111111101100001011110
11111111111111111101011110111110
11111111111111111100101000111011
11111111111111111100000100110011
11111111111111111100001111010100
11111111111111111101010001000100
11111111111111111110111000110100
11111111111111111110010110001001
11111111111111111110000101001111
11111111111111111110010111001011
00000000000000000000101100101101
00000000000000000000111010010000
00000000000000000000111111111101
00000000000000000000110011011111
00000000000000000000010100101110
00000000000000000000000111011011
00000000000000000000100110001110
00000000000000000000000011001111
00000000000000000000001100110011
00000000000000000000001011110011
00000000000000000000001111110110
00000000000000000000000110001101
00000000000000000000001110101110
00000000000000000000111010000110
00000000000000000000001101110010
11111111111111111111111001011010
11111111111111111111001101000010
11111111111111111110111111110101
11111111111111111110001001001110
11111111111111111101010111011001
11111111111111111011011001110010
11111111111111111011010011100101
11111111111111111100011011100100
11111111111111111100000101101000
11111111111111111100110001011011
11111111111111111100010010011111
11111111111111111011111010000000
11111111111111111101011100110111
00000000000000000000000100000111
00000000000000000010010111100110
00000000000000000010000101111001
00000000000000000001100011011101
00000000000000000001001110011101
00000000000000000000111101111101
00000000000000000001000001101110
00000000000000000000010011101010
00000000000000000000001111000110
00000000000000000000000000011010
00000000000000000000001010011010
00000000000000000000001001001110
00000000000000000000001011010001
00000000000000000001010100110111
00000000000000000000101001011110
00000000000000000000000101101011
11111111111111111111011110000010
00000000000000000000011010000111
11111111111111111110011101100001
11111111111111111100101100000111
11111111111111111011010111001110
11111111111111111011110000010011
11111111111111111100101011100011
11111111111111111101110101001001
11111111111111111111011110000101
11111111111111111110011101100000
11111111111111111101110001000110
11111111111111111110100110111011
11111111111111111111111111001100
00000000000000000001011011010011
00000000000000000001011011000101
11111111111111111111110111110001
00000000000000000000100000000110
00000000000000000000111101101010
00000000000000000000101010000011
00000000000000000000011111011001
00000000000000000000000101110000
00000000000000000000010011001100
00000000000000000000001101110111
11111111111111111111110000101101
11111111111111111111110000011111
00000000000000000001001010100100
00000000000000000000100011001011
00000000000000000000001100010001
11111111111111111111001011110100
11111111111111111111000111100001
11111111111111111110000011111100
11111111111111111100110100111101
11111111111111111011001110010000
11111111111111111101000001011000
11111111111111111110111110011011
00000000000000000000010110101111
00000000000000000000010010101100
00000000000000000000001100000101
11111111111111111110111011000100
11111111111111111110111110111101
11111111111111111110110010001111
11111111111111111111000000110101
11111111111111111111000011100011
11111111111111111111010100011010
11111111111111111111000111011101
11111111111111111111010101001000
11111111111111111111100110100000
00000000000000000000000111011111
00000000000000000000010010100001
00000000000000000000000001111101
11111111111111111111111101000010
00000000000000000000000100010101
11111111111111111111111011101001
00000000000000000000100001110011
00000000000000000000010111110001
00000000000000000000010111111100
11111111111111111111010001010001
11111111111111111110011001100110
11111111111111111110001101110001
11111111111111111101000111000011
11111111111111111011010101011101
11111111111111111100000101111110
11111111111111111110011111100100
11111111111111111111100110011110
11111111111111111111111000101111
11111111111111111111000110011001
11111111111111111101100110001100
11111111111111111101111110101110
11111111111111111110001111001101
11111111111111111101011011101010
11111111111111111101100001000101
11111111111111111110111000000100
11111111111111111110110101111000
11111111111111111110000001010000
11111111111111111110110111111001
11111111111111111111111001011000
11111111111111111111110110011011
11111111111111111111111110110000
11111111111111111111111101100010
11111111111111111111100001101111
11111111111111111111111011110100
00000000000000000000001100100000
00000000000000000000001011101110
00000000000000000000101011100111
11111111111111111110101101101111
11111111111111111100101110001101
11111111111111111011101001101100
11111111111111111011101011010011
11111111111111111011100111011101
11111111111111111110000001010011
11111111111111111111100011001100
00000000000000000000011000111000
11111111111111111101001110111100
11111111111111111100100011000000
11111111111111111101111100001111
11111111111111111110010101100001
11111111111111111101101111110010
11111111111111111011000001110110
11111111111111111100111011011001
11111111111111111111001011111111
11111111111111111110110100111001
11111111111111111101110000000111
11111111111111111110010100010100
11111111111111111111110101010011
00000000000000000000010010010110
00000000000000000000001100010010
00000000000000000000000001111101
11111111111111111111100010111010
11111111111111111111110001001001
11111111111111111111100100001011
11111111111111111111111000011101
00000000000000000000000011010111
11111111111111111110111101011100
11111111111111111101000101111000
11111111111111111100010100010111
11111111111111111100000001110011
11111111111111111100000010010111
11111111111111111111010011111110
00000000000000000000000111011010
11111111111111111110110110010000
11111111111111111101010100111000
11111111111111111101010000010111
11111111111111111101110010100100
11111111111111111101011111000110
11111111111111111101110101010100
11111111111111111011001011100100
11111111111111111100100110101001
11111111111111111110001100101101
11111111111111111110011101111000
11111111111111111110100101010011
11111111111111111110111111000110
00000000000000000000001011010100
00000000000000000000000010001110
00000000000000000000001111110110
00000000000000000000000101011011
11111111111111111111110100110001
11111111111111111111011010011110
11111111111111111111100110000110
00000000000000000000100011111110
00000000000000000000010010110000
11111111111111111110111100011111
11111111111111111101100010101001
11111111111111111101010101010011
11111111111111111100101001101110
11111111111111111110000000101100
11111111111111111111111110000000
11111111111111111111101000011011
11111111111111111110110111001000
11111111111111111100111000100001
11111111111111111101101111010010
11111111111111111101011010010111
11111111111111111110010111110111
11111111111111111111011010111011
11111111111111111101101011011110
11111111111111111101111110101110
11111111111111111101110010111010
11111111111111111110111101110011
11111111111111111111100110110111
11111111111111111111011111000111
11111111111111111111110000100101
00000000000000000000000110101011
00000000000000000000001011101001
00000000000000000000000001111111
00000000000000000000000001110001
11111111111111111111100010000110
11111111111111111111101001111011
11111111111111111111110010100100
11111111111111111111001101011111
11111111111111111110010011010110
11111111111111111111000010111111
11111111111111111101001010000111
11111111111111111100101010111110
11111111111111111111100000001010
11111111111111111111100110010010
11111111111111111110100101010100
11111111111111111101001000001111
11111111111111111101000000101011
11111111111111111110010001100110
11111111111111111110110011101011
11111111111111111111100111111000
00000000000000000000101110111100
00000000000000000000110011010101
11111111111111111110110111101001
11111111111111111101011011001010
11111111111111111110001001100001
11111111111111111111000110110010
11111111111111111111111000110011
00000000000000000000001100111000
00000000000000000000011011010101
00000000000000000000001111100110
00000000000000000000000111110000
11111111111111111111111011111100
11111111111111111111110110000001
00000000000000000000010111001000
00000000000000000000000001001010
11111111111111111110111110011000
11111111111111111110000000011111
11111111111111111111010001001010
11111111111111111101101110100010
11111111111111111111011001011011
00000000000000000000100110001010
11111111111111111111000011100100
11111111111111111101010101111111
11111111111111111011111100101001
11111111111111111011111100111110
11111111111111111110010111001100
11111111111111111111111111000011
11111111111111111111000100100111
11111111111111111111100000001010
11111111111111111111101000100011
11111111111111111111010001110010
11111111111111111101110110110110
11111111111111111110011111111010
11111111111111111111100010011000
00000000000000000000010111011000
00000000000000000000001111000111
00000000000000000000000001001000
00000000000000000000001101100101
00000000000000000000000110110011
00000000000000000000001011010111
00000000000000000000001010011000
00000000000000000000100000011010
00000000000000000000010101001101
11111111111111111110101010000111
11111111111111111110101111001101
00000000000000000000000100000001
11111111111111111111111001110010
11111111111111111111101011000110
11111111111111111110101101100100
11111111111111111100100010011111
11111111111111111100000111101010
11111111111111111100111001110000
11111111111111111100000110010000
11111111111111111110110011010100
11111111111111111110100011010011
00000000000000000000011101000010
00000000000000000001001100011000
00000000000000000000100110110100
11111111111111111101111110111001
11111111111111111110110000100101
11111111111111111110110111010001
11111111111111111111101001011111
00000000000000000000101111000100
00000000000000000000001100101000
00000000000000000000010001100001
00000000000000000000001101110000
00000000000000000000001110010111
00000000000000000000010100011100
00000000000000000000010101010010
11111111111111111111101000101111
11111111111111111110111110010010
11111111111111111110110001111000
00000000000000000000010100100110
00000000000000000000100010001001
00000000000000000000010000100011
11111111111111111111101100001101
11111111111111111110010001110001
11111111111111111011101000001100
11111111111111111001100111110101
11111111111111111100000010100011
11111111111111111101001101111001
11111111111111111110111011101100
00000000000000000000000010101010
00000000000000000001100001100101
00000000000000000001110111100100
11111111111111111111100101110010
11111111111111111101101101010010
11111111111111111110111011110100
00000000000000000000011101101000
00000000000000000000111001111110
00000000000000000000101111011000
00000000000000000000011000111011
00000000000000000000000011101000
00000000000000000000000011101110
00000000000000000000000011000111
00000000000000000000011001011001
00000000000000000000100101000111
00000000000000000000001011001111
11111111111111111110110101100010
11111111111111111110100010111101
00000000000000000000010110100101
00000000000000000000101110010111
00000000000000000000100001000111
11111111111111111110111111100101
11111111111111111101100010100010
11111111111111111101011011101101
11111111111111111100000111000010
11111111111111111110010101011100
11111111111111111111001011011011
00000000000000000001010101101011
11111111111111111111010111000101
11111111111111111111110011000101
00000000000000000001101101001101
11111111111111111111100110100010
11111111111111111110100010101111
11111111111111111111001111011100
00000000000000000000101100101011
00000000000000000000000101101000
00000000000000000000001110000000
00000000000000000000001011110101
00000000000000000000010000000111
11111111111111111111111111111000
00000000000000000000001010101111
00000000000000000000001111101001
00000000000000000000001101111000
00000000000000000000101011111100
00000000000000000000000100011111
11111111111111111111111111010001
00000000000000000000010011100011
00000000000000000000000111001101
11111111111111111111000011000000
11111111111111111110001001001001
11111111111111111101110100100000
11111111111111111101101111110110
11111111111111111101001100111001
00000000000000000000000001111110
00000000000000000001110100011111
00000000000000000000010000111010
11111111111111111101100100011010
11111111111111111110111000110110
00000000000000000000001001011100
11111111111111111111011011010011
11111111111111111110101001100001
00000000000000000000001110110010
00000000000000000000111001001100
00000000000000000000100010101000
00000000000000000000010011100010
00000000000000000000001010111111
00000000000000000000001101101001
00000000000000000000000000111000
00000000000000000000001010101110
11111111111111111111110001101010
11111111111111111111110011010101
00000000000000000001000100010001
00000000000000000000111011100011
00000000000000000001000011001011
00000000000000000000111100111100
00000000000000000000101111110111
00000000000000000000000100011011
11111111111111111111000110000101
11111111111111111101010100001100
11111111111111111100010100001111
11111111111111111100110111001111
00000000000000000000010111000000
00000000000000000010100100000101
00000000000000000000010010001010
11111111111111111101001010010010
11111111111111111101011010010011
11111111111111111110010100101010
11111111111111111110011001010100
11111111111111111111100001110100
00000000000000000000100101001101
00000000000000000000100100000110
00000000000000000000000001111101
00000000000000000000001001011111
00000000000000000000001011010000
00000000000000000000001000001100
00000000000000000000000100100000
00000000000000000000000101100010
11111111111111111111111100010100
00000000000000000000000101110110
00000000000000000000110111011010
00000000000000000000011001101010
00000000000000000000110101011101
00000000000000000000101001100010
11111111111111111111100011111011
11111111111111111111110011010111
11111111111111111110100001111101
11111111111111111110100100100011
11111111111111111100001101010011
11111111111111111101001010010011
00000000000000000000011100101011
00000000000000000001010110011010
11111111111111111111010000101101
11111111111111111101010010010011
11111111111111111110010000101110
11111111111111111111010010010100
00000000000000000000111010010111
00000000000000000000000110110001
11111111111111111111100000101011
00000000000000000000010110100110
11111111111111111111111101111110
11111111111111111111110101100101
00000000000000000000001001000011
00000000000000000000001001011010
00000000000000000000010000110011
00000000000000000000010001110010
00000000000000000000100011010000
00000000000000000000101111011110
00000000000000000000110010100100
11111111111111111111111000110101
00000000000000000000011000000100
00000000000000000000110000000111
00000000000000000000010110100000
00000000000000000000000011001111
11111111111111111111001011001111
11111111111111111101110001010100
11111111111111111100010010011000
11111111111111111110000011101110
11111111111111111111011011110011
00000000000000000000100111101010
11111111111111111110111011010001
11111111111111111110011101011000
11111111111111111110101110010100
00000000000000000000000100011011
11111111111111111111101111110101
11111111111111111110111101111000
11111111111111111111101110001100
11111111111111111111101001011001
11111111111111111111011011101000
11111111111111111111111010101100
00000000000000000000001001001110
00000000000000000000001011010100
00000000000000000000010001101010
00000000000000000000000011001111
00000000000000000000001001110000
00000000000000000000110000000011
00000000000000000000111000011101
00000000000000000000010101010101
00000000000000000000001001110001
11111111111111111111110011100101
00000000000000000000010001010101
11111111111111111111011110100101
11111111111111111110110100111000
11111111111111111101001010100111
11111111111111111100011100001100
11111111111111111110001110110000
11111111111111111111100101111100
11111111111111111111011010100010
11111111111111111111010111101100
11111111111111111110101001001101
11111111111111111111001100110010
11111111111111111111110010101000
00000000000000000000100101101111
00000000000000000000000010100111
00000000000000000000011111110101
11111111111111111111100110110010
11111111111111111111101010011001
11111111111111111111111100011010
00000000000000000000001001000110
00000000000000000000000111100101
00000000000000000000010001001100
00000000000000000000000110011110
00000000000000000000000111100101
00000000000000000000110110000011
00000000000000000000010011011110
11111111111111111111010110000011
11111111111111111110111000110111
11111111111111111110101011100101
11111111111111111111100011011001
11111111111111111111010110011110
11111111111111111110001111100000
11111111111111111101001111001101
11111111111111111011011000110000
11111111111111111100100010011110
11111111111111111101011110000011
11111111111111111111111001100001
00000000000000000000001011100111
11111111111111111111111101110110
00000000000000000000010001101001
00000000000000000000100110111110
00000000000000000000110111111011
00000000000000000000001101001111
00000000000000000000000110110101
00000000000000000000000110000101
11111111111111111111110010111011
11111111111111111111111000001011
00000000000000000000001101101011
00000000000000000000010000010011
00000000000000000000000111110010
00000000000000000000001001011111
00000000000000000000001100101110
00000000000000000000011000011000
11111111111111111111100100010101
11111111111111111110000111111100
11111111111111111110000000111100
11111111111111111110010010100111
11111111111111111111000100111000
11111111111111111111011100111001
11111111111111111110111010101100
11111111111111111101001100011011
11111111111111111100100111011010
11111111111111111101110011010010
00000000000000000000001010100111
00000000000000000000110000000010
00000000000000000010001001011111
00000000000000000000101101101011
11111111111111111111101111000111
11111111111111111111101000101100
00000000000000000000000110101101
11111111111111111111110011011100
11111111111111111111101010111001
00000000000000000000001011110011
00000000000000000000001100001110
00000000000000000000000111000000
00000000000000000000001010111001
00000000000000000000000001001110
00000000000000000000000100010011
00000000000000000000000111000110
00000000000000000000010010101000
00000000000000000000000100001011
11111111111111111111011010011000
11111111111111111110111010100010
11111111111111111110110100001101
11111111111111111110010101101100
11111111111111111110101011000000
11111111111111111110010111001111
11111111111111111110011110000001
11111111111111111101001010100101
11111111111111111101010110010000
11111111111111111110110101100101
00000000000000000001001100101001
00000000000000000001110001001000
00000000000000000001000000010111
11111111111111111111001101101011
11111111111111111111001010100001
11111111111111111111100000101001
00000000000000000000000101001010
11111111111111111111110001110011
11111111111111111111101010101010
00000000000000000000000101011010
11111111111111111111111110111101
00000000000000000000001011010001
00000000000000000000001000011101
00000000000000000000000001010110
00000000000000000000001110011101
00000000000000000000010010000111
00000000000000000000000010100100
00000000000000000000000000010111
00000000000000000000000110000100
00000000000000000000000111100101
00000000000000000000011000010111
11111111111111111111110100110111
11111111111111111111101010010101
11111111111111111111001011011110
11111111111111111110011100000111
11111111111111111110010101010111
11111111111111111101101111110001
11111111111111111110000100100011
11111111111111111110101111010100
11111111111111111111001001110010
11111111111111111111100100010001
11111111111111111111111000011000
11111111111111111111111010100011
11111111111111111111011001001100
11111111111111111111110001011111
00000000000000000000000001110110
11111111111111111111111110011010
00000000000000000000001111101111
00000000000000000000000000100101
00000000000000000000001010000000
00000000000000000000001100101110
00000000000000000000000111000010
00000000000000000000000010110010
00000000000000000000000010010000
00000000000000000000001000011001
00000000000000000000010001010000
00000000000000000000000001111111
00000000000000000000001010010011
00000000000000000000001111110000
00000000000000000000000111111110
00000000000000000000001011101111
00000000000000000000000011100000
11111111111111111111111000111100
11111111111111111111110110010110
11111111111111111111111011111010
11111111111111111111110111110100
11111111111111111111101101110011
11111111111111111111111000010011
11111111111111111111110000001101
11111111111111111111110100111110
00000000000000000000000101101011
00000000000000000000000101101010
11111111111111111111111011001101
00000000000000000000000011111000
00000000000000000000001010010100
00000000000000000000000111000001
00000000000000000000001111001111
00000000000000000000010000111110
00000000000000000000000101000010
00000000000000000000001111110101
